#include "network_data.h"

ai_handle ai_network_data_weights_get(void)
{

  AI_ALIGNED(4)
  static const ai_u8 s_network_weights[ 15740 ] = {
    0xc0, 0x99, 0xa9, 0x3d, 0xea, 0x4c, 0x91, 0x3e, 0xd0, 0xc9,
    0x0d, 0xbf, 0x1d, 0x17, 0x1c, 0xbd, 0x1e, 0xf7, 0xcb, 0x3e,
    0x88, 0x4d, 0xdc, 0xbd, 0x61, 0xbf, 0xe8, 0xbe, 0x00, 0xc3,
    0xbf, 0x3e, 0x3d, 0xc6, 0xdc, 0x3d, 0x15, 0xe9, 0x85, 0xbe,
    0xa2, 0xbb, 0x23, 0x3d, 0xc1, 0x18, 0x04, 0x3f, 0x4e, 0x64,
    0x86, 0x3d, 0x20, 0x61, 0x15, 0x3e, 0xa6, 0xfe, 0x37, 0x3e,
    0x4e, 0xbb, 0x1d, 0x3d, 0x17, 0x38, 0x17, 0xbe, 0x76, 0x22,
    0xcf, 0xbe, 0xe3, 0xe9, 0xf3, 0x3e, 0xba, 0x23, 0x17, 0xbe,
    0xf6, 0xf4, 0x4a, 0xbf, 0xaa, 0x52, 0xf6, 0x3e, 0x98, 0xe7,
    0x70, 0xbe, 0x92, 0x2f, 0xab, 0xbd, 0xdf, 0x8e, 0xde, 0x3e,
    0x8a, 0x55, 0x58, 0xbe, 0xc8, 0x7c, 0x01, 0xbf, 0x92, 0x01,
    0xb8, 0xbe, 0x2e, 0x3c, 0x13, 0xbd, 0x1a, 0xbf, 0xa4, 0x3e,
    0xbf, 0x31, 0xb6, 0x3d, 0x7b, 0x7a, 0xb9, 0xbe, 0x55, 0xd1,
    0xd6, 0xbe, 0x0b, 0x71, 0x6e, 0x3e, 0xb0, 0x4b, 0xcf, 0x3e,
    0x7c, 0xd3, 0xc8, 0x3d, 0x23, 0x32, 0xa0, 0x3e, 0x73, 0x0f,
    0xb6, 0x3e, 0x37, 0x10, 0x33, 0x3e, 0x5f, 0x51, 0xa1, 0x3e,
    0xbf, 0x6b, 0xd3, 0x3c, 0xab, 0x97, 0xe0, 0xbe, 0x27, 0x9f,
    0x24, 0x3e, 0xb2, 0xac, 0x55, 0xbe, 0xb9, 0x55, 0x1d, 0xbf,
    0x33, 0x03, 0x3a, 0xbe, 0xbc, 0xfe, 0xb3, 0x3d, 0x09, 0xda,
    0x2c, 0xbe, 0x64, 0x61, 0xbc, 0xbd, 0x0b, 0x4d, 0xa6, 0xbd,
    0xc9, 0x59, 0xab, 0xbd, 0x7b, 0x08, 0xd7, 0xbd, 0x27, 0x94,
    0xfa, 0xbd, 0x52, 0x66, 0xcc, 0xbd, 0xec, 0x24, 0x98, 0x3d,
    0xee, 0xf3, 0x8c, 0xbd, 0x83, 0x48, 0xc2, 0x3e, 0x25, 0x24,
    0x3f, 0xbd, 0xf0, 0xc9, 0x7c, 0xbe, 0xec, 0xda, 0x4b, 0x3e,
    0xdf, 0xc7, 0xbb, 0xbd, 0x39, 0x16, 0xbc, 0xbe, 0xc7, 0xa2,
    0x3c, 0x3e, 0xef, 0x91, 0x08, 0xbf, 0x68, 0xcd, 0x8c, 0x3e,
    0x17, 0xbd, 0x7f, 0x3e, 0x3f, 0x5c, 0x5a, 0xbf, 0x3a, 0xc6,
    0xa7, 0x3d, 0x23, 0xad, 0x2c, 0x3d, 0xfd, 0x50, 0xcc, 0xbf,
    0x43, 0xf6, 0x19, 0xbf, 0x80, 0xb3, 0x46, 0xbf, 0xb1, 0xb9,
    0xfa, 0x3d, 0x9f, 0xd4, 0x33, 0x3e, 0xed, 0xef, 0xa7, 0x3e,
    0x44, 0x6d, 0xb1, 0xbe, 0x12, 0xa1, 0xde, 0x3d, 0xf5, 0xca,
    0xdc, 0x3d, 0xe0, 0x3e, 0x03, 0xbf, 0xd8, 0x96, 0x15, 0x3e,
    0x8c, 0x3c, 0x8d, 0x3d, 0x56, 0xcd, 0x97, 0x3e, 0xaa, 0x8e,
    0x03, 0xbe, 0xa3, 0x1d, 0x98, 0x3e, 0x21, 0x58, 0xb2, 0xbd,
    0xff, 0x3d, 0xa9, 0x3d, 0x47, 0x7f, 0xbb, 0x3e, 0x13, 0x0d,
    0x1b, 0xbf, 0x0e, 0x48, 0x81, 0xbd, 0xa7, 0x69, 0x37, 0x3e,
    0x00, 0xe3, 0xa4, 0xbe, 0x8c, 0xfa, 0xa7, 0x3b, 0xbc, 0xcc,
    0x52, 0xbf, 0xf2, 0x7a, 0xa2, 0xbe, 0x6e, 0x9e, 0xa9, 0xbe,
    0x7f, 0xe3, 0x13, 0xbe, 0x84, 0xb4, 0xd8, 0x3e, 0xf2, 0xca,
    0x30, 0x3e, 0xd9, 0x54, 0x0e, 0x3f, 0xac, 0xab, 0x6c, 0x3e,
    0xb8, 0xb4, 0xf2, 0x3e, 0x8f, 0x83, 0x10, 0x3f, 0x6a, 0x93,
    0x18, 0xbf, 0x24, 0xd1, 0x4d, 0xbe, 0xf0, 0x6e, 0x21, 0x3d,
    0x25, 0xc2, 0x8a, 0xbe, 0x75, 0x9b, 0x2d, 0xbe, 0x5f, 0x21,
    0x48, 0xbe, 0xd0, 0x4c, 0x1e, 0x3e, 0x9e, 0x18, 0x86, 0xbe,
    0x68, 0x9b, 0xcb, 0xbe, 0x7d, 0x5b, 0x70, 0x3e, 0xf0, 0xb7,
    0x0f, 0x3e, 0x9d, 0x2c, 0x9c, 0xbe, 0xac, 0xd3, 0x19, 0x3f,
    0x95, 0xed, 0x5b, 0x3e, 0x4c, 0x08, 0x0b, 0xbe, 0x85, 0x73,
    0x8f, 0xbe, 0x39, 0x19, 0x9b, 0xbe, 0xed, 0x69, 0x81, 0x3e,
    0x3a, 0x62, 0xdc, 0xbe, 0xca, 0x2b, 0x61, 0x3d, 0x5e, 0x46,
    0xab, 0x3e, 0x3d, 0x61, 0xc5, 0xbe, 0x35, 0xf1, 0x28, 0x3e,
    0x11, 0xec, 0xc1, 0x3e, 0xe7, 0x41, 0x59, 0xbe, 0x66, 0x78,
    0x72, 0x3d, 0x7f, 0xa3, 0x3f, 0xbe, 0x01, 0xf6, 0xf0, 0xbe,
    0xf4, 0x4a, 0xa4, 0x3e, 0x99, 0x34, 0x2b, 0xbe, 0xc3, 0xfd,
    0x87, 0xbd, 0x48, 0xab, 0x94, 0x3e, 0x99, 0x22, 0xa2, 0x3e,
    0x2b, 0xae, 0x38, 0xbf, 0x1c, 0x0b, 0xbc, 0xbe, 0x61, 0x8d,
    0x92, 0x3e, 0x65, 0x53, 0xb8, 0x3d, 0x0e, 0xcd, 0x93, 0x3c,
    0xe5, 0xca, 0xd3, 0x3e, 0xb4, 0x83, 0x15, 0x3e, 0x25, 0x36,
    0x59, 0x3e, 0x97, 0x69, 0x1f, 0x3e, 0xd7, 0x14, 0x49, 0xbe,
    0x46, 0xaf, 0x19, 0xbc, 0x42, 0xd8, 0x8f, 0x3d, 0x04, 0x04,
    0x9b, 0xbc, 0x88, 0xb9, 0x45, 0xba, 0x66, 0xc7, 0x40, 0xbd,
    0x62, 0x99, 0x7d, 0xbc, 0xb0, 0x93, 0xaa, 0x3e, 0x66, 0x35,
    0xb2, 0xbc, 0x9d, 0xf9, 0x39, 0xbe, 0xf1, 0xc4, 0x29, 0x3e,
    0xb4, 0x26, 0x9d, 0xbc, 0x4d, 0xbd, 0x48, 0xbb, 0x12, 0xe4,
    0x2a, 0xbb, 0xdb, 0x31, 0xfd, 0x3d, 0x41, 0x01, 0x38, 0xbb,
    0x8a, 0xfd, 0x21, 0xbe, 0xce, 0x0f, 0xa1, 0xbe, 0xad, 0xa0,
    0xd5, 0xbc, 0x18, 0xaf, 0x15, 0xbe, 0x64, 0x88, 0x81, 0x3c,
    0x8e, 0x42, 0x6e, 0xbd, 0xd3, 0x29, 0x56, 0xbd, 0x6b, 0x99,
    0x67, 0xbe, 0xe9, 0xbd, 0x94, 0x3b, 0xd5, 0xe1, 0xb9, 0x3e,
    0x43, 0x50, 0xe5, 0xbe, 0xf6, 0x63, 0x7f, 0x3e, 0xae, 0x7d,
    0x5b, 0xbe, 0x27, 0x34, 0xf0, 0xbe, 0xfe, 0xbd, 0x37, 0xbe,
    0x7e, 0x35, 0x15, 0xbf, 0x45, 0x38, 0x17, 0xbd, 0x06, 0xf4,
    0x74, 0x3e, 0xdc, 0xea, 0x93, 0x3d, 0x04, 0xfb, 0x37, 0xbe,
    0x36, 0x7d, 0x98, 0xbe, 0x33, 0xa4, 0x1b, 0xbe, 0xea, 0x91,
    0xe5, 0x3d, 0xf5, 0x07, 0xb7, 0x3e, 0x90, 0x4d, 0x75, 0x3e,
    0x77, 0x10, 0x9a, 0x3e, 0x5c, 0xeb, 0x09, 0xbe, 0x3e, 0x42,
    0x32, 0x3d, 0x7e, 0x64, 0x40, 0xbd, 0xf1, 0xcc, 0x1d, 0xbd,
    0x4a, 0x36, 0xeb, 0x3d, 0xa9, 0xf0, 0xf3, 0xbd, 0xb1, 0xdb,
    0x90, 0xbd, 0x28, 0xc8, 0x80, 0x3c, 0x55, 0x94, 0x33, 0xbd,
    0x81, 0xad, 0x45, 0x3e, 0x20, 0x57, 0xa8, 0xbe, 0x0e, 0xa6,
    0x1a, 0x3e, 0x01, 0x19, 0x8d, 0x3e, 0x3e, 0xb8, 0xe2, 0x3d,
    0x3c, 0x9f, 0x6a, 0x3e, 0x55, 0x15, 0x95, 0x3e, 0x64, 0xf5,
    0x76, 0xbe, 0xf8, 0x60, 0xb9, 0xbe, 0x9c, 0xa7, 0x71, 0x3e,
    0xae, 0x2b, 0xe0, 0x3d, 0x84, 0x58, 0x19, 0xbc, 0x98, 0xf7,
    0x63, 0xbe, 0x35, 0x4c, 0x94, 0xbc, 0x5c, 0x8b, 0x11, 0x3b,
    0xa2, 0xcf, 0x54, 0xbd, 0x25, 0x78, 0xbc, 0xbe, 0x25, 0xc0,
    0x33, 0xbf, 0x40, 0x04, 0xbc, 0x3d, 0x1a, 0xc5, 0xe2, 0xbb,
    0xa0, 0x2d, 0xc3, 0x3e, 0x18, 0xfe, 0xe4, 0x3d, 0x43, 0xd3,
    0xfe, 0x3d, 0x24, 0xeb, 0xba, 0x3b, 0x81, 0x56, 0x03, 0xbd,
    0x74, 0x81, 0xd6, 0xbe, 0xf7, 0x15, 0x96, 0x3d, 0x3e, 0x4c,
    0xb9, 0xbb, 0x15, 0xd0, 0x8d, 0xbd, 0xc5, 0xb3, 0x0d, 0x3e,
    0xe6, 0x80, 0xa8, 0x3e, 0xf4, 0xe6, 0x3e, 0xbd, 0x4e, 0x28,
    0x8e, 0xbe, 0xa4, 0x54, 0xe6, 0xbc, 0x69, 0xc6, 0xce, 0x3d,
    0x11, 0xc6, 0xa3, 0x3c, 0xdb, 0x61, 0x9c, 0x3e, 0xfe, 0xa3,
    0xb9, 0xbd, 0xfd, 0x7a, 0x4b, 0x3e, 0x69, 0x2a, 0xf2, 0x3c,
    0x82, 0x51, 0xe5, 0xbd, 0xf5, 0xd9, 0x08, 0x3e, 0xba, 0x42,
    0x75, 0xbd, 0x02, 0x46, 0x45, 0x3d, 0xd0, 0xac, 0x21, 0x3c,
    0x9b, 0x0d, 0xb1, 0x3c, 0xfd, 0xdc, 0xc4, 0x3d, 0x46, 0xa1,
    0x86, 0x3e, 0x04, 0x02, 0x06, 0x3e, 0x3c, 0xc4, 0x6a, 0xbe,
    0xcb, 0x08, 0xce, 0xbd, 0xd3, 0xf6, 0x59, 0x3d, 0xbd, 0xf9,
    0xe8, 0xbe, 0xbd, 0x63, 0xfd, 0x3c, 0xc4, 0xcd, 0x75, 0x3d,
    0x21, 0xba, 0x10, 0xbf, 0xe8, 0x3a, 0xd2, 0xbe, 0xfb, 0xd6,
    0x38, 0x3d, 0x81, 0xe8, 0xb7, 0x3c, 0x96, 0xfa, 0xc1, 0xbe,
    0x59, 0x93, 0x5c, 0x3d, 0xa8, 0x0a, 0x86, 0x3e, 0x40, 0xb7,
    0x10, 0xbd, 0xc2, 0x51, 0xb4, 0x3d, 0x60, 0x0c, 0x4b, 0xbd,
    0xe8, 0x59, 0x80, 0xbe, 0x3d, 0x79, 0x17, 0x3e, 0xc8, 0x32,
    0xa0, 0xbd, 0xd2, 0x9b, 0x73, 0xbd, 0x42, 0x4c, 0xf2, 0xbd,
    0x05, 0xea, 0x8f, 0xbd, 0x6e, 0xfc, 0x3a, 0xbe, 0x00, 0x8e,
    0x30, 0xbe, 0x1b, 0x12, 0xa2, 0xbe, 0x3b, 0x50, 0x52, 0x3e,
    0x2e, 0x44, 0x83, 0x3e, 0x37, 0x4a, 0xb5, 0x3d, 0xe6, 0xd0,
    0x4b, 0xbe, 0x48, 0x81, 0x35, 0x3e, 0x1b, 0x17, 0x64, 0x3e,
    0x70, 0x99, 0x16, 0xbe, 0x92, 0x2a, 0x40, 0xbd, 0xf3, 0x11,
    0xda, 0xbd, 0x76, 0xae, 0x09, 0x3d, 0x1b, 0xcd, 0xbc, 0xbd,
    0x87, 0xa6, 0xc6, 0x3d, 0x64, 0x2f, 0x4a, 0xbc, 0x47, 0x61,
    0x47, 0x3e, 0x3d, 0xb4, 0xbe, 0xbe, 0xd1, 0x4f, 0xc6, 0x3d,
    0x56, 0x40, 0x6d, 0x3c, 0x1c, 0x20, 0x06, 0x3e, 0x5d, 0xff,
    0xf0, 0x3d, 0x81, 0xb2, 0x37, 0x3e, 0xd8, 0x1c, 0xe4, 0xbb,
    0xaf, 0xeb, 0xb1, 0x3e, 0xfb, 0xf5, 0x58, 0xbe, 0x4f, 0xed,
    0x3c, 0xbd, 0x53, 0x9c, 0xce, 0x3d, 0x45, 0x24, 0xf5, 0x3d,
    0x8c, 0x89, 0xd6, 0xbe, 0xba, 0x9b, 0x4a, 0x3e, 0x38, 0x88,
    0xb0, 0xbd, 0x6c, 0xb8, 0x60, 0xbf, 0x91, 0xe1, 0xd9, 0xbe,
    0xf1, 0x19, 0xb3, 0x3e, 0x20, 0x59, 0xb2, 0xbd, 0x53, 0x9b,
    0x28, 0x3e, 0x42, 0xc8, 0x49, 0x3e, 0x5c, 0xdd, 0xaa, 0x3e,
    0x0b, 0x22, 0x6d, 0xbe, 0x29, 0xb8, 0x47, 0x3f, 0x5b, 0xdb,
    0xee, 0xbd, 0xb8, 0xb9, 0x6a, 0xbf, 0x67, 0x60, 0xb2, 0x3c,
    0x43, 0x48, 0x76, 0x3d, 0xef, 0x36, 0x17, 0x3e, 0xd8, 0x1b,
    0xb7, 0x3e, 0x6a, 0x9e, 0x34, 0xbc, 0xf1, 0xd9, 0x67, 0xbe,
    0x73, 0x31, 0x9f, 0x3d, 0x43, 0x9f, 0xe7, 0xbd, 0x70, 0x92,
    0x6d, 0xbd, 0x51, 0xb5, 0x06, 0xbe, 0x48, 0x8a, 0xd3, 0xbd,
    0xbe, 0x59, 0x03, 0x3e, 0xdc, 0xaa, 0xba, 0x3d, 0x42, 0x0d,
    0x6f, 0xbf, 0xe5, 0x58, 0x12, 0x3e, 0x94, 0x12, 0x49, 0x3c,
    0x04, 0x0d, 0xda, 0x3d, 0x5e, 0xea, 0xe3, 0x3d, 0x85, 0x21,
    0xf9, 0xbe, 0x3e, 0x9b, 0xff, 0x3c, 0x2b, 0x25, 0x27, 0xbe,
    0x19, 0x44, 0x02, 0xbe, 0xa2, 0x3e, 0x3c, 0x3e, 0x5c, 0x84,
    0x6a, 0xbe, 0x8a, 0x03, 0x9f, 0xbc, 0x68, 0xee, 0x4c, 0x3e,
    0xfb, 0x54, 0x04, 0xbe, 0x5a, 0x15, 0xe2, 0x3e, 0x0e, 0x1d,
    0xa0, 0x3d, 0xff, 0xfe, 0x36, 0x3d, 0x84, 0xf7, 0x92, 0xbe,
    0x97, 0xb0, 0xe0, 0xbc, 0xba, 0x54, 0xff, 0x3a, 0x97, 0x2c,
    0x2b, 0x3e, 0xf4, 0x81, 0x94, 0xbf, 0x9e, 0x45, 0x66, 0x3c,
    0xa2, 0x48, 0x1c, 0xbe, 0xe7, 0x44, 0xcf, 0xbe, 0xb3, 0x0e,
    0x1a, 0xbe, 0xdf, 0x2c, 0xc7, 0xbe, 0x02, 0xa3, 0x68, 0x3e,
    0x1f, 0x07, 0xcf, 0x3d, 0xee, 0xbc, 0x93, 0x3e, 0xe4, 0x14,
    0x8c, 0x3e, 0x3b, 0xac, 0x07, 0x3e, 0xf8, 0xff, 0x48, 0xbe,
    0x0b, 0xba, 0xb1, 0xbd, 0xd8, 0x0e, 0x4e, 0xbf, 0xf8, 0xd6,
    0xc1, 0xbc, 0x1f, 0x37, 0xd4, 0xbe, 0xd8, 0x4d, 0x1c, 0xbd,
    0xad, 0xcb, 0x88, 0xbe, 0x58, 0x0e, 0x81, 0xbe, 0x18, 0xc1,
    0x61, 0xbc, 0x30, 0x5f, 0xae, 0x3e, 0xf9, 0xe2, 0x36, 0x3e,
    0x04, 0xe4, 0x17, 0xbc, 0x53, 0xcd, 0x06, 0xbe, 0x0a, 0x2e,
    0x86, 0x3e, 0x2e, 0x56, 0xe2, 0x3e, 0xb2, 0xea, 0xcb, 0x3d,
    0x9e, 0xed, 0x64, 0x3e, 0xcf, 0x6a, 0xc3, 0xbe, 0x2c, 0xe0,
    0x70, 0x3e, 0x12, 0xf4, 0x12, 0x3c, 0x46, 0x23, 0xdf, 0xbd,
    0x12, 0xd9, 0x2a, 0xbf, 0xfd, 0x9c, 0x97, 0xbe, 0x91, 0x32,
    0xce, 0xbe, 0xb9, 0x3b, 0x0b, 0x3d, 0xbb, 0xd3, 0xce, 0xbe,
    0x12, 0x8e, 0x2d, 0x3d, 0x49, 0x41, 0x9f, 0x3d, 0x49, 0xf1,
    0x66, 0x3e, 0xbe, 0xc4, 0x09, 0x3e, 0x9b, 0xd7, 0x72, 0x3e,
    0x13, 0xa9, 0x14, 0x3e, 0xf8, 0x49, 0x25, 0xbe, 0xe1, 0xfb,
    0x99, 0xbe, 0x68, 0x94, 0x59, 0x3e, 0x17, 0xef, 0x5d, 0xbd,
    0x1d, 0xad, 0xe2, 0xbd, 0x89, 0xc4, 0x32, 0xbf, 0x7e, 0x3d,
    0xda, 0xbd, 0x59, 0xd2, 0x86, 0xbe, 0xbf, 0xa4, 0xaa, 0xbe,
    0x43, 0xa6, 0x40, 0x3e, 0xfe, 0xcf, 0xd3, 0xbd, 0x57, 0x4b,
    0x0c, 0x3e, 0xf0, 0x03, 0x47, 0x3d, 0xcc, 0xe1, 0x05, 0x3e,
    0x76, 0xfb, 0xb3, 0x3e, 0x43, 0xbd, 0xeb, 0xbd, 0x8f, 0xfc,
    0xfe, 0xbd, 0xa5, 0xc4, 0x2a, 0xbe, 0x05, 0x80, 0xc3, 0x3c,
    0x71, 0x61, 0x7e, 0xbd, 0x05, 0x9c, 0xfa, 0xbd, 0xa1, 0xbe,
    0x41, 0xbf, 0xc5, 0x3a, 0xc2, 0xbc, 0xfc, 0x98, 0x05, 0xbe,
    0x9f, 0x6b, 0x69, 0x3e, 0x36, 0xa3, 0x53, 0xbe, 0xdc, 0xc1,
    0xe3, 0x3e, 0x9b, 0x79, 0xb6, 0xbe, 0x22, 0xdc, 0xe3, 0x3d,
    0x1f, 0x84, 0x41, 0x3e, 0xec, 0x91, 0x36, 0x3f, 0xd5, 0xc6,
    0xbf, 0xbc, 0x09, 0xf3, 0x1a, 0x3e, 0x05, 0xb9, 0xcb, 0xbe,
    0xab, 0x52, 0xc3, 0x3d, 0xf0, 0x4b, 0x5c, 0x3d, 0x15, 0x88,
    0x97, 0x3d, 0x41, 0x20, 0x2b, 0xbf, 0x23, 0x76, 0xc0, 0xbc,
    0xf1, 0xae, 0x51, 0xbc, 0x54, 0x44, 0x1a, 0x3e, 0x4b, 0xb5,
    0x2a, 0x3d, 0xa4, 0x7f, 0xf8, 0xbd, 0xf8, 0x47, 0x55, 0x3d,
    0x6d, 0x87, 0xc2, 0x3d, 0xaf, 0xc9, 0x0f, 0xbd, 0x4b, 0x93,
    0x1c, 0x3e, 0x4a, 0x80, 0xcc, 0x3d, 0x59, 0x37, 0x62, 0xbe,
    0xa2, 0x1c, 0x10, 0xbe, 0xf7, 0x05, 0x49, 0x3d, 0x03, 0x27,
    0x82, 0xbc, 0x25, 0x3d, 0x63, 0xbe, 0x45, 0xd2, 0x93, 0x3e,
    0x26, 0xd3, 0x43, 0x3e, 0xb9, 0xd7, 0x25, 0xbe, 0x4f, 0xf0,
    0x05, 0xbf, 0xe3, 0xae, 0x57, 0xbd, 0x8b, 0xa3, 0x2c, 0x3d,
    0x7b, 0x19, 0xde, 0xbe, 0x7b, 0x3c, 0xb8, 0xbe, 0x08, 0x2b,
    0x37, 0xbe, 0x6f, 0x0b, 0xba, 0xbe, 0xe6, 0x13, 0xaf, 0x3e,
    0x26, 0xbb, 0x6f, 0x3e, 0x87, 0xf8, 0xb2, 0x3e, 0xf4, 0x8c,
    0x1d, 0xbe, 0xfb, 0xa6, 0x3c, 0xbd, 0xcc, 0x84, 0x5a, 0x3d,
    0x07, 0xc9, 0xc3, 0x3e, 0x95, 0xcc, 0x7e, 0x3e, 0x78, 0x31,
    0xef, 0x3d, 0x79, 0x61, 0x64, 0xbe, 0x72, 0x36, 0x78, 0x3e,
    0xa5, 0x12, 0xbe, 0x3e, 0x4e, 0x6d, 0x20, 0x3e, 0xe2, 0x6e,
    0x04, 0xbf, 0xc9, 0x97, 0x06, 0x3e, 0x17, 0x84, 0x80, 0xbd,
    0xbe, 0x0d, 0x7f, 0x3e, 0xcb, 0x1e, 0xb9, 0x3e, 0x5c, 0xe1,
    0x8b, 0x3d, 0x15, 0xf6, 0xf9, 0x3b, 0xdd, 0xd3, 0x1a, 0xbe,
    0xbd, 0x58, 0x98, 0x3e, 0x92, 0x37, 0xf6, 0xbc, 0xb6, 0xab,
    0x87, 0x3d, 0x7e, 0xe3, 0x80, 0xbc, 0x60, 0xc3, 0x51, 0xbe,
    0x3b, 0x5f, 0x1f, 0xbd, 0x0b, 0xdc, 0xb3, 0x3e, 0x0a, 0xb2,
    0x73, 0x3e, 0x6f, 0x4d, 0x8b, 0xbd, 0x11, 0x7e, 0xdf, 0x3d,
    0xc8, 0x8e, 0x45, 0x3d, 0x8c, 0xba, 0xca, 0x3d, 0x1e, 0x88,
    0x0b, 0x3c, 0xe4, 0xaf, 0xc8, 0x3d, 0x49, 0x43, 0x2d, 0x3e,
    0x41, 0x4c, 0x09, 0xbe, 0xc8, 0xf7, 0x33, 0x3e, 0x03, 0xa2,
    0x42, 0x3e, 0xcc, 0x38, 0xe4, 0x3d, 0x3e, 0x74, 0x06, 0xbe,
    0xdc, 0xa3, 0xcb, 0xbe, 0x83, 0x7d, 0x1b, 0x3d, 0xcb, 0xc9,
    0xfe, 0xbd, 0xff, 0x33, 0xcc, 0x3e, 0x04, 0x1e, 0x56, 0xbe,
    0xe5, 0x01, 0xb5, 0x3e, 0xdb, 0x6c, 0x9a, 0xbe, 0x9f, 0x74,
    0xdb, 0xbd, 0x82, 0x27, 0x85, 0xbe, 0x4e, 0x37, 0x86, 0x3e,
    0xef, 0xf9, 0x62, 0xbe, 0x61, 0x67, 0x99, 0x3d, 0x5e, 0x55,
    0x90, 0xbd, 0xd3, 0x47, 0x4b, 0x3e, 0x5c, 0x53, 0x8a, 0x3e,
    0x3e, 0x36, 0xf7, 0x3e, 0xa7, 0x58, 0x2c, 0x3e, 0x59, 0x7e,
    0x18, 0x3e, 0x7f, 0x7e, 0x55, 0xbf, 0x1b, 0xce, 0xb3, 0x3e,
    0x93, 0x58, 0x9c, 0xbe, 0x43, 0xcb, 0xa2, 0xbe, 0x96, 0x56,
    0x3d, 0xbf, 0x98, 0x57, 0x89, 0xbd, 0xd7, 0x47, 0xdb, 0x3e,
    0xe9, 0xf5, 0x74, 0xbe, 0x88, 0x2d, 0x19, 0x3d, 0x13, 0x08,
    0x01, 0xbe, 0xd2, 0x1b, 0x22, 0x3e, 0x7b, 0x0d, 0x59, 0x3d,
    0xe8, 0x9e, 0x91, 0xbd, 0x94, 0x48, 0x80, 0x3d, 0xac, 0x4d,
    0x8c, 0x3d, 0x26, 0x6d, 0xa9, 0xbc, 0x81, 0xd8, 0xa6, 0x3e,
    0x4d, 0x55, 0xc5, 0x3e, 0x0e, 0x3b, 0xbe, 0xbe, 0xf4, 0x84,
    0x8b, 0x3d, 0x11, 0xa0, 0x1d, 0xbf, 0x42, 0x76, 0xf5, 0xbd,
    0xa5, 0x22, 0xd2, 0x3d, 0x9e, 0x78, 0x88, 0xbe, 0x6c, 0x29,
    0x4f, 0x3e, 0xdd, 0x8a, 0xa9, 0xbd, 0x8c, 0x15, 0x46, 0xbe,
    0x3e, 0x7a, 0x74, 0x3d, 0xee, 0x99, 0x2c, 0xbe, 0x91, 0x9d,
    0xbe, 0xbe, 0x0e, 0xb1, 0x20, 0xbd, 0xa4, 0x04, 0x0b, 0x3b,
    0xba, 0x33, 0xe4, 0xbe, 0xee, 0xa8, 0x5e, 0xbe, 0x03, 0x87,
    0xc1, 0xbe, 0xfb, 0xe2, 0x0d, 0x3e, 0x35, 0x57, 0x94, 0xbe,
    0xd2, 0x23, 0x2c, 0xbe, 0xbc, 0x2d, 0x71, 0xbf, 0x85, 0xd4,
    0x64, 0x3e, 0x05, 0xd6, 0xe0, 0xbe, 0x1c, 0xbe, 0x38, 0x3d,
    0x47, 0x62, 0x49, 0x3e, 0x12, 0x2e, 0xb7, 0x3e, 0x5b, 0x5a,
    0x49, 0x3e, 0x31, 0x86, 0x7d, 0x3e, 0xc3, 0xac, 0x7b, 0x3e,
    0xbe, 0xca, 0x0c, 0x3f, 0xc4, 0xc4, 0x0a, 0xbf, 0xbf, 0x64,
    0xa1, 0xbe, 0xf8, 0xe9, 0xeb, 0xbe, 0x17, 0x1e, 0x14, 0xbf,
    0xb4, 0x78, 0x32, 0xbf, 0x82, 0xf7, 0x36, 0x3e, 0xdf, 0x16,
    0x13, 0xbf, 0x8e, 0xbd, 0x0b, 0x3f, 0xc6, 0x53, 0x81, 0xbd,
    0x5f, 0x74, 0x65, 0x3d, 0x04, 0xa3, 0x49, 0x3e, 0x01, 0xb3,
    0x96, 0xbd, 0x0d, 0x21, 0x62, 0xbe, 0x87, 0xf6, 0x5a, 0xbe,
    0x6e, 0xf6, 0x13, 0x3e, 0xef, 0xce, 0x84, 0x3d, 0xed, 0x14,
    0xb8, 0xbe, 0xa9, 0x15, 0xf9, 0xbe, 0xa6, 0xb9, 0xf8, 0xbe,
    0x7e, 0x8d, 0x0d, 0xbd, 0x67, 0x09, 0x5b, 0xbf, 0x4e, 0x97,
    0xa5, 0x3d, 0xa0, 0x46, 0xa4, 0xbe, 0x56, 0xa2, 0x16, 0x3f,
    0x86, 0x44, 0x32, 0x3e, 0xe5, 0x26, 0x55, 0xbd, 0x5d, 0x47,
    0xe9, 0xbe, 0xb7, 0x87, 0x09, 0xbe, 0xa1, 0xd8, 0x32, 0xbd,
    0x0d, 0xa7, 0xe9, 0xbd, 0x2f, 0x5d, 0xa3, 0x3e, 0x14, 0x56,
    0xc5, 0x3c, 0x5c, 0x8c, 0x0b, 0xbf, 0x49, 0x3f, 0xe0, 0xbe,
    0x93, 0xc6, 0x48, 0x3e, 0x9c, 0xc9, 0x88, 0xbe, 0x35, 0x9c,
    0xc7, 0xbe, 0x1c, 0x53, 0x95, 0x3e, 0xf8, 0xbb, 0xa8, 0xbe,
    0xa2, 0x32, 0xd9, 0x3d, 0x6d, 0xd7, 0x7b, 0x3e, 0xa6, 0xff,
    0xaf, 0xbd, 0x30, 0xda, 0x64, 0xbe, 0xfd, 0x60, 0xcd, 0xbf,
    0xad, 0x34, 0xaa, 0xbe, 0x3c, 0x96, 0x71, 0xbe, 0xed, 0x89,
    0x8f, 0x3e, 0xda, 0x37, 0x2a, 0xbe, 0x85, 0x7a, 0xf8, 0xbd,
    0x77, 0x33, 0x12, 0x3e, 0x3b, 0x72, 0xb1, 0x3e, 0x8d, 0xe6,
    0xac, 0x3e, 0x8f, 0xb0, 0x25, 0x3e, 0x64, 0xa0, 0xd5, 0xbd,
    0x64, 0xa0, 0xf8, 0xbe, 0xd9, 0x90, 0xbe, 0x3d, 0x75, 0x9a,
    0x89, 0x3e, 0xb6, 0x45, 0xea, 0x3d, 0x8e, 0x20, 0x7b, 0xbe,
    0x7c, 0xfa, 0x34, 0xbe, 0xb0, 0xcc, 0x56, 0xbe, 0x4c, 0x52,
    0x02, 0xbe, 0xa7, 0x37, 0x7a, 0x3e, 0x84, 0xf2, 0xab, 0xbd,
    0xfb, 0x23, 0xb3, 0x3d, 0x28, 0xdb, 0xa3, 0xbe, 0x9e, 0x7a,
    0xf6, 0x3d, 0xcd, 0xd2, 0xcd, 0x3d, 0xfa, 0x9c, 0x86, 0x3f,
    0xb6, 0x0d, 0x08, 0xbd, 0x68, 0xf8, 0x89, 0xbf, 0xc5, 0x28,
    0x04, 0x3f, 0xad, 0xa5, 0x0c, 0xbd, 0x3a, 0xbe, 0x1a, 0xbd,
    0xab, 0x15, 0xa6, 0x3e, 0xf0, 0xe5, 0x40, 0x3e, 0x8a, 0x67,
    0x0b, 0x3e, 0xce, 0x05, 0x79, 0xba, 0x10, 0x59, 0x09, 0xbe,
    0x6c, 0x39, 0x8b, 0x3e, 0x75, 0x5a, 0x68, 0x3e, 0xd9, 0x65,
    0x11, 0xbe, 0x83, 0xd0, 0x0f, 0x3e, 0x57, 0xe5, 0x47, 0x3d,
    0x42, 0x98, 0x4d, 0xbd, 0x7f, 0x31, 0x4a, 0x3d, 0xeb, 0xcf,
    0xaa, 0xbc, 0x04, 0x0a, 0x07, 0xbf, 0x7e, 0x09, 0x99, 0x3e,
    0x60, 0xa4, 0x08, 0xbe, 0xd9, 0xd9, 0xa4, 0x3d, 0x58, 0x0d,
    0x4b, 0xbf, 0x54, 0xb0, 0x75, 0xbe, 0x38, 0x53, 0x35, 0xbe,
    0x04, 0x00, 0x43, 0xbf, 0x7d, 0x70, 0xa4, 0xbe, 0xc0, 0x4d,
    0x8a, 0xbd, 0xdf, 0x65, 0x37, 0x3e, 0xf9, 0x10, 0xa9, 0xbc,
    0xfe, 0x7e, 0x6b, 0x3d, 0x8e, 0xc0, 0xc3, 0x3e, 0xbb, 0x84,
    0x3a, 0xbe, 0xd5, 0xd6, 0xd7, 0xbd, 0x23, 0x3d, 0x0c, 0x3e,
    0xcc, 0xc9, 0x28, 0x3b, 0x91, 0xa9, 0x02, 0x3e, 0x61, 0x97,
    0x5e, 0x3c, 0x82, 0x9e, 0xd4, 0x3e, 0x42, 0x13, 0x5d, 0x3e,
    0xcf, 0xfd, 0xfa, 0x3d, 0x5b, 0x83, 0xbc, 0xbe, 0xc9, 0xfd,
    0xe6, 0xbc, 0x23, 0x81, 0xe0, 0xbd, 0x5a, 0x4b, 0x44, 0x3c,
    0xa5, 0xda, 0x3a, 0x3d, 0xa6, 0xa8, 0x4d, 0xbe, 0x17, 0x22,
    0x2d, 0x3f, 0x26, 0xfe, 0x7c, 0x3e, 0x4e, 0xd0, 0x26, 0xbf,
    0x76, 0x96, 0x0d, 0x3f, 0x09, 0x5b, 0x86, 0xbd, 0xba, 0x05,
    0x8c, 0x3d, 0x3b, 0xe7, 0x17, 0x3f, 0xa3, 0xf6, 0x80, 0xbd,
    0xf4, 0xaa, 0x50, 0x3d, 0xd3, 0xd8, 0x9e, 0x3e, 0xc6, 0x9b,
    0xed, 0xbe, 0x77, 0x0a, 0x43, 0x3e, 0x71, 0x14, 0x5b, 0xbe,
    0x45, 0x90, 0x8a, 0xbe, 0x5e, 0xfa, 0xc8, 0xbc, 0xa8, 0x3a,
    0xe8, 0xbd, 0x55, 0x2b, 0x2d, 0x3e, 0xd2, 0x01, 0x20, 0xbe,
    0xf0, 0xf7, 0x8c, 0xbe, 0x9c, 0x34, 0x2d, 0x3f, 0xa6, 0x1c,
    0xd1, 0x3d, 0xa7, 0x52, 0xd3, 0xbd, 0x3e, 0xe3, 0x8c, 0x3c,
    0x81, 0xcf, 0x98, 0xbe, 0xff, 0x75, 0x98, 0xbd, 0x5c, 0x72,
    0x6e, 0xbe, 0xc8, 0x96, 0x9f, 0xbe, 0xc3, 0x9b, 0xc1, 0xbe,
    0x0a, 0xfa, 0xf9, 0x3e, 0x64, 0x43, 0xb8, 0xbe, 0x30, 0x5c,
    0xd5, 0xbe, 0x35, 0x97, 0x17, 0xbf, 0x9e, 0x82, 0x3e, 0x3e,
    0x09, 0x93, 0x72, 0x3d, 0x49, 0xa1, 0x14, 0xbe, 0xa7, 0x3a,
    0x11, 0x3f, 0xd3, 0x96, 0x2c, 0xbd, 0x88, 0x5e, 0x24, 0xbe,
    0x6d, 0x97, 0xa2, 0x3d, 0xfb, 0x82, 0xd3, 0x3e, 0x5b, 0x66,
    0x51, 0x3d, 0xe7, 0xb9, 0x7a, 0xbb, 0xf0, 0xeb, 0xa2, 0x3e,
    0x32, 0xf5, 0x87, 0xbe, 0x91, 0x2f, 0x25, 0x3e, 0x4f, 0x7a,
    0x8d, 0xbe, 0xa1, 0xa4, 0xb4, 0x3c, 0x53, 0x3e, 0x13, 0xbf,
    0xd2, 0x80, 0xb7, 0x3e, 0x81, 0x02, 0x40, 0x3e, 0x7c, 0x25,
    0xb8, 0xbe, 0x35, 0x95, 0x11, 0x3f, 0x61, 0x91, 0xb9, 0xbe,
    0x59, 0x79, 0x76, 0x3a, 0x7a, 0x1a, 0x2b, 0x3e, 0x37, 0x97,
    0x81, 0x3d, 0x9f, 0xfb, 0x57, 0x3e, 0xc9, 0x54, 0x38, 0x3e,
    0x40, 0xd8, 0x86, 0xbe, 0x00, 0x75, 0x80, 0xbe, 0x37, 0x26,
    0xb8, 0xbe, 0xea, 0x79, 0x23, 0xbf, 0xe7, 0x8f, 0x1e, 0xbe,
    0x1e, 0xc9, 0x4f, 0xbb, 0xf5, 0x34, 0x6f, 0xbe, 0xba, 0xf9,
    0x95, 0x3c, 0x89, 0xd4, 0xd9, 0x3e, 0x22, 0x17, 0xd8, 0x3e,
    0x06, 0xae, 0xa3, 0xbe, 0x01, 0x1f, 0x00, 0xbd, 0xea, 0x3b,
    0x68, 0xbb, 0x1e, 0x65, 0x0b, 0xbf, 0xb2, 0x2c, 0xd9, 0xbd,
    0x58, 0x60, 0x74, 0xbc, 0xaf, 0x1f, 0x9c, 0xbc, 0xe1, 0xaf,
    0xbd, 0x3e, 0x5e, 0xbc, 0x34, 0x3e, 0x8f, 0x48, 0x98, 0x3c,
    0x03, 0x53, 0x29, 0xbe, 0xe6, 0x50, 0xb1, 0xbb, 0xb9, 0x71,
    0xe3, 0x3e, 0xec, 0xba, 0x14, 0x3e, 0x2c, 0x49, 0xf1, 0xbe,
    0x0d, 0x81, 0x52, 0x3e, 0xde, 0xa1, 0x03, 0xbe, 0xef, 0xcf,
    0xec, 0xbd, 0x5a, 0x7f, 0xb1, 0xbc, 0x46, 0xa9, 0x02, 0xbe,
    0xcf, 0x67, 0x31, 0x3e, 0x75, 0x6d, 0xed, 0xbd, 0x2f, 0x2d,
    0x2f, 0xbf, 0xdc, 0x51, 0xbe, 0xbe, 0x49, 0xe5, 0xb4, 0x3c,
    0x86, 0x6e, 0x2a, 0x3c, 0xda, 0x54, 0x1f, 0xbe, 0xec, 0x4c,
    0x2b, 0x3e, 0x2d, 0xa3, 0x96, 0xbd, 0xba, 0xc3, 0x7c, 0x3e,
    0xb9, 0x6b, 0x94, 0xbd, 0x04, 0xbd, 0x02, 0x3f, 0x3a, 0x5c,
    0x32, 0x3e, 0x9f, 0xdb, 0x10, 0x3d, 0x4a, 0x6c, 0x4f, 0xbe,
    0xb9, 0xb1, 0xe9, 0xbd, 0x2a, 0x80, 0x57, 0xbd, 0xca, 0xb4,
    0x36, 0xbf, 0x58, 0x41, 0xdc, 0xbc, 0x11, 0x62, 0xfe, 0xbe,
    0xc0, 0x9b, 0x1c, 0xbd, 0x63, 0xbc, 0x9f, 0xbe, 0x5c, 0x76,
    0xa5, 0xbd, 0x1f, 0xc1, 0x11, 0xbf, 0xb5, 0x53, 0xb7, 0x3e,
    0x6a, 0x85, 0x42, 0x3b, 0x2b, 0x37, 0xc9, 0xbe, 0xc6, 0x2c,
    0x9c, 0x3e, 0xd1, 0x50, 0xf2, 0xbd, 0x28, 0x1b, 0x24, 0x3d,
    0x83, 0xad, 0x10, 0x3e, 0xdb, 0x37, 0x11, 0xbe, 0x4b, 0x29,
    0x2d, 0x3b, 0xe2, 0x16, 0x26, 0x3e, 0x39, 0xb6, 0xdd, 0xbe,
    0x83, 0x77, 0x12, 0x3e, 0x85, 0xb0, 0x05, 0x3e, 0x08, 0x11,
    0x94, 0xbd, 0x28, 0x93, 0xc2, 0xbe, 0x52, 0x4f, 0x50, 0xbe,
    0x69, 0xf3, 0xd7, 0x3e, 0xc0, 0x55, 0x19, 0x38, 0xb6, 0xe9,
    0xf9, 0xbc, 0x8e, 0x09, 0x49, 0x3e, 0x76, 0x0b, 0x0b, 0x3e,
    0x13, 0xfb, 0x35, 0xbd, 0xa6, 0x8e, 0xda, 0xbd, 0x6c, 0x0a,
    0xe0, 0xbd, 0x9c, 0x61, 0x21, 0xbd, 0x9c, 0xb2, 0x3d, 0x3d,
    0x14, 0x76, 0x91, 0xbe, 0x93, 0x35, 0xd5, 0xbe, 0x40, 0x81,
    0x1e, 0x3e, 0x95, 0x91, 0x89, 0xbe, 0x7c, 0x03, 0x92, 0x3d,
    0x96, 0xf1, 0xb6, 0xbe, 0x3e, 0x90, 0x0b, 0x3f, 0x03, 0x84,
    0x28, 0xbf, 0x59, 0xca, 0x44, 0xbd, 0x32, 0xac, 0x02, 0xbc,
    0x80, 0xfe, 0x9b, 0xbe, 0x5e, 0x12, 0xf9, 0xbd, 0xe6, 0x4b,
    0xb4, 0x3c, 0xc6, 0x8c, 0xa8, 0x3e, 0xd0, 0xfe, 0x5e, 0xbe,
    0x20, 0xb0, 0x62, 0x3d, 0x54, 0x3a, 0xd4, 0x3e, 0x60, 0x8d,
    0x13, 0x3f, 0xe6, 0x6d, 0xfb, 0x3d, 0x94, 0x5c, 0x27, 0x3e,
    0x09, 0xaa, 0x06, 0x3e, 0x56, 0x6e, 0x04, 0xbe, 0xdd, 0x3a,
    0x34, 0x3f, 0xef, 0x84, 0x49, 0xbe, 0xb8, 0x02, 0x79, 0xbd,
    0xbf, 0x79, 0x01, 0x3f, 0x90, 0xba, 0xb4, 0xbe, 0x5f, 0xd2,
    0x8a, 0xbd, 0x07, 0x8a, 0x91, 0x3e, 0xa8, 0xd7, 0x79, 0xbe,
    0xc5, 0x7d, 0x41, 0x3e, 0x09, 0xa6, 0x91, 0x3e, 0x80, 0x92,
    0x11, 0xbf, 0x7f, 0xbf, 0x00, 0xbf, 0xf8, 0xc9, 0xda, 0xbd,
    0xca, 0xbb, 0x80, 0xbd, 0x9a, 0xd9, 0x0b, 0xbc, 0x22, 0x94,
    0x9e, 0xbe, 0x02, 0xc7, 0x78, 0x3e, 0x50, 0x32, 0xe5, 0x3c,
    0x8a, 0xa1, 0xba, 0x3d, 0x2e, 0x84, 0x3e, 0x3f, 0x69, 0x4b,
    0x15, 0x3d, 0x75, 0xee, 0x27, 0xbe, 0xe1, 0xd8, 0x1c, 0x3e,
    0x16, 0x74, 0x93, 0x3e, 0x59, 0x35, 0x88, 0x3e, 0xcf, 0xa6,
    0x96, 0x3e, 0x77, 0x23, 0xf0, 0xbe, 0x8f, 0x47, 0x99, 0xbe,
    0x3d, 0xfe, 0x87, 0x3e, 0xb8, 0xd1, 0xb9, 0xbd, 0x3e, 0x57,
    0x2c, 0xbd, 0x08, 0x79, 0x8d, 0xbe, 0xa1, 0x44, 0x93, 0x3e,
    0xc0, 0x37, 0x52, 0x3e, 0x44, 0x32, 0x8a, 0xbd, 0x8f, 0x7e,
    0x40, 0x3e, 0x32, 0x53, 0xfe, 0xbe, 0xae, 0xa7, 0x0f, 0xbe,
    0x4c, 0x55, 0xa2, 0x3e, 0xc5, 0x5b, 0x00, 0x3a, 0x44, 0xd7,
    0x03, 0x3f, 0x4f, 0xbe, 0xd5, 0x3e, 0xf9, 0x3b, 0xc9, 0x3e,
    0x76, 0x09, 0xee, 0x3e, 0x6c, 0xb8, 0x81, 0x3d, 0x39, 0xb9,
    0x8c, 0xbe, 0x81, 0xb6, 0xb3, 0xbd, 0x8b, 0x21, 0xbe, 0x3e,
    0xf3, 0xed, 0x11, 0xbf, 0xe6, 0xff, 0x82, 0xbf, 0x17, 0x3c,
    0x96, 0xbf, 0xa9, 0x1f, 0xd9, 0x3d, 0x54, 0x97, 0xad, 0xbf,
    0x46, 0x74, 0xf2, 0x3d, 0xf0, 0x4c, 0xe8, 0xbe, 0xd5, 0x19,
    0x51, 0x3e, 0xeb, 0x42, 0x4b, 0xbf, 0x4d, 0x1e, 0x1a, 0xbf,
    0xed, 0x6d, 0x97, 0x3c, 0x3b, 0x31, 0x90, 0xbe, 0x38, 0xca,
    0x1b, 0xbe, 0x9d, 0x4d, 0xd3, 0xbd, 0x22, 0x3e, 0x48, 0x3e,
    0x6b, 0x8d, 0xbc, 0x3e, 0xa5, 0x30, 0x54, 0xbd, 0x8a, 0xcb,
    0x9f, 0xbf, 0x71, 0xf4, 0x11, 0xbf, 0xf8, 0xaa, 0xda, 0xbd,
    0xae, 0x8f, 0x45, 0xbf, 0x14, 0xbe, 0x20, 0xbe, 0xfa, 0x15,
    0x76, 0xbe, 0x9e, 0xa6, 0x73, 0x3d, 0xc1, 0xc1, 0xe1, 0xbe,
    0x0d, 0x28, 0x8a, 0xbe, 0x4f, 0x4a, 0xa5, 0x3d, 0x65, 0x61,
    0x1e, 0x3e, 0x4f, 0xe3, 0x39, 0x3d, 0x30, 0x7a, 0x96, 0xbe,
    0x59, 0x1b, 0x30, 0xbc, 0xb2, 0x56, 0xe5, 0x3d, 0x42, 0xac,
    0xb2, 0x3e, 0x9a, 0x34, 0x89, 0xbf, 0x96, 0xcb, 0x37, 0xbe,
    0xb3, 0x4c, 0x93, 0x3e, 0x0f, 0xb3, 0x23, 0xbf, 0x67, 0xa4,
    0xba, 0xbd, 0xb8, 0xa8, 0xb4, 0x3d, 0x62, 0xa2, 0xa2, 0x3e,
    0x18, 0xba, 0x83, 0xbd, 0xa9, 0x6b, 0xdf, 0xbe, 0xcc, 0x0f,
    0x60, 0x3a, 0x94, 0x50, 0xa3, 0x3f, 0x5c, 0xbd, 0x1f, 0x3e,
    0xef, 0xef, 0x00, 0xbf, 0xa0, 0x18, 0x69, 0xbe, 0x5c, 0x28,
    0xa8, 0xbe, 0xa7, 0x12, 0x64, 0xbe, 0x07, 0xc2, 0x7a, 0xbd,
    0xa7, 0xa2, 0x96, 0xbd, 0x79, 0xd2, 0x9f, 0xbe, 0x61, 0xcf,
    0xc5, 0x3e, 0x6a, 0xc6, 0x07, 0xbe, 0xb8, 0x91, 0xc3, 0xbd,
    0xab, 0x2d, 0x4b, 0x3d, 0xf2, 0x04, 0x75, 0xbd, 0xf0, 0xda,
    0x09, 0xbe, 0x8e, 0x4b, 0x7d, 0x3b, 0xe5, 0xf5, 0x90, 0xbe,
    0xfa, 0x4b, 0x1d, 0x3e, 0xc2, 0xa1, 0x8d, 0x3e, 0x52, 0x32,
    0x3e, 0x3e, 0x98, 0xee, 0x26, 0xbe, 0xac, 0xf7, 0xee, 0xbe,
    0x6f, 0xb6, 0x27, 0xbd, 0x9a, 0xee, 0x2a, 0x3e, 0x71, 0x68,
    0x59, 0xbe, 0xf4, 0x4b, 0x83, 0x3e, 0x3c, 0x10, 0xa3, 0x3d,
    0x0d, 0xb1, 0xc6, 0x3d, 0x27, 0xc1, 0xbf, 0xbd, 0x3b, 0x6c,
    0x33, 0x3e, 0x51, 0x3c, 0xc6, 0xbd, 0xec, 0x8a, 0xd1, 0x3d,
    0x2b, 0xd0, 0xbb, 0xbe, 0x24, 0xef, 0xa6, 0xbc, 0xc1, 0x43,
    0x79, 0x3e, 0xa2, 0x19, 0x8a, 0xbc, 0x89, 0x8c, 0x28, 0xbd,
    0x17, 0xf0, 0x5f, 0xbe, 0x61, 0x8d, 0x0a, 0xbf, 0x94, 0x6b,
    0x83, 0x3e, 0x92, 0xc7, 0x20, 0xbe, 0xbe, 0xf6, 0x80, 0xbe,
    0x10, 0x62, 0x7f, 0xbd, 0xa1, 0x85, 0x51, 0xbf, 0x94, 0x4a,
    0x2e, 0x3e, 0x8a, 0x29, 0x9b, 0xbe, 0xd5, 0x55, 0x35, 0xbe,
    0x6c, 0x3b, 0x11, 0xbe, 0x72, 0xf3, 0xd2, 0xbd, 0x14, 0x61,
    0x4f, 0x3e, 0x0c, 0x9d, 0xb5, 0xbe, 0x11, 0x41, 0x50, 0xbd,
    0x71, 0xc8, 0x7b, 0xbe, 0x14, 0xf4, 0x6d, 0x3f, 0x83, 0xdb,
    0x7a, 0xbc, 0x6f, 0x67, 0xf7, 0x3e, 0x31, 0xec, 0x2a, 0xbe,
    0x97, 0xb1, 0x97, 0xbc, 0xc1, 0xd5, 0xfa, 0xbc, 0x9a, 0xb5,
    0x54, 0x3c, 0xea, 0x40, 0x15, 0xbf, 0x3e, 0xff, 0xf1, 0x3d,
    0xb4, 0x4c, 0x86, 0xbd, 0xb9, 0x00, 0x2e, 0xbe, 0x58, 0xaf,
    0xde, 0xbc, 0xfd, 0x25, 0x2b, 0x3e, 0x47, 0x7c, 0x7b, 0x3e,
    0x37, 0x83, 0x18, 0x3e, 0x50, 0x6c, 0xca, 0x3d, 0x08, 0xbd,
    0x23, 0x3e, 0x9c, 0x78, 0x4b, 0x3e, 0xc8, 0xa2, 0x5e, 0x3e,
    0x5e, 0x9a, 0xee, 0xbd, 0x13, 0xbb, 0xa7, 0xbd, 0x70, 0x70,
    0x91, 0xbd, 0x32, 0x66, 0x93, 0x3e, 0xdc, 0x3e, 0xb5, 0xbe,
    0xa4, 0xeb, 0x36, 0x3e, 0xdd, 0x99, 0x2f, 0x3d, 0x81, 0xdd,
    0x87, 0xbd, 0x6c, 0x7a, 0x6f, 0xbd, 0x02, 0xd5, 0x24, 0x3e,
    0x27, 0x51, 0x3c, 0x3e, 0x25, 0xde, 0x96, 0xbd, 0x3d, 0xda,
    0xd2, 0x3d, 0x16, 0x49, 0xb0, 0x3e, 0x23, 0xb0, 0x38, 0xbe,
    0x15, 0x55, 0xf7, 0x3e, 0xe7, 0xf5, 0xc5, 0x3d, 0xfa, 0x0b,
    0xb3, 0xbe, 0x86, 0xac, 0x27, 0xbe, 0x27, 0xb3, 0x7e, 0xbe,
    0x0b, 0x78, 0xb0, 0xbe, 0x7e, 0x00, 0xa3, 0x3e, 0xcb, 0x75,
    0x69, 0x3d, 0xf8, 0x79, 0x2a, 0xbc, 0xd9, 0xb7, 0xb1, 0xbd,
    0x94, 0xdb, 0xb6, 0x3e, 0x06, 0x28, 0x75, 0x3c, 0x4f, 0xc0,
    0xa3, 0x3e, 0x6e, 0x24, 0xd8, 0xbd, 0xcf, 0x5a, 0x66, 0x3f,
    0x17, 0xb4, 0x85, 0x3e, 0x72, 0x24, 0x1b, 0x3e, 0xeb, 0xf3,
    0xda, 0xbe, 0x36, 0xc3, 0x4e, 0x3e, 0x6e, 0x4f, 0x9f, 0x3d,
    0x7d, 0x99, 0x42, 0x3e, 0x38, 0x4e, 0xcb, 0xbe, 0xe6, 0xd3,
    0xa4, 0x3e, 0x85, 0xba, 0xb5, 0x3d, 0x4e, 0x44, 0x52, 0xbc,
    0x1f, 0x2b, 0x35, 0xbf, 0xb0, 0x33, 0x28, 0x3b, 0x89, 0x66,
    0xe8, 0x3c, 0x06, 0x35, 0x53, 0xbd, 0x93, 0x74, 0xc7, 0xbe,
    0xe2, 0x21, 0xa4, 0x3e, 0x38, 0xc5, 0xb6, 0x3d, 0xcf, 0x11,
    0x52, 0xbd, 0xe1, 0xe0, 0x80, 0xbe, 0x96, 0xe4, 0xd5, 0xbd,
    0x73, 0x9d, 0xba, 0x3d, 0xa0, 0x7a, 0xcb, 0x3e, 0xd2, 0x37,
    0x8f, 0x3e, 0x52, 0x00, 0xe3, 0x3d, 0xad, 0xc8, 0xdd, 0x3e,
    0x28, 0x65, 0x1f, 0xbe, 0x49, 0xdb, 0xc7, 0xbd, 0x86, 0xcf,
    0x8e, 0x3d, 0x99, 0x57, 0x6c, 0xbd, 0xfb, 0x02, 0xc0, 0x3b,
    0x78, 0x24, 0x5a, 0xbe, 0xc7, 0x90, 0xd5, 0x3e, 0xf7, 0xd5,
    0x7d, 0xbe, 0xf3, 0x41, 0xd7, 0x3d, 0x36, 0x60, 0x80, 0xbe,
    0xc6, 0x5c, 0xa3, 0xbd, 0x49, 0x1d, 0xbc, 0xbb, 0x07, 0x39,
    0xc6, 0xbe, 0x18, 0x42, 0x01, 0x3e, 0x73, 0x30, 0x94, 0x3d,
    0x72, 0x89, 0xc3, 0xbe, 0x0f, 0x2c, 0xad, 0xbd, 0x7d, 0xe2,
    0x69, 0x3e, 0x09, 0x4b, 0xf4, 0x3e, 0xe9, 0x49, 0x9b, 0x3e,
    0xe7, 0xa2, 0x7e, 0xbe, 0x75, 0x19, 0x0e, 0xbf, 0xa3, 0xf8,
    0x28, 0x3f, 0xba, 0x6a, 0xf3, 0x3d, 0x64, 0xf8, 0xd4, 0x3d,
    0x84, 0xed, 0xa0, 0xbe, 0xc9, 0x86, 0x13, 0xbe, 0xc5, 0xdf,
    0xc6, 0x3d, 0x00, 0x41, 0x99, 0x3d, 0x0f, 0xff, 0x81, 0xbd,
    0xd2, 0x34, 0x3b, 0xbe, 0x6b, 0x38, 0xd9, 0xbd, 0x42, 0xc6,
    0xe8, 0xbd, 0x70, 0x59, 0xd2, 0xbe, 0x9a, 0x78, 0x8a, 0x3d,
    0xae, 0x21, 0xb1, 0x3d, 0x88, 0x34, 0xf4, 0x3b, 0x1d, 0x8a,
    0x2b, 0x3e, 0xd6, 0xa7, 0xcd, 0xbd, 0xde, 0x3a, 0xea, 0x3d,
    0x5a, 0xce, 0xa4, 0xbd, 0xeb, 0x94, 0x15, 0x3e, 0xdc, 0x11,
    0x5f, 0xbd, 0xd7, 0x62, 0xa4, 0xbb, 0x9e, 0x03, 0xc8, 0x3e,
    0x1d, 0x41, 0xa9, 0x3c, 0xab, 0x93, 0xc7, 0x3d, 0x0b, 0xab,
    0x49, 0x3e, 0x61, 0xfb, 0x81, 0xbd, 0xfe, 0xc6, 0xa1, 0xbe,
    0x00, 0x5a, 0x50, 0x3d, 0x77, 0x72, 0x0d, 0xbd, 0x5c, 0x36,
    0x86, 0xbd, 0xcf, 0xbd, 0x61, 0x3e, 0xbb, 0x3a, 0x3c, 0xbe,
    0x3b, 0x75, 0xe2, 0xbc, 0x9e, 0x6b, 0x34, 0xbd, 0x15, 0x8e,
    0x55, 0xbe, 0xe7, 0xfd, 0xd5, 0x3c, 0x2d, 0x72, 0x35, 0xbd,
    0xec, 0x89, 0x3e, 0xbf, 0x05, 0x02, 0x22, 0xbe, 0x44, 0x91,
    0x69, 0xbe, 0x15, 0x1b, 0xf1, 0xbd, 0x85, 0xb3, 0x4d, 0xbe,
    0x90, 0xbc, 0x04, 0xbf, 0x18, 0x11, 0x29, 0x3e, 0xcf, 0x5b,
    0x8a, 0xbd, 0xfe, 0xc9, 0xb2, 0xbe, 0x3d, 0xe3, 0x27, 0xbe,
    0xe8, 0xbf, 0xc3, 0xbe, 0x94, 0x90, 0xc5, 0x3e, 0xfc, 0x0f,
    0x42, 0x3d, 0xb6, 0xf4, 0x26, 0xbe, 0x3d, 0x86, 0x15, 0x3e,
    0xce, 0xec, 0x57, 0xbd, 0xb6, 0x85, 0x2e, 0xbc, 0xe4, 0xbc,
    0x93, 0x3e, 0xd7, 0x17, 0xda, 0xbe, 0xbe, 0xac, 0xf7, 0xbe,
    0x35, 0xb3, 0x16, 0x3e, 0x64, 0x82, 0xda, 0x3e, 0x40, 0x83,
    0x5b, 0xbd, 0x14, 0x14, 0x65, 0xbe, 0xfd, 0x0f, 0x0c, 0xbf,
    0xbb, 0xa2, 0x3f, 0x3e, 0x5c, 0xd2, 0xc0, 0xbe, 0x08, 0x93,
    0x77, 0x3e, 0x4e, 0xa6, 0x55, 0xbd, 0xc1, 0x63, 0xa6, 0x3d,
    0xde, 0xdd, 0x17, 0x3a, 0x53, 0x3c, 0x0c, 0x3e, 0xaa, 0x07,
    0x94, 0xbe, 0xc0, 0x0e, 0xef, 0x3d, 0x6e, 0x7c, 0xa2, 0xbe,
    0x4e, 0x6e, 0x04, 0xbf, 0x7b, 0xee, 0x00, 0x3e, 0x4c, 0xef,
    0x94, 0x3e, 0x50, 0xc6, 0x00, 0xbe, 0xb3, 0x71, 0x3b, 0x3b,
    0x0e, 0xbe, 0x85, 0xbe, 0x9f, 0x46, 0x7a, 0x3e, 0x29, 0x91,
    0x88, 0xbe, 0x9a, 0x2c, 0x4b, 0x3e, 0x8c, 0x9d, 0x30, 0xbb,
    0x02, 0x02, 0x6d, 0x3e, 0x5f, 0xaf, 0x9c, 0x3d, 0xeb, 0xfb,
    0x3d, 0xbd, 0x72, 0x25, 0x39, 0xbf, 0xab, 0xd0, 0x18, 0x3e,
    0xb1, 0xc6, 0x5e, 0xbf, 0xe2, 0x6d, 0x04, 0xbf, 0x48, 0xcb,
    0xf5, 0xbd, 0x76, 0x45, 0xa0, 0xbe, 0x23, 0xbd, 0x0c, 0x3e,
    0x3b, 0xb4, 0x9b, 0xbe, 0xd7, 0xdf, 0x50, 0xbe, 0x17, 0xfd,
    0xf5, 0xbd, 0xbb, 0xb8, 0xf0, 0x3e, 0x9d, 0x74, 0x0c, 0x3e,
    0xbe, 0x37, 0xed, 0x3d, 0x80, 0xe9, 0x47, 0x3e, 0xbd, 0xd1,
    0xe5, 0x3c, 0x01, 0x19, 0x8f, 0x3b, 0x76, 0x2f, 0x02, 0xbe,
    0x35, 0xec, 0x36, 0xbe, 0xfe, 0x77, 0x14, 0x3e, 0xda, 0xb8,
    0xf5, 0xbc, 0x25, 0x9d, 0xf9, 0xbe, 0x8d, 0x22, 0x8b, 0x3e,
    0xef, 0x43, 0xc5, 0x3e, 0x49, 0x0e, 0xb2, 0xbe, 0x31, 0xf3,
    0x96, 0xbe, 0x8c, 0xe1, 0xac, 0xbe, 0x77, 0xe7, 0x00, 0x3f,
    0xd6, 0x1d, 0x9e, 0xbd, 0x26, 0xef, 0x9d, 0xbc, 0x1f, 0x10,
    0xa1, 0x3c, 0x65, 0x5e, 0x42, 0xbd, 0x1d, 0x68, 0xf5, 0x3c,
    0x9b, 0x20, 0x47, 0xbe, 0xdd, 0x83, 0xbe, 0x3e, 0x7d, 0x40,
    0x80, 0xbe, 0x7a, 0xf7, 0x68, 0xbe, 0x8c, 0xa7, 0x0b, 0xbe,
    0x4a, 0x48, 0x2c, 0x3f, 0xfc, 0x94, 0x6a, 0x3e, 0x35, 0xc6,
    0x80, 0xbe, 0xc4, 0x96, 0x28, 0x3e, 0x08, 0xec, 0x0e, 0xbe,
    0xfe, 0x2e, 0x7c, 0x3e, 0x2f, 0x61, 0xa6, 0x3d, 0xd0, 0xba,
    0xb0, 0xbd, 0x5f, 0xd5, 0x7a, 0x3e, 0xdb, 0xa4, 0x47, 0xbf,
    0x0e, 0x4e, 0xb1, 0xba, 0xfb, 0xd3, 0xf1, 0xbe, 0xd4, 0x46,
    0x09, 0x3e, 0x59, 0x9b, 0xfc, 0xbe, 0x43, 0x8a, 0x53, 0xbe,
    0x61, 0xc4, 0x6b, 0xbd, 0x14, 0x6d, 0xbf, 0xbe, 0x3c, 0x91,
    0x8c, 0x3c, 0xf2, 0x00, 0x69, 0xbd, 0x5c, 0x78, 0x97, 0x3e,
    0x07, 0x45, 0xa9, 0x3e, 0x25, 0x41, 0xf9, 0x3c, 0xa4, 0x9d,
    0x49, 0xbc, 0x02, 0x3f, 0x49, 0xbe, 0xf4, 0x8a, 0x26, 0x3f,
    0x02, 0x3f, 0x54, 0xbc, 0x2c, 0x57, 0x35, 0x3d, 0xbd, 0x2e,
    0x27, 0xbd, 0x0f, 0x85, 0x5e, 0xbe, 0x07, 0x08, 0xd8, 0x3d,
    0x3b, 0xfa, 0x3d, 0x3d, 0xa0, 0x1e, 0xca, 0x3d, 0xc4, 0x5c,
    0xb9, 0x3e, 0xc0, 0x89, 0xd0, 0x3e, 0x4c, 0xca, 0xec, 0xbe,
    0x47, 0x0d, 0x32, 0xbe, 0x3d, 0xed, 0xbc, 0xbb, 0x4b, 0xff,
    0xc4, 0x3e, 0xde, 0x41, 0x0b, 0x3e, 0xa3, 0xf8, 0xb4, 0xbe,
    0x14, 0xbf, 0xf1, 0x3e, 0xb5, 0x6d, 0x0a, 0x3d, 0x21, 0xd1,
    0x0f, 0x3d, 0xa0, 0x10, 0x37, 0x3c, 0x9d, 0x30, 0x1a, 0x3e,
    0x0f, 0xdd, 0x09, 0xbe, 0xc2, 0x3a, 0xd8, 0xbd, 0xe2, 0x57,
    0xf3, 0xbb, 0xb8, 0x35, 0x1e, 0x3f, 0xdd, 0x49, 0x28, 0x3e,
    0x2a, 0x95, 0x82, 0xbe, 0x78, 0x76, 0x7e, 0x3e, 0xfc, 0x55,
    0x44, 0x3e, 0xa0, 0x7d, 0xab, 0x3d, 0x2c, 0xdb, 0x91, 0x3e,
    0x24, 0x53, 0xee, 0xbe, 0x3b, 0x9b, 0x87, 0x3e, 0xac, 0x72,
    0xf5, 0xbd, 0xbc, 0xfe, 0x19, 0x3d, 0xb8, 0x73, 0x07, 0xbd,
    0x7a, 0x4c, 0x81, 0x3c, 0x16, 0x00, 0x0f, 0xbe, 0x21, 0x0d,
    0x57, 0xbe, 0x12, 0x78, 0xa0, 0x3d, 0xfb, 0x24, 0x1e, 0x3f,
    0x5b, 0x21, 0x1b, 0xbe, 0x7f, 0x1c, 0x06, 0xbe, 0xf1, 0xcf,
    0x74, 0x3d, 0x69, 0xc2, 0x9b, 0x3e, 0xa3, 0x10, 0xd1, 0x3e,
    0x77, 0x28, 0x82, 0x3e, 0x42, 0x0c, 0x8f, 0xbe, 0x73, 0x87,
    0x73, 0x3f, 0x24, 0xd0, 0x4f, 0x3d, 0x4f, 0x48, 0x01, 0xbe,
    0x51, 0xd6, 0x7d, 0x3e, 0xcb, 0xf2, 0x4f, 0xbe, 0xa5, 0xa9,
    0x96, 0x3e, 0x46, 0xdc, 0xec, 0x3e, 0xf9, 0xfb, 0xce, 0xbd,
    0xbd, 0xf6, 0x0a, 0xbe, 0x8c, 0xf9, 0xf4, 0xbd, 0xf0, 0x85,
    0xd2, 0xbe, 0x36, 0x34, 0xab, 0xbe, 0x24, 0xde, 0xcd, 0xbe,
    0xed, 0xc0, 0x72, 0x3e, 0x07, 0xea, 0x1c, 0xbb, 0x78, 0xd3,
    0x33, 0xbf, 0xf1, 0x79, 0x37, 0x3f, 0x38, 0x9e, 0x41, 0xbe,
    0x0d, 0x90, 0x24, 0xbe, 0xe6, 0x45, 0x05, 0x3e, 0x6d, 0xf9,
    0xbb, 0xbe, 0x58, 0x73, 0x6b, 0x3c, 0x0a, 0xea, 0xad, 0x3d,
    0xac, 0x4c, 0x75, 0x3d, 0xc0, 0xf4, 0x2c, 0x3b, 0xfe, 0xb8,
    0x23, 0xbe, 0x89, 0xf5, 0x82, 0xbe, 0x17, 0x3c, 0xf0, 0x3c,
    0x94, 0x82, 0x3d, 0x3c, 0x4f, 0x2a, 0xbd, 0x3e, 0x03, 0x3e,
    0xb5, 0x3e, 0x94, 0xfa, 0xb4, 0xbe, 0xf4, 0xda, 0xad, 0x3d,
    0xe1, 0xb6, 0x62, 0x3d, 0x2c, 0x3a, 0x4e, 0xbd, 0x4a, 0x66,
    0x28, 0x3c, 0x19, 0xfb, 0x09, 0xbf, 0x19, 0x0e, 0x85, 0x3d,
    0x92, 0x43, 0x5e, 0x3e, 0x56, 0x3d, 0x93, 0xbc, 0x71, 0xfc,
    0x2e, 0x3e, 0x74, 0xe7, 0xe9, 0xbd, 0xd6, 0xf6, 0x82, 0xbe,
    0xa8, 0xb5, 0x17, 0xbe, 0x53, 0xcf, 0x87, 0x3e, 0xb2, 0x8a,
    0x2a, 0x3e, 0x8f, 0xe3, 0xa2, 0x3e, 0x70, 0xd6, 0xec, 0x3c,
    0x84, 0x52, 0xd3, 0x3d, 0x14, 0x63, 0x24, 0x3e, 0x9d, 0x3f,
    0x23, 0x3e, 0xd6, 0x67, 0x7f, 0x3d, 0xed, 0x2b, 0x31, 0x3b,
    0x01, 0x91, 0x3e, 0xbc, 0x7d, 0x72, 0x97, 0xbe, 0xc5, 0x7d,
    0xf6, 0x3e, 0x5a, 0x4e, 0x0e, 0xbe, 0x12, 0x91, 0x80, 0xbe,
    0x7d, 0x4f, 0x00, 0xbd, 0x01, 0x71, 0xb3, 0xbe, 0x2c, 0xe3,
    0xa9, 0x3e, 0x6f, 0xba, 0x24, 0xbe, 0x2e, 0x96, 0x08, 0xbe,
    0x15, 0x79, 0x3e, 0xbe, 0xf2, 0x72, 0xc5, 0xbd, 0x63, 0x92,
    0x49, 0xbe, 0xe9, 0xd1, 0xdf, 0x3d, 0xfd, 0xd7, 0x0c, 0xbe,
    0x87, 0x36, 0x33, 0xbc, 0x6d, 0xf6, 0x2a, 0xbf, 0xcd, 0xc9,
    0x4a, 0xbd, 0x14, 0xd5, 0x1a, 0x3f, 0x34, 0x8a, 0xbb, 0x3c,
    0x1c, 0xdd, 0xca, 0xbe, 0x7d, 0x17, 0x4d, 0x3e, 0xe5, 0x7e,
    0xc3, 0xbd, 0x99, 0xf2, 0xa1, 0x3d, 0x79, 0x1a, 0x05, 0xbf,
    0x92, 0xa6, 0xc2, 0xbe, 0xa0, 0xe5, 0x5b, 0x3d, 0xf1, 0xd9,
    0x8b, 0x3d, 0xc7, 0x94, 0x30, 0xbe, 0x17, 0x94, 0xa1, 0xbb,
    0xe7, 0x83, 0x53, 0xbf, 0x35, 0xfb, 0xb2, 0x3c, 0x35, 0x81,
    0xf4, 0xbe, 0x70, 0x3e, 0xdb, 0xbc, 0x47, 0xc8, 0x3b, 0x3e,
    0x49, 0x31, 0x8b, 0xbd, 0x0e, 0x2c, 0x72, 0xbe, 0x6e, 0xe9,
    0x35, 0xbd, 0x62, 0x8c, 0x06, 0xbe, 0x83, 0x6c, 0xa1, 0xbc,
    0x68, 0xad, 0x42, 0xbf, 0x32, 0xc0, 0x45, 0xbd, 0xa3, 0x3b,
    0x27, 0xbe, 0x47, 0x28, 0x04, 0x3d, 0xc1, 0xa1, 0xf1, 0xbe,
    0xf0, 0xdc, 0xf6, 0xbd, 0xe1, 0x4b, 0xbf, 0x3c, 0x80, 0x8c,
    0x06, 0x3d, 0x14, 0xc9, 0x47, 0xbf, 0x86, 0x0e, 0x2a, 0xbf,
    0xb0, 0xfc, 0x97, 0x3d, 0xbd, 0xc8, 0xa8, 0x3d, 0x3a, 0xe9,
    0x18, 0x3a, 0x63, 0xe5, 0x2c, 0x3d, 0xfb, 0xe2, 0xdd, 0xbe,
    0x05, 0xef, 0xdb, 0x3d, 0x5c, 0x84, 0xd4, 0xbe, 0x62, 0x0f,
    0x2d, 0xbf, 0x03, 0x6f, 0x6f, 0xbd, 0x85, 0xb9, 0x29, 0xbd,
    0x87, 0xc5, 0x06, 0xbc, 0x56, 0x9d, 0x10, 0xbd, 0x61, 0xaa,
    0x8e, 0xbe, 0xce, 0x59, 0x8f, 0xbb, 0x28, 0xd5, 0x1f, 0xbe,
    0x9b, 0x63, 0x99, 0xbe, 0xbe, 0xee, 0xdb, 0x3e, 0x92, 0x6c,
    0x19, 0x3b, 0x43, 0x46, 0xf3, 0xbd, 0xa3, 0x83, 0x93, 0xbd,
    0x28, 0x63, 0x37, 0xbe, 0x61, 0x5a, 0x08, 0x3c, 0x23, 0x5d,
    0x8e, 0x3d, 0xb6, 0x4b, 0x89, 0x3d, 0x1d, 0xb9, 0xa2, 0x3e,
    0xa3, 0xc5, 0xb5, 0xbe, 0x55, 0x87, 0x80, 0xbe, 0x39, 0x61,
    0x92, 0xbe, 0x70, 0x34, 0x4c, 0x3d, 0x3d, 0x32, 0x58, 0xbe,
    0x4b, 0x51, 0x02, 0x3d, 0x94, 0xe4, 0x7f, 0x3d, 0xd1, 0x4d,
    0x7d, 0xbd, 0x96, 0x96, 0x29, 0xbe, 0x35, 0xf0, 0xa3, 0xbd,
    0xf4, 0x05, 0x05, 0xbf, 0x4e, 0x5f, 0xd3, 0x3d, 0xf1, 0x39,
    0xaa, 0xbe, 0xa3, 0x95, 0x03, 0xbe, 0x4e, 0x25, 0x28, 0x3d,
    0x44, 0xb8, 0x4f, 0x3e, 0x9c, 0x1a, 0xc4, 0x3d, 0xd4, 0xb2,
    0x44, 0xbf, 0xfc, 0x51, 0x98, 0xbe, 0x0b, 0x7a, 0xfb, 0x3d,
    0x88, 0xf0, 0x96, 0xbe, 0x30, 0x36, 0x41, 0xbe, 0x79, 0xde,
    0x05, 0xbe, 0xff, 0xa4, 0x73, 0x3d, 0xc6, 0xe8, 0x51, 0xbd,
    0xff, 0x20, 0xff, 0xbe, 0xa4, 0x38, 0xa3, 0xbe, 0x2b, 0xa6,
    0xee, 0xbd, 0x1c, 0xe8, 0xad, 0xbd, 0x5c, 0x4a, 0x9a, 0xbd,
    0x48, 0x8e, 0x0d, 0xbe, 0x95, 0x1f, 0xe9, 0x3d, 0x73, 0x27,
    0xcb, 0xbe, 0x69, 0x84, 0xa6, 0xbe, 0x1f, 0x2f, 0xcf, 0xbe,
    0x47, 0x52, 0x4b, 0x3d, 0x93, 0xa9, 0x25, 0xbf, 0x2e, 0xc1,
    0x81, 0xbe, 0x2e, 0x49, 0x34, 0xbd, 0x49, 0x6c, 0xaa, 0x3d,
    0x33, 0xc8, 0x9b, 0xbe, 0xc1, 0x48, 0x4c, 0xbf, 0xa0, 0xbf,
    0x07, 0xbd, 0xc4, 0x6b, 0xcb, 0x3e, 0x56, 0xe9, 0x3f, 0xbf,
    0xe5, 0x26, 0xec, 0xbe, 0x1f, 0x5c, 0x0a, 0xbf, 0x57, 0x6c,
    0x83, 0x3f, 0x23, 0x32, 0x62, 0xbe, 0x37, 0x4c, 0x75, 0xbf,
    0xc3, 0xf1, 0xf1, 0xbe, 0xba, 0xd7, 0xb1, 0xbe, 0xf6, 0xad,
    0xad, 0xbe, 0x54, 0x21, 0xf2, 0xbe, 0xd8, 0xcd, 0xf2, 0xbe,
    0x65, 0xb5, 0x36, 0xbe, 0x02, 0x24, 0x98, 0xbe, 0xe1, 0x9e,
    0x40, 0xbf, 0x73, 0xcd, 0x36, 0x3c, 0xfc, 0x68, 0x60, 0xbe,
    0x2f, 0xf7, 0x03, 0xbf, 0x4b, 0x79, 0xda, 0xbe, 0xfe, 0xd4,
    0x8a, 0xbc, 0xf6, 0xb2, 0x9d, 0x3e, 0x22, 0x39, 0x21, 0xbf,
    0x76, 0xf2, 0x4b, 0xbf, 0x1d, 0x6e, 0x6c, 0x3d, 0x22, 0x28,
    0x33, 0xbc, 0xc7, 0x59, 0x9f, 0xbe, 0x7c, 0x19, 0x19, 0x3d,
    0xde, 0xfd, 0x6f, 0xbe, 0x02, 0x00, 0x82, 0x3d, 0xee, 0xc0,
    0xaf, 0xbe, 0x3e, 0xc8, 0x82, 0x3e, 0xde, 0x88, 0x2c, 0x3c,
    0xdc, 0xc6, 0x89, 0xbe, 0x3c, 0x70, 0x65, 0xbd, 0xec, 0xbc,
    0x05, 0xbd, 0x9b, 0x09, 0x1e, 0xbe, 0xee, 0xf2, 0x52, 0xbc,
    0x86, 0x8d, 0x3f, 0xbe, 0x20, 0xec, 0x10, 0x3e, 0xb8, 0x83,
    0x14, 0x3d, 0x06, 0xfc, 0x48, 0xbe, 0x41, 0x6f, 0xf4, 0x3c,
    0xc1, 0x32, 0x9d, 0xbd, 0x31, 0x3e, 0x5c, 0xbe, 0xb4, 0xbf,
    0xcc, 0x3d, 0x2d, 0x58, 0x55, 0x3d, 0xcf, 0x72, 0xc6, 0x3d,
    0xb2, 0x6f, 0xb0, 0x3d, 0x8b, 0x38, 0xd1, 0xbe, 0x42, 0xfe,
    0x65, 0xbd, 0xa0, 0x7e, 0xd5, 0x3d, 0xb2, 0x44, 0x88, 0xbf,
    0x90, 0x38, 0xc8, 0x3d, 0xec, 0x23, 0xc3, 0xbe, 0x1b, 0xa8,
    0x19, 0x3e, 0x65, 0x3a, 0xfc, 0xbb, 0x6b, 0x53, 0x61, 0xbe,
    0xa0, 0xfe, 0xe5, 0x3c, 0x01, 0xbe, 0xc9, 0x3b, 0x18, 0xb6,
    0xb5, 0xbe, 0x99, 0x3d, 0x7b, 0x3c, 0x5b, 0xc4, 0xad, 0xbe,
    0xf5, 0x18, 0x34, 0xbd, 0x9f, 0x64, 0x19, 0xbc, 0xa4, 0x1e,
    0x45, 0xbe, 0x03, 0xe0, 0xcd, 0xbd, 0x9c, 0xa1, 0x82, 0xbd,
    0x83, 0x7e, 0x0d, 0xbd, 0xdf, 0xbd, 0x9c, 0x3d, 0x55, 0x0c,
    0x62, 0xbe, 0xc3, 0x6e, 0xef, 0x3e, 0x84, 0xe8, 0xc5, 0x3d,
    0x59, 0xee, 0xd0, 0xbe, 0x88, 0x51, 0xb0, 0x3e, 0x61, 0x57,
    0x58, 0x3e, 0x01, 0x72, 0xe8, 0xbe, 0x9c, 0xe3, 0x0b, 0x3e,
    0xe0, 0xa2, 0x6b, 0xbf, 0x1e, 0x14, 0xe1, 0x3e, 0x31, 0x5d,
    0x0f, 0xbd, 0x49, 0x83, 0x18, 0xbe, 0x25, 0xbf, 0x95, 0xbd,
    0x4c, 0xed, 0xfc, 0x3d, 0x6a, 0xe3, 0x7b, 0xbd, 0x88, 0x17,
    0x13, 0x3e, 0xef, 0x2a, 0x0e, 0xbf, 0x8b, 0x97, 0xa5, 0xbb,
    0x02, 0x54, 0xb7, 0xbd, 0x8d, 0x2a, 0x36, 0xbd, 0x65, 0x28,
    0x50, 0x3e, 0x7f, 0x6e, 0xad, 0x3d, 0x10, 0xcc, 0x8e, 0xbc,
    0x5e, 0xe2, 0xd4, 0x3d, 0x0c, 0x00, 0x83, 0xbe, 0x80, 0x95,
    0x92, 0xbd, 0xc4, 0xb7, 0x30, 0xbe, 0xe6, 0x59, 0x82, 0xbd,
    0x0e, 0xcc, 0x6b, 0xbc, 0x1f, 0xc5, 0x1f, 0xbf, 0x01, 0x69,
    0xeb, 0xbd, 0xf4, 0x27, 0x80, 0xbb, 0xba, 0x9b, 0x3f, 0x3d,
    0x31, 0x0c, 0x32, 0xbf, 0x2d, 0xa6, 0x43, 0x3e, 0x08, 0xf4,
    0x90, 0xbf, 0x25, 0x62, 0x61, 0xbe, 0xd9, 0xc4, 0xf7, 0xbe,
    0x36, 0xbd, 0x20, 0xbe, 0xe8, 0x9d, 0x85, 0xbc, 0xd5, 0x32,
    0xc9, 0x3d, 0x82, 0x98, 0x30, 0xbe, 0xdc, 0x23, 0x1a, 0x3e,
    0x0e, 0x31, 0x88, 0xbf, 0x14, 0x6d, 0xa2, 0xbb, 0xf3, 0xf7,
    0xbe, 0xbe, 0xef, 0xe0, 0x5b, 0xbe, 0x30, 0xd4, 0x03, 0xbc,
    0xb1, 0x25, 0x80, 0x3c, 0x07, 0xdc, 0x6a, 0xbd, 0x69, 0x5b,
    0x33, 0x3f, 0x0b, 0xd6, 0xca, 0xbe, 0x6a, 0x86, 0x4a, 0x3d,
    0x02, 0x80, 0x10, 0xbf, 0x26, 0x03, 0x77, 0x3e, 0x0c, 0x7a,
    0x2b, 0xbd, 0x28, 0xdf, 0xd3, 0xbc, 0x4b, 0xd2, 0xb2, 0xbe,
    0x77, 0x4d, 0x2c, 0x3f, 0x7f, 0x80, 0x64, 0xbf, 0x6d, 0x75,
    0x68, 0xbe, 0xe1, 0x93, 0xde, 0xbe, 0x34, 0x4e, 0xaa, 0x3b,
    0xd0, 0x24, 0xcc, 0xbc, 0x9f, 0x35, 0x0b, 0x3e, 0x04, 0x61,
    0xe0, 0xbc, 0xf1, 0xdd, 0xfe, 0xbd, 0x30, 0x50, 0x07, 0xbf,
    0x17, 0x92, 0x86, 0x3c, 0x0a, 0x3d, 0x2c, 0xbe, 0x7e, 0x92,
    0xec, 0xbd, 0x8d, 0x72, 0x01, 0xbd, 0x3a, 0xee, 0x6c, 0x3c,
    0x0c, 0x78, 0xf8, 0xbb, 0xc4, 0x15, 0x6b, 0x3e, 0x99, 0x80,
    0xad, 0xbe, 0x57, 0x2f, 0x7a, 0x3d, 0xa8, 0x2f, 0xce, 0xbe,
    0x09, 0x30, 0xbe, 0x3e, 0xfd, 0xd0, 0x12, 0xbd, 0xb3, 0x70,
    0x67, 0x3e, 0xe2, 0xa4, 0xfd, 0xbd, 0xf5, 0xc6, 0xd1, 0xbd,
    0xce, 0x66, 0xc9, 0xbe, 0x04, 0x50, 0x3a, 0xbe, 0x96, 0x54,
    0x49, 0xbd, 0x8e, 0xef, 0xd3, 0xbc, 0x4c, 0x3e, 0xb9, 0x3d,
    0x59, 0x80, 0xf9, 0xbd, 0x64, 0xac, 0x91, 0x3d, 0x8d, 0x64,
    0xe8, 0x3e, 0x4e, 0x4a, 0xe1, 0xbd, 0xc8, 0x5a, 0xa0, 0x39,
    0xd5, 0xf1, 0xd1, 0x3c, 0xb7, 0x24, 0x91, 0xbd, 0x7c, 0x39,
    0x95, 0x3d, 0xdf, 0x5d, 0x16, 0x3e, 0x80, 0x66, 0xb6, 0x3d,
    0xe2, 0x91, 0x96, 0x3e, 0x0b, 0x80, 0x01, 0x3d, 0x17, 0x57,
    0xe2, 0x3d, 0xb9, 0x54, 0x36, 0xbe, 0x06, 0xe1, 0x46, 0x3e,
    0xc6, 0xfe, 0x76, 0xbf, 0x53, 0xdc, 0xb8, 0xbe, 0x93, 0xf4,
    0x68, 0xbf, 0x48, 0x50, 0x62, 0xbe, 0x1a, 0x56, 0x24, 0x3e,
    0xf7, 0x39, 0xbd, 0xbf, 0xd6, 0x46, 0x45, 0xbe, 0x42, 0xa8,
    0x69, 0xbb, 0x9e, 0xeb, 0x14, 0xbf, 0xa4, 0xdb, 0x8a, 0x3d,
    0xbf, 0x85, 0x9a, 0xbd, 0xf6, 0xbd, 0xfc, 0x3e, 0x6a, 0xaf,
    0x85, 0xbe, 0xca, 0x45, 0xaf, 0xbe, 0x8a, 0xb2, 0x74, 0xbe,
    0xff, 0x2b, 0xa8, 0xbc, 0x35, 0x5c, 0x8d, 0xbe, 0xa2, 0x79,
    0xba, 0xbe, 0x50, 0xbf, 0x94, 0xbe, 0x31, 0xe0, 0x70, 0x3e,
    0xc6, 0xdd, 0xb0, 0x3e, 0xae, 0x30, 0x81, 0xbf, 0x34, 0x89,
    0xac, 0xbd, 0x64, 0x2f, 0xb0, 0x3d, 0xff, 0x56, 0x52, 0xbf,
    0x51, 0xc1, 0x9d, 0xbd, 0x53, 0x7d, 0x0d, 0xbf, 0x1a, 0xc9,
    0x7b, 0xbe, 0x46, 0x61, 0x4e, 0xbe, 0x73, 0x80, 0xb7, 0xbf,
    0x5f, 0x47, 0xd8, 0xbc, 0xb2, 0xc6, 0xe4, 0x3d, 0x78, 0x4b,
    0x00, 0xbe, 0xe2, 0xc0, 0xf4, 0x3d, 0x6b, 0x19, 0x43, 0xbe,
    0x5c, 0x50, 0x4e, 0xbc, 0xc3, 0x93, 0xdd, 0x3d, 0xd4, 0xaa,
    0x24, 0xbf, 0xa3, 0xd7, 0xc0, 0xbe, 0x97, 0x04, 0x32, 0xbe,
    0x1a, 0xf7, 0x29, 0xbe, 0x70, 0x29, 0x1c, 0xbf, 0xeb, 0xe0,
    0x0c, 0xbf, 0x0e, 0xe4, 0x68, 0xbe, 0x94, 0x90, 0x0b, 0x3d,
    0x74, 0x1b, 0x6b, 0xbf, 0xab, 0x9e, 0x8d, 0xbd, 0x70, 0xd8,
    0x93, 0x3d, 0x4a, 0x8e, 0xf8, 0xbe, 0xb6, 0x85, 0x68, 0xbe,
    0x59, 0xce, 0x01, 0xbe, 0x14, 0x5e, 0x47, 0xbf, 0x7c, 0x82,
    0x26, 0x3d, 0x92, 0xe2, 0x82, 0xbf, 0xf6, 0xe3, 0x2d, 0xbe,
    0xcc, 0xce, 0x0f, 0xbd, 0x01, 0xee, 0x82, 0xbe, 0x21, 0x73,
    0x6d, 0xbe, 0x09, 0x7f, 0x94, 0xbd, 0x1c, 0x70, 0xe0, 0xbe,
    0x22, 0x62, 0xd4, 0x3d, 0x4d, 0x8b, 0xad, 0xbd, 0xd3, 0x5f,
    0xb1, 0xbe, 0x2a, 0xfe, 0xea, 0xbe, 0x4d, 0x40, 0x41, 0xbe,
    0x82, 0xdd, 0x75, 0xbf, 0xe1, 0x07, 0x5c, 0xbf, 0xfb, 0x56,
    0xac, 0xbe, 0xc5, 0xd3, 0x45, 0x3e, 0xc2, 0x6e, 0x19, 0xbd,
    0x78, 0x8f, 0x54, 0x3e, 0x8b, 0xbe, 0x40, 0xbe, 0x80, 0xe4,
    0x82, 0x3d, 0x26, 0xb9, 0x26, 0xbf, 0xe7, 0x0e, 0x20, 0xbf,
    0xb0, 0x98, 0x73, 0x3d, 0xc9, 0x14, 0x92, 0xbf, 0xd5, 0xc6,
    0x40, 0xbf, 0x7d, 0xd6, 0x61, 0x3d, 0x09, 0x18, 0x97, 0x3e,
    0x8c, 0x47, 0xe1, 0x3b, 0xb1, 0xae, 0x3d, 0xbf, 0x26, 0xf3,
    0xd8, 0xbd, 0xc1, 0x44, 0x1c, 0x3c, 0x44, 0x42, 0x1d, 0xbe,
    0x7e, 0x38, 0x22, 0xbf, 0x3c, 0x8f, 0x66, 0x3e, 0x5e, 0x1c,
    0xd6, 0xbd, 0x91, 0xcb, 0xc1, 0xbe, 0x50, 0x55, 0x54, 0xbe,
    0x64, 0x39, 0xc1, 0xbc, 0xe9, 0x1d, 0x42, 0x3e, 0x6a, 0x17,
    0x5a, 0x3e, 0xe4, 0x7c, 0xeb, 0xbe, 0xe3, 0xe1, 0xf0, 0x3c,
    0x65, 0x9f, 0x2d, 0xbe, 0x87, 0x3e, 0xa2, 0x3c, 0xeb, 0x18,
    0xb7, 0xbf, 0xa3, 0xfa, 0xdf, 0xbe, 0x6c, 0x83, 0x36, 0x3c,
    0x9f, 0xb4, 0x93, 0xbe, 0x3b, 0xbf, 0xaf, 0xbf, 0xca, 0x53,
    0xc8, 0x3d, 0xae, 0x31, 0x18, 0x3e, 0x57, 0x89, 0x63, 0x3c,
    0x76, 0x57, 0x2d, 0xbf, 0x18, 0x11, 0x96, 0x3e, 0xe3, 0x1b,
    0xf8, 0xbc, 0x64, 0xfb, 0xa9, 0xbc, 0x89, 0xbc, 0x53, 0xbe,
    0xb0, 0xcf, 0x17, 0xbc, 0xea, 0xdb, 0xbd, 0xbd, 0x9c, 0x81,
    0xbd, 0xbd, 0x0d, 0xdc, 0x3c, 0xbf, 0xad, 0x53, 0x08, 0xbe,
    0x0f, 0xbe, 0x06, 0x3e, 0x8a, 0xb5, 0x75, 0x3e, 0x4e, 0x03,
    0xd7, 0xbe, 0xf1, 0xa4, 0x08, 0x3e, 0x9c, 0xff, 0x69, 0xbe,
    0xa5, 0x6b, 0x28, 0x3d, 0x93, 0xb4, 0x88, 0xbf, 0xd3, 0x93,
    0xdf, 0xbe, 0x78, 0x05, 0x0a, 0xbd, 0x61, 0x4e, 0x01, 0xbd,
    0xb6, 0x17, 0x46, 0xbf, 0xc4, 0x93, 0x83, 0xbd, 0xb1, 0x88,
    0x1d, 0xbd, 0x20, 0xed, 0xb1, 0x3d, 0x38, 0x02, 0x48, 0xbf,
    0x14, 0xae, 0xde, 0xbd, 0x1f, 0xdb, 0xeb, 0x3c, 0x75, 0xd0,
    0xc4, 0xbd, 0xf7, 0xd4, 0x2b, 0xbe, 0x30, 0x4e, 0xf6, 0x3e,
    0x68, 0x88, 0xde, 0xbd, 0xa8, 0xf0, 0x99, 0x3c, 0x3e, 0x9a,
    0x80, 0xbf, 0xf6, 0xc4, 0x14, 0xbe, 0x74, 0xf8, 0x7e, 0x3d,
    0x36, 0x94, 0xe8, 0x3e, 0xcf, 0x91, 0xb2, 0xbe, 0xab, 0xcd,
    0x43, 0xbd, 0xaa, 0x83, 0xfb, 0x3e, 0x7d, 0xd6, 0x1a, 0xbf,
    0xf0, 0x14, 0x80, 0xbc, 0x0f, 0x70, 0xf9, 0x3d, 0x81, 0x58,
    0x08, 0xbf, 0xb7, 0x0d, 0xf4, 0x3c, 0x33, 0x86, 0x50, 0x3e,
    0x64, 0x32, 0x85, 0x3c, 0x39, 0xc4, 0xe2, 0x3d, 0x9a, 0x5a,
    0x4a, 0xbe, 0xf0, 0xc7, 0x07, 0x3d, 0xd7, 0x3e, 0x00, 0xbe,
    0x45, 0x34, 0x2e, 0xbf, 0xc3, 0x57, 0x23, 0x3e, 0xb1, 0xef,
    0x08, 0xbd, 0xbd, 0xb2, 0x18, 0x3d, 0x08, 0x8f, 0x71, 0x3e,
    0x56, 0x87, 0xad, 0xbd, 0x15, 0x9b, 0x0a, 0x3e, 0x9f, 0x19,
    0xa1, 0x3c, 0xca, 0x87, 0xb6, 0xbe, 0xc7, 0xe3, 0x0e, 0x3e,
    0xe2, 0xad, 0x85, 0xbc, 0xc4, 0xf9, 0x45, 0xbd, 0x67, 0xb7,
    0xb4, 0xbc, 0x13, 0xab, 0xc9, 0xbd, 0x0b, 0x68, 0x40, 0xbd,
    0xd7, 0x43, 0x68, 0xbd, 0x1e, 0x32, 0x87, 0xbf, 0x25, 0xd7,
    0xf2, 0xbc, 0xd2, 0x7d, 0x76, 0x3e, 0x98, 0x2b, 0x8e, 0xbd,
    0x5e, 0xf8, 0xcb, 0x3d, 0xa7, 0xa6, 0x43, 0xbd, 0xfc, 0xda,
    0x8f, 0x3c, 0xee, 0xbf, 0xcf, 0xbc, 0xc2, 0xa7, 0x95, 0xbf,
    0x6f, 0x33, 0x91, 0xbd, 0xcd, 0x9c, 0xf7, 0xbd, 0xc0, 0xd4,
    0x39, 0x3d, 0xb8, 0x0f, 0x32, 0x3e, 0x8f, 0x18, 0x0a, 0xbd,
    0x90, 0xef, 0x11, 0x3d, 0x11, 0x17, 0x42, 0x3d, 0x81, 0x96,
    0x66, 0xbf, 0x7f, 0x23, 0x75, 0x3b, 0xca, 0xc8, 0x8c, 0xbe,
    0xa2, 0xce, 0x34, 0xbd, 0x75, 0x1b, 0x7c, 0xbe, 0xa7, 0x5a,
    0x48, 0xbd, 0xb9, 0xdf, 0x2d, 0x3e, 0xa5, 0x83, 0x33, 0x3f,
    0x26, 0xb4, 0x56, 0xbf, 0xce, 0x57, 0x3b, 0xbe, 0xee, 0xa3,
    0x21, 0x3e, 0xaa, 0x8f, 0x97, 0xbd, 0x83, 0xe7, 0x8e, 0xbd,
    0x77, 0xad, 0xcb, 0x3c, 0x56, 0x67, 0xbd, 0xbd, 0xef, 0x22,
    0x06, 0xbe, 0x46, 0x2e, 0xe0, 0xbe, 0x09, 0x98, 0x80, 0xbe,
    0x93, 0xe7, 0xe0, 0xbd, 0xc9, 0x39, 0x03, 0xbd, 0xb0, 0x16,
    0x58, 0x3e, 0x00, 0x87, 0x2c, 0x3d, 0x5a, 0x30, 0x13, 0xbe,
    0xcd, 0x92, 0x94, 0x3e, 0x1f, 0x01, 0x3e, 0xbe, 0xa1, 0x5c,
    0x21, 0xbe, 0x80, 0x3a, 0x24, 0x3f, 0xd7, 0x48, 0xd7, 0xbd,
    0x65, 0xc8, 0x84, 0xbd, 0xf4, 0x49, 0x8a, 0xbe, 0xa4, 0xaf,
    0x20, 0x3f, 0x52, 0xcf, 0xd2, 0x3e, 0xb3, 0xe7, 0x0e, 0x3f,
    0xd4, 0xbc, 0x41, 0xbe, 0x78, 0x14, 0xda, 0x3e, 0x4c, 0x7a,
    0x5f, 0x3d, 0xe1, 0x6d, 0xc2, 0xbe, 0xfd, 0x2b, 0x88, 0xbf,
    0x48, 0xb5, 0x08, 0xbe, 0xf0, 0x6d, 0x27, 0x3e, 0x24, 0x1d,
    0x14, 0xbd, 0xf2, 0xa0, 0xee, 0x3c, 0x8f, 0xa7, 0x6d, 0xbd,
    0x92, 0x55, 0x5f, 0x3d, 0xa8, 0xbb, 0x64, 0xbf, 0xce, 0xb1,
    0x8c, 0xbf, 0x0d, 0xa4, 0x90, 0xbf, 0x6e, 0x85, 0x16, 0x3e,
    0xef, 0x07, 0xc2, 0x3e, 0x09, 0xcc, 0x1d, 0xbd, 0x7a, 0x9d,
    0x13, 0xbf, 0xc4, 0xff, 0xdf, 0x3d, 0x8a, 0xf2, 0x8a, 0x3d,
    0xe2, 0x40, 0xb5, 0xbe, 0x26, 0xc0, 0x7a, 0x3e, 0x8e, 0x68,
    0x12, 0x3d, 0xc9, 0x46, 0x5f, 0xbd, 0xdd, 0x89, 0xf1, 0x3d,
    0xcc, 0x87, 0xe3, 0xbd, 0xe8, 0xc8, 0xbd, 0x3b, 0xcc, 0x98,
    0x99, 0xbd, 0xaf, 0x3a, 0x93, 0xbf, 0x87, 0x49, 0x80, 0xbe,
    0x3e, 0xb8, 0x38, 0xbd, 0x45, 0x7a, 0x03, 0x3e, 0x78, 0x6e,
    0x61, 0x3e, 0x8b, 0xae, 0x42, 0xbe, 0xfa, 0xb6, 0xca, 0x3d,
    0xd9, 0x21, 0xe8, 0xbe, 0x2f, 0xcd, 0xd6, 0xbf, 0xd5, 0x33,
    0xba, 0xbf, 0x1e, 0x13, 0xdb, 0xbd, 0xa6, 0x5e, 0x2e, 0xbd,
    0x3a, 0xcf, 0xbd, 0x3d, 0x74, 0x83, 0xab, 0xbe, 0xe1, 0xad,
    0x8b, 0x3e, 0xb3, 0xde, 0xf6, 0x3e, 0xbd, 0xe9, 0xe5, 0xbe,
    0x57, 0xfa, 0xbd, 0xbd, 0x3f, 0xdc, 0x39, 0xbd, 0x70, 0xa6,
    0x79, 0x3e, 0x16, 0x76, 0x94, 0x3e, 0x4b, 0xe6, 0xfb, 0xbc,
    0x5a, 0x0d, 0x89, 0xbd, 0x7e, 0xca, 0xe0, 0x3d, 0x22, 0xb5,
    0x4f, 0xbf, 0x8d, 0x6a, 0x96, 0x3d, 0xf0, 0x62, 0xce, 0x3d,
    0xc1, 0x80, 0xa9, 0x3b, 0x6a, 0xa5, 0x4a, 0x3e, 0x99, 0xda,
    0x01, 0xbe, 0x2a, 0xb8, 0xd0, 0xbc, 0x28, 0x2f, 0xdb, 0xbd,
    0x79, 0x5f, 0x58, 0xbf, 0x91, 0x0d, 0x5b, 0xbf, 0xc0, 0x96,
    0xfc, 0xbd, 0x24, 0xc8, 0x46, 0x3e, 0xb2, 0x73, 0x46, 0x3d,
    0x9d, 0x0d, 0xff, 0xbd, 0x7b, 0x2b, 0xda, 0x3d, 0x62, 0xab,
    0xcd, 0xbc, 0x6f, 0x37, 0x86, 0xbd, 0x44, 0x0e, 0xc9, 0x3b,
    0x9c, 0x96, 0xd6, 0x3e, 0xb6, 0xe2, 0xb0, 0xbb, 0x21, 0x2e,
    0x17, 0xbe, 0xa1, 0xc8, 0x84, 0xbe, 0x9d, 0xa1, 0x73, 0xbd,
    0x02, 0xbc, 0x9e, 0x3d, 0x69, 0x05, 0x42, 0x3e, 0x76, 0x0d,
    0xea, 0x3d, 0xf8, 0x53, 0x3f, 0xbe, 0x97, 0x69, 0xd3, 0x3e,
    0x5c, 0x54, 0xa5, 0x3e, 0xf3, 0x87, 0x63, 0x3f, 0x0d, 0xf4,
    0x8f, 0xbd, 0x0c, 0x2f, 0x92, 0xbd, 0xf4, 0xa0, 0xe9, 0x3d,
    0x72, 0x04, 0xa2, 0x3d, 0x49, 0xb6, 0x50, 0x3c, 0xf7, 0xf1,
    0xa5, 0x3e, 0xfa, 0x0e, 0xd6, 0x3e, 0x96, 0x2f, 0xe5, 0x3e,
    0xa4, 0xf1, 0x18, 0x3e, 0x6e, 0xef, 0x80, 0xbe, 0x13, 0x88,
    0xce, 0x3c, 0x82, 0x9a, 0x2c, 0x3d, 0x9c, 0x5c, 0xe6, 0x3d,
    0x5e, 0x14, 0x9d, 0x3d, 0xcb, 0x18, 0xac, 0x3e, 0x52, 0xad,
    0x8d, 0x3d, 0xc9, 0x81, 0xbb, 0xbe, 0x20, 0x4b, 0x13, 0xbf,
    0xcb, 0x9a, 0x4b, 0x3d, 0x5a, 0x16, 0x2c, 0xbd, 0x18, 0x1c,
    0x82, 0x3c, 0x43, 0x18, 0xc2, 0x3e, 0xd1, 0x87, 0x5a, 0x3d,
    0x72, 0x04, 0x95, 0x3c, 0x37, 0x6d, 0xa2, 0xbf, 0xcf, 0x6c,
    0xa0, 0xbe, 0xdb, 0x6b, 0x04, 0xbd, 0x6c, 0x30, 0x45, 0x3d,
    0x0f, 0x90, 0x1c, 0x3e, 0x24, 0xd7, 0xa0, 0x3f, 0xfa, 0x81,
    0xcc, 0xbd, 0xf4, 0x56, 0x7e, 0x3d, 0x51, 0x16, 0x4f, 0xbe,
    0x12, 0x15, 0x31, 0x3d, 0x01, 0xcc, 0x35, 0x3e, 0xe8, 0x5d,
    0x98, 0xbe, 0xd2, 0xba, 0x6c, 0xbd, 0x60, 0x6d, 0x8a, 0x3e,
    0xea, 0x4c, 0xc0, 0x3e, 0x0a, 0x1f, 0xe9, 0x3f, 0x8f, 0x46,
    0xfa, 0xbc, 0x6d, 0xc3, 0xc0, 0x3d, 0x4e, 0x80, 0xbe, 0x3e,
    0x7d, 0xb4, 0xaa, 0x3c, 0x8c, 0x6f, 0xb4, 0x3d, 0x59, 0x62,
    0x28, 0x3e, 0x2d, 0x2e, 0x57, 0x3e, 0x33, 0x4d, 0xba, 0x3e,
    0x07, 0x2a, 0x88, 0x3d, 0x00, 0x6a, 0xf2, 0xbd, 0x8d, 0xc4,
    0xcd, 0x3e, 0x3e, 0xf3, 0x87, 0x3d, 0xc1, 0xb4, 0x5b, 0x3d,
    0xb3, 0x1f, 0xda, 0x3c, 0x69, 0x53, 0x04, 0x3e, 0x09, 0x05,
    0x69, 0x3d, 0x2f, 0x7a, 0x4c, 0xbf, 0xe2, 0x4d, 0x02, 0xbe,
    0xb6, 0x4b, 0x3e, 0xbd, 0x6b, 0x38, 0x09, 0xbe, 0xaa, 0xa8,
    0x71, 0x3e, 0xf8, 0x58, 0x7c, 0x3e, 0x28, 0xe6, 0xe8, 0x3d,
    0xb2, 0x17, 0x2d, 0x3c, 0x0a, 0xe1, 0x9a, 0xbf, 0x92, 0x5b,
    0x45, 0x3d, 0xf1, 0xdc, 0x08, 0xbe, 0x79, 0xcf, 0x23, 0xbd,
    0xa1, 0x3f, 0xef, 0x3e, 0x3e, 0x27, 0xae, 0x3e, 0x1e, 0x6f,
    0xc4, 0x3e, 0xf9, 0x01, 0xf7, 0xba, 0x01, 0xa4, 0x7d, 0xbe,
    0x03, 0x89, 0x8b, 0xbc, 0x4d, 0xd3, 0xf8, 0x3d, 0xef, 0x42,
    0x90, 0xbf, 0x8a, 0x47, 0x61, 0x3c, 0x72, 0x7c, 0x24, 0xbd,
    0x88, 0xad, 0xc3, 0x3e, 0xd3, 0x10, 0x96, 0x3f, 0x7d, 0xd2,
    0x3f, 0xbc, 0x3d, 0xf7, 0x11, 0xbe, 0x8d, 0x12, 0x37, 0x3e,
    0x4b, 0x71, 0xe8, 0xbe, 0x29, 0x69, 0xf9, 0xbd, 0xce, 0xdb,
    0xa7, 0xbd, 0xa2, 0xaf, 0x07, 0x3e, 0x09, 0xdc, 0xd8, 0x3d,
    0x62, 0x94, 0x99, 0xbd, 0xb2, 0x27, 0x2d, 0xbe, 0xbe, 0x57,
    0xd3, 0xbc, 0xb7, 0xd1, 0xa1, 0xbe, 0xa1, 0x57, 0x07, 0xbe,
    0x6e, 0x4e, 0xa8, 0x3d, 0xaa, 0x4e, 0xb8, 0x3d, 0x0c, 0xf3,
    0x15, 0x3e, 0xb3, 0x59, 0x8e, 0xbe, 0x53, 0x0a, 0xea, 0x3d,
    0x76, 0xde, 0x92, 0xbe, 0x84, 0x2f, 0x0a, 0xbf, 0xea, 0x90,
    0x85, 0x3e, 0x19, 0x21, 0xc5, 0x3d, 0x02, 0x59, 0x49, 0x3e,
    0xbf, 0x1b, 0x8d, 0xbd, 0xb7, 0x68, 0xdf, 0xbe, 0x61, 0x14,
    0xa3, 0x3d, 0x40, 0x98, 0x84, 0xbe, 0x44, 0x82, 0xf1, 0xbe,
    0x54, 0x96, 0x30, 0x3e, 0x06, 0x07, 0x0f, 0x3e, 0x4e, 0xbc,
    0x99, 0x3e, 0xb0, 0x57, 0x15, 0xbe, 0x1d, 0xfb, 0x94, 0x3d,
    0x86, 0xc5, 0x2f, 0x3f, 0x2a, 0xbe, 0x55, 0xbb, 0xc2, 0x5a,
    0x6a, 0xbf, 0xd6, 0x2d, 0x6e, 0x3d, 0x8f, 0xaf, 0xfe, 0xbd,
    0x10, 0xac, 0x0e, 0xbc, 0x73, 0x84, 0xc4, 0xbd, 0xa6, 0x4b,
    0x63, 0x3e, 0x76, 0x2c, 0x72, 0x3e, 0x30, 0x18, 0x35, 0xbe,
    0xc2, 0xcd, 0xaa, 0xbe, 0x1c, 0xbe, 0x73, 0xbc, 0x03, 0x9c,
    0x8c, 0xbd, 0x13, 0xec, 0x21, 0xbd, 0x8e, 0xbf, 0xee, 0x3a,
    0xea, 0xec, 0xb2, 0xbd, 0x41, 0xf6, 0x37, 0x3f, 0x04, 0x1d,
    0xa0, 0xbd, 0x16, 0x0a, 0xe1, 0xbe, 0x7f, 0x95, 0x6a, 0x3e,
    0x44, 0xb8, 0xe5, 0x3d, 0x6d, 0x3f, 0x76, 0x3c, 0x05, 0xec,
    0xea, 0x3d, 0x06, 0xa6, 0x15, 0xbe, 0xa0, 0x42, 0x84, 0x3e,
    0x90, 0x5c, 0x49, 0x3d, 0xaa, 0xce, 0x37, 0xbf, 0x4b, 0xfd,
    0xfc, 0x3c, 0x3f, 0x6f, 0x25, 0x3c, 0x5e, 0x37, 0x83, 0x3d,
    0xc0, 0x34, 0x09, 0xbb, 0x8f, 0x79, 0x2f, 0xbd, 0x8f, 0x25,
    0x49, 0x3e, 0xac, 0xbb, 0x90, 0xbd, 0xa2, 0xb9, 0xc2, 0xbe,
    0x1b, 0x67, 0x86, 0xbd, 0xa2, 0x1c, 0xbf, 0x3e, 0x1f, 0x27,
    0x1f, 0x3e, 0x89, 0xa4, 0x54, 0xbe, 0xdd, 0x10, 0xaa, 0x3d,
    0x61, 0x80, 0x15, 0x3e, 0x34, 0xf9, 0x60, 0xbe, 0x1f, 0xae,
    0x08, 0xbf, 0x18, 0x9d, 0x91, 0x3e, 0x50, 0xe8, 0x20, 0x3e,
    0x02, 0x42, 0xe3, 0xbd, 0x8f, 0xd6, 0x07, 0xbd, 0x59, 0x27,
    0xf7, 0xbd, 0xa0, 0x25, 0x9b, 0x3d, 0xca, 0xd1, 0x75, 0xbe,
    0x0c, 0xe5, 0xf3, 0xbe, 0x4e, 0x43, 0xea, 0x3e, 0x09, 0x66,
    0x2a, 0x3e, 0xf5, 0x23, 0x51, 0xbd, 0xde, 0x87, 0x2d, 0x3e,
    0x6c, 0x55, 0x0f, 0xbe, 0xb2, 0x99, 0xc5, 0x3d, 0x15, 0x36,
    0xe1, 0xbc, 0xd8, 0x4e, 0x81, 0xbf, 0x45, 0xec, 0xb2, 0x3e,
    0x63, 0xc9, 0x6b, 0x3e, 0xb0, 0xd8, 0x08, 0xbe, 0xfe, 0x27,
    0xac, 0x3d, 0xb2, 0x0f, 0x47, 0xbc, 0x8a, 0xdb, 0xd7, 0x3d,
    0x6c, 0x1b, 0xf8, 0x3d, 0x9e, 0xf1, 0x4e, 0xbf, 0xdd, 0xe5,
    0xed, 0x3d, 0xaf, 0xe7, 0x8a, 0x3e, 0x4c, 0x1f, 0x5a, 0xbe,
    0x65, 0x07, 0x34, 0x3d, 0xbd, 0x70, 0x5f, 0x3e, 0x29, 0xb0,
    0x29, 0x3e, 0xc5, 0xf0, 0x03, 0x3e, 0xac, 0xd5, 0xc1, 0xbe,
    0xef, 0xb0, 0xa4, 0xbd, 0x0e, 0x3d, 0xbb, 0x3e, 0x28, 0x93,
    0xd3, 0xbe, 0x77, 0xf2, 0x07, 0xbe, 0x15, 0xab, 0xd2, 0x3d,
    0x88, 0x30, 0xc0, 0x3e, 0xc0, 0xf9, 0xef, 0xbe, 0x99, 0x53,
    0x7e, 0xbe, 0xb1, 0xb1, 0x09, 0x3e, 0x05, 0x62, 0x72, 0x3d,
    0xe5, 0xf1, 0x4d, 0x3f, 0xca, 0x01, 0x21, 0xbf, 0x2b, 0x89,
    0xe2, 0x3c, 0x9b, 0xa8, 0x8f, 0x3d, 0xc0, 0x94, 0x61, 0xbe,
    0x73, 0x64, 0x02, 0x3d, 0x5c, 0x57, 0x3e, 0xbd, 0x67, 0xea,
    0xed, 0x3b, 0x54, 0x42, 0x27, 0x3f, 0x79, 0x66, 0x3c, 0xbe,
    0x30, 0xb4, 0x35, 0x3e, 0x60, 0x01, 0x19, 0xbe, 0xd5, 0x8f,
    0x40, 0xbe, 0x79, 0xe5, 0x9d, 0x3d, 0x8d, 0x1c, 0x12, 0xbe,
    0x17, 0xab, 0x6a, 0xbd, 0x73, 0x9d, 0xc0, 0x3e, 0x4d, 0xcd,
    0x37, 0xbd, 0xd9, 0x59, 0x28, 0x3e, 0x21, 0x25, 0x1b, 0x3e,
    0x16, 0x20, 0x4b, 0x3b, 0x1b, 0x36, 0x29, 0x3d, 0x4c, 0x00,
    0xc4, 0xbd, 0x2f, 0x97, 0x04, 0x3e, 0x77, 0xfa, 0x33, 0x3e,
    0x3f, 0x4d, 0x84, 0x3d, 0x81, 0x7b, 0x6c, 0x3e, 0xa4, 0x04,
    0xd7, 0x3e, 0xf3, 0x04, 0xe7, 0xbd, 0x13, 0x0c, 0xa0, 0xbd,
    0x67, 0x9a, 0x04, 0x3d, 0x2e, 0x2f, 0x85, 0x3d, 0x59, 0xa8,
    0xd8, 0x3c, 0x73, 0x4e, 0x97, 0x3d, 0x1e, 0xfa, 0x1b, 0xbe,
    0x51, 0x66, 0x5b, 0xbe, 0xf8, 0xdd, 0xce, 0xbd, 0xdd, 0x97,
    0xa8, 0xbe, 0xff, 0x2e, 0x3c, 0x3e, 0x50, 0x0e, 0x00, 0x3e,
    0xea, 0xf8, 0x56, 0x3f, 0xba, 0x97, 0x47, 0xbe, 0x18, 0x16,
    0x65, 0xbd, 0xc9, 0x6d, 0xbe, 0xbe, 0x74, 0x4c, 0x81, 0x3e,
    0x23, 0x2a, 0x4e, 0xbd, 0xe0, 0x1c, 0xb5, 0x3e, 0xca, 0x99,
    0xe8, 0x3d, 0x1b, 0x97, 0x00, 0x3f, 0x98, 0x5a, 0x5b, 0x3d,
    0x80, 0xb7, 0x5d, 0x3b, 0x8c, 0x74, 0xa6, 0xbe, 0x57, 0xa2,
    0x83, 0x3b, 0x2e, 0xcd, 0x3f, 0xbc, 0x9a, 0x65, 0xc2, 0xbc,
    0x01, 0x85, 0x9f, 0xbd, 0xa0, 0x87, 0x8e, 0x3e, 0xff, 0x75,
    0x20, 0xbc, 0x32, 0xcb, 0xf4, 0x3d, 0x09, 0x38, 0x0d, 0x3e,
    0x6d, 0x09, 0xef, 0xbe, 0x82, 0xd6, 0xeb, 0xbd, 0x51, 0xf2,
    0x60, 0xbd, 0xaa, 0x69, 0xa8, 0x3d, 0xd2, 0xb6, 0x58, 0x3e,
    0x71, 0x26, 0xb5, 0x3d, 0xa8, 0x15, 0x44, 0x3e, 0xd5, 0x97,
    0x96, 0x3e, 0xbd, 0xb3, 0x34, 0xbf, 0x34, 0x14, 0x08, 0xbe,
    0x2d, 0x64, 0x67, 0x3d, 0xdf, 0xb3, 0x50, 0xbe, 0x95, 0x11,
    0xa6, 0x3e, 0x23, 0x53, 0x3f, 0xbd, 0x36, 0xb7, 0x0a, 0x3c,
    0xac, 0xa2, 0x84, 0xbd, 0x02, 0x8c, 0xac, 0x3e, 0x79, 0x1d,
    0xa9, 0xbd, 0xaf, 0x15, 0x34, 0xbe, 0xd3, 0xe8, 0x09, 0xbe,
    0x17, 0x84, 0xbb, 0x3e, 0xfb, 0x21, 0xba, 0xbc, 0x48, 0xea,
    0xe3, 0x3e, 0xa1, 0x35, 0xff, 0xbd, 0xb5, 0x28, 0xd2, 0x3e,
    0x01, 0x65, 0x65, 0xbe, 0x21, 0xcb, 0x4b, 0xbd, 0x84, 0x82,
    0x5c, 0xbe, 0xbd, 0x9c, 0x12, 0x3e, 0x1a, 0x69, 0x31, 0xbe,
    0x7a, 0x14, 0xbc, 0x3e, 0xf4, 0x69, 0x47, 0x3e, 0x7f, 0xe5,
    0xa7, 0x3e, 0xf4, 0x0f, 0x26, 0xbe, 0x8c, 0x6f, 0x1b, 0xbf,
    0x1d, 0xf8, 0x45, 0xbe, 0x7e, 0x31, 0xc1, 0x3d, 0x62, 0x68,
    0x84, 0xbb, 0x2c, 0x59, 0x17, 0x3d, 0x3b, 0x17, 0xa6, 0x3e,
    0xaf, 0x87, 0x4b, 0x3e, 0x3a, 0xce, 0x98, 0x3d, 0x2b, 0xd7,
    0x28, 0xbe, 0x6c, 0x62, 0x69, 0xbe, 0x23, 0xee, 0x3f, 0x3e,
    0x75, 0x90, 0x23, 0x3e, 0x2f, 0xa4, 0xf0, 0xbd, 0x59, 0x61,
    0xee, 0x3e, 0x50, 0xbe, 0xc9, 0x3b, 0xf2, 0x8b, 0x2c, 0x3e,
    0x74, 0x09, 0x18, 0xbc, 0x85, 0x08, 0x75, 0xbf, 0xee, 0xf1,
    0x46, 0x3e, 0x69, 0xfa, 0x8e, 0x3d, 0xc7, 0xef, 0xe9, 0x3e,
    0x45, 0x56, 0x17, 0xbe, 0x28, 0x95, 0xb8, 0x3e, 0x07, 0xbc,
    0x33, 0x3e, 0x12, 0x40, 0x55, 0xbe, 0xc5, 0xa8, 0x9f, 0xbe,
    0x86, 0xc8, 0xe0, 0xba, 0x40, 0xe3, 0xf8, 0x3e, 0xd8, 0x33,
    0x0a, 0x3f, 0x43, 0x82, 0x40, 0xbe, 0x6b, 0x85, 0xb0, 0x3e,
    0x8a, 0x24, 0x2d, 0x3e, 0xce, 0x42, 0x16, 0xbe, 0xda, 0x69,
    0x6f, 0xbe, 0x56, 0xd6, 0x6e, 0xbc, 0xa1, 0xf1, 0x9b, 0x3d,
    0x04, 0x36, 0xb7, 0x3e, 0xa5, 0x48, 0x3d, 0xbe, 0x87, 0xb8,
    0x51, 0x3d, 0xab, 0xe6, 0x5f, 0x3d, 0xaf, 0xb5, 0x0e, 0x3d,
    0x92, 0x10, 0xec, 0x3c, 0x30, 0xf4, 0x30, 0xbd, 0x85, 0xda,
    0x22, 0x3e, 0x63, 0x56, 0x90, 0x3d, 0x81, 0x90, 0xbd, 0xbd,
    0x1d, 0x26, 0x04, 0xbe, 0x2d, 0xb3, 0x90, 0x3d, 0xe3, 0xef,
    0xe5, 0x3c, 0x88, 0x3e, 0x20, 0xbd, 0x9b, 0x23, 0xf2, 0xbd,
    0x92, 0x21, 0xcb, 0x3d, 0xce, 0xb4, 0xc9, 0xbd, 0x4e, 0xf8,
    0x20, 0xbe, 0x5a, 0x3b, 0x80, 0xbe, 0xc3, 0x1d, 0x15, 0x3d,
    0x39, 0x52, 0x04, 0x3c, 0x8a, 0xf1, 0x0c, 0xbf, 0xba, 0x6f,
    0x36, 0xbf, 0x8b, 0xf9, 0x0d, 0x3e, 0x73, 0x32, 0x4c, 0x3d,
    0xf6, 0xb9, 0xad, 0xbe, 0x4d, 0xcd, 0x24, 0x3e, 0xf8, 0xc9,
    0x93, 0x3e, 0x6f, 0x41, 0xf6, 0x3d, 0x1e, 0x8a, 0xcc, 0xbe,
    0x69, 0x3e, 0x34, 0x3d, 0x23, 0xaa, 0x1d, 0xbf, 0xcc, 0xf7,
    0x32, 0x3d, 0x41, 0x73, 0xf5, 0xbd, 0x71, 0xc1, 0x56, 0x3e,
    0xd1, 0x4a, 0xf4, 0x3e, 0x78, 0x65, 0x33, 0xbe, 0xd9, 0x6f,
    0x0c, 0xbd, 0x56, 0x6d, 0x92, 0x3c, 0x15, 0x6a, 0x28, 0x3e,
    0x61, 0x58, 0x86, 0xbc, 0x87, 0xc8, 0xd5, 0xbc, 0x98, 0xc0,
    0x4f, 0x3d, 0x6e, 0x69, 0xbd, 0x3e, 0x8c, 0x43, 0xd7, 0x3e,
    0x48, 0xf5, 0x55, 0x3c, 0xb0, 0x5f, 0x38, 0x3c, 0xee, 0x83,
    0x23, 0x3e, 0x36, 0xa7, 0x0f, 0xbe, 0x80, 0x64, 0x24, 0xbd,
    0xbb, 0x2f, 0x06, 0xbf, 0x99, 0x76, 0xf2, 0x3d, 0xae, 0x43,
    0x9d, 0x3e, 0xc4, 0xec, 0x5c, 0xbe, 0x40, 0x55, 0xc7, 0x3d,
    0xdd, 0xd3, 0x81, 0x3d, 0x9b, 0x06, 0x72, 0xbe, 0x10, 0x9c,
    0x49, 0xbd, 0x42, 0x99, 0x83, 0xbf, 0xfd, 0xbb, 0xf2, 0xbd,
    0x20, 0xd9, 0x36, 0x3e, 0x3f, 0xad, 0x62, 0xbe, 0x1f, 0x8b,
    0x37, 0x3e, 0xca, 0x29, 0xdc, 0x3c, 0x12, 0x68, 0x5b, 0x3e,
    0x5b, 0x29, 0x01, 0xbe, 0x0c, 0x1c, 0x03, 0x3e, 0x4f, 0xe9,
    0xf6, 0x3c, 0x1e, 0x92, 0xbe, 0xbc, 0x9f, 0x12, 0x9d, 0x3c,
    0x8e, 0xbf, 0x7b, 0xbd, 0x73, 0x37, 0xc1, 0xbd, 0x3a, 0x31,
    0x59, 0x3e, 0xf1, 0x7c, 0x95, 0xbd, 0x5f, 0x29, 0x75, 0xbd,
    0xe5, 0xb6, 0x15, 0xbd, 0x42, 0xea, 0x58, 0x3d, 0x4e, 0x7a,
    0x8d, 0x3d, 0x43, 0x5e, 0x9b, 0x3c, 0xe6, 0xd1, 0xc0, 0xbb,
    0x29, 0x18, 0x73, 0x3e, 0x60, 0x66, 0x5f, 0x3e, 0x86, 0xda,
    0x99, 0x3d, 0xaa, 0xd2, 0x09, 0xbd, 0xb9, 0x0b, 0x8f, 0x3c,
    0xcb, 0xf2, 0x51, 0xba, 0x8e, 0xca, 0xcf, 0x3d, 0x4d, 0x2c,
    0x5d, 0x3d, 0x67, 0x91, 0xf1, 0x3c, 0xe1, 0x3d, 0x87, 0xbe,
    0x32, 0x2c, 0x09, 0x3e, 0xc0, 0xdb, 0xd7, 0xbc, 0x65, 0xa3,
    0x55, 0xbd, 0x68, 0xbc, 0x3d, 0xbc, 0x49, 0xe8, 0x3b, 0x3e,
    0x98, 0xc6, 0xc1, 0x3c, 0x1c, 0xc8, 0x30, 0x3d, 0xac, 0x20,
    0xd1, 0x3d, 0xb8, 0xd0, 0x5a, 0x3d, 0xd4, 0xdc, 0xa2, 0xbd,
    0xb2, 0x39, 0x5a, 0x3d, 0x21, 0x9a, 0x4a, 0xbe, 0xf9, 0xfc,
    0xda, 0xbb, 0xca, 0x2f, 0x56, 0x3d, 0x75, 0x2c, 0xf2, 0x3e,
    0x33, 0x28, 0x87, 0x3e, 0xe6, 0x21, 0xbf, 0xbc, 0xcf, 0x3c,
    0x5b, 0x3e, 0xf9, 0x22, 0x1a, 0xbe, 0x71, 0x7e, 0x9f, 0xbc,
    0xfb, 0xba, 0x70, 0x3d, 0x29, 0x2b, 0x86, 0xbe, 0x90, 0x07,
    0xa1, 0x3e, 0xb1, 0x21, 0xf9, 0x3e, 0x8c, 0xe5, 0xb8, 0xbd,
    0xe5, 0xb7, 0xcd, 0xbd, 0xdc, 0xd2, 0xba, 0x3d, 0xe2, 0x1e,
    0xd2, 0xbc, 0x17, 0x23, 0x14, 0x3e, 0xdf, 0x2c, 0x72, 0xbc,
    0x3a, 0x0c, 0xf0, 0x3d, 0x92, 0xbb, 0xbb, 0x3e, 0x5c, 0x3c,
    0x1d, 0xbe, 0x61, 0x66, 0x85, 0xbe, 0x2f, 0x8c, 0x83, 0xbe,
    0x26, 0xff, 0x68, 0xbc, 0xd4, 0xd2, 0xf6, 0x3d, 0x35, 0xd4,
    0xa3, 0x3c, 0xdd, 0xd7, 0xd6, 0x3c, 0xf8, 0xb3, 0x34, 0x3e,
    0xba, 0xa4, 0x2c, 0x3d, 0x42, 0xa3, 0x30, 0xbe, 0x23, 0x65,
    0xdf, 0xbd, 0xbe, 0xe1, 0x7c, 0x3e, 0x16, 0x9d, 0xc4, 0xbc,
    0xe1, 0x12, 0x9c, 0x3d, 0x99, 0xbd, 0x17, 0x3e, 0x80, 0x75,
    0x9c, 0x3d, 0xd0, 0x43, 0x74, 0xbe, 0x65, 0x9d, 0x21, 0xbe,
    0x6f, 0x28, 0x97, 0xbc, 0xfd, 0x98, 0x9b, 0x3d, 0x7b, 0xe6,
    0x2c, 0xbe, 0x90, 0xcc, 0xf2, 0xb9, 0xfe, 0x74, 0x04, 0x3f,
    0x97, 0x20, 0xa6, 0x3e, 0x2f, 0x0f, 0x83, 0x3d, 0x11, 0x41,
    0xa6, 0x3e, 0xa9, 0x84, 0x51, 0xbe, 0xa0, 0xba, 0xec, 0xbd,
    0xa4, 0x06, 0x17, 0xbc, 0xcb, 0xfd, 0x39, 0xbf, 0x95, 0xed,
    0x24, 0x3e, 0x99, 0xbc, 0x0e, 0x3d, 0x51, 0xf6, 0xd8, 0xbc,
    0x27, 0x9d, 0xdd, 0x3c, 0x0b, 0x59, 0x40, 0xbe, 0x02, 0x72,
    0xb3, 0xbd, 0x11, 0xb7, 0x3c, 0x3d, 0x5f, 0x3d, 0xac, 0xbe,
    0x21, 0x3e, 0x91, 0x3e, 0x5e, 0xa6, 0x99, 0xbd, 0x97, 0x99,
    0x89, 0xbe, 0xad, 0xa5, 0x9e, 0xbd, 0x27, 0xf1, 0x1b, 0x3d,
    0xf9, 0x8f, 0x57, 0x3d, 0xd2, 0xc3, 0x17, 0x3d, 0x17, 0xf6,
    0xc1, 0xbe, 0xce, 0xba, 0xd4, 0x3e, 0x65, 0xec, 0xdf, 0x3e,
    0x87, 0x5c, 0x21, 0xbf, 0x15, 0x68, 0x19, 0xbe, 0xa3, 0x05,
    0x82, 0x3d, 0x1d, 0x13, 0x85, 0xbd, 0xff, 0x62, 0x0f, 0x3d,
    0x36, 0x04, 0x32, 0xbe, 0x9f, 0x7d, 0xe3, 0x3e, 0x6b, 0xd1,
    0xbf, 0x3e, 0x36, 0xee, 0x84, 0xbf, 0x7d, 0xef, 0x34, 0x3e,
    0x50, 0x17, 0x8d, 0xb9, 0xda, 0x1c, 0xa4, 0xbe, 0xae, 0x7e,
    0xc2, 0x3d, 0xbd, 0x50, 0x93, 0xbe, 0x23, 0xf0, 0xa6, 0x3e,
    0xf8, 0xcb, 0x5a, 0xbd, 0xa5, 0x8f, 0x13, 0xbd, 0x67, 0xee,
    0x50, 0xbe, 0x10, 0xca, 0x7b, 0x3c, 0xf3, 0xc2, 0x72, 0xbd,
    0x83, 0x44, 0x53, 0xbd, 0x4a, 0xa2, 0x7f, 0xbf, 0xe8, 0x01,
    0xa4, 0x3d, 0xc7, 0x2d, 0x42, 0xbe, 0xcd, 0xf5, 0x8e, 0x3d,
    0xd0, 0xe9, 0x74, 0x3d, 0x03, 0x90, 0x3a, 0x3e, 0x13, 0x21,
    0x35, 0x3e, 0x63, 0x5f, 0x49, 0xbd, 0x8f, 0xe1, 0x11, 0xbf,
    0xd3, 0x3f, 0x50, 0x3e, 0xad, 0xde, 0xd5, 0xbe, 0xdc, 0xe3,
    0x9b, 0xbc, 0xd9, 0x41, 0xe4, 0x3c, 0x5f, 0xbb, 0x76, 0x3e,
    0xd2, 0xa4, 0x68, 0x3e, 0x72, 0x34, 0x9f, 0xbc, 0x25, 0x4c,
    0xc4, 0xbe, 0x08, 0x5e, 0xde, 0x3e, 0xd9, 0x7e, 0x4f, 0xbe,
    0x4e, 0x49, 0x8b, 0xbe, 0x39, 0x73, 0x21, 0x3e, 0x68, 0x48,
    0x0c, 0xbe, 0xaa, 0x72, 0xa1, 0xbd, 0xc6, 0x70, 0x7d, 0x3c,
    0x52, 0x8f, 0x83, 0xbe, 0x5a, 0x75, 0x0c, 0x3f, 0xe6, 0x07,
    0x82, 0xbe, 0xe5, 0xe4, 0x91, 0xbe, 0x1d, 0x28, 0xce, 0x3e,
    0x02, 0xa1, 0xd1, 0xbb, 0xc5, 0x8b, 0x05, 0xbf, 0x6b, 0x68,
    0x7e, 0xbc, 0xdd, 0xea, 0x8b, 0xbe, 0x8f, 0xd7, 0x5c, 0xbd,
    0x50, 0x9a, 0xf6, 0x3c, 0x3b, 0x2f, 0xd2, 0xbd, 0x2d, 0x04,
    0x47, 0xbf, 0xd2, 0x00, 0x4e, 0x3f, 0x4b, 0xf9, 0xd7, 0x3d,
    0x1d, 0x03, 0xe1, 0xbd, 0x72, 0xef, 0xd3, 0xbd, 0x11, 0x5d,
    0x3d, 0xbd, 0x2e, 0xb3, 0xaf, 0x3c, 0x9c, 0x36, 0xaa, 0xbc,
    0x1e, 0x75, 0x24, 0xbf, 0x5b, 0x57, 0x10, 0x3f, 0x6a, 0xcd,
    0xe5, 0x3e, 0x33, 0xd3, 0x36, 0xbe, 0x6d, 0xf2, 0xae, 0xbe,
    0x56, 0x1e, 0xd3, 0x3b, 0x26, 0xb0, 0x2a, 0xbd, 0x39, 0x4a,
    0xcf, 0x3d, 0x7b, 0xed, 0xb5, 0x3d, 0x0d, 0x3a, 0x6a, 0x3e,
    0x2c, 0x67, 0x09, 0x3f, 0xac, 0x33, 0x99, 0xbe, 0x23, 0x01,
    0xa7, 0xbe, 0xac, 0x67, 0xcd, 0x3b, 0x6f, 0x5d, 0xe9, 0xbd,
    0xec, 0xd3, 0x9a, 0x3d, 0x53, 0x00, 0x23, 0x3f, 0xee, 0x1d,
    0x67, 0xbd, 0x89, 0x16, 0xac, 0x3e, 0x61, 0x8e, 0xd0, 0xbe,
    0xd6, 0x38, 0x56, 0xbe, 0xa1, 0x86, 0x96, 0x3d, 0xad, 0x38,
    0xef, 0xbd, 0x4f, 0xbd, 0x9d, 0x3e, 0x8d, 0x7a, 0x15, 0x3f,
    0xc2, 0x7e, 0x86, 0xbc, 0xae, 0x39, 0x81, 0xbd, 0xe6, 0x05,
    0x56, 0xbf, 0x6c, 0x44, 0x50, 0xbd, 0xa0, 0xa0, 0x23, 0xbe,
    0x20, 0x04, 0x5d, 0xbf, 0x59, 0x98, 0x70, 0xbd, 0xcc, 0xaf,
    0xbd, 0x3b, 0x10, 0x5a, 0x4e, 0x3e, 0xdf, 0x85, 0x87, 0x3e,
    0x99, 0xcd, 0xca, 0xbd, 0xd3, 0xa7, 0xbc, 0x3e, 0x23, 0xf4,
    0xe6, 0xbd, 0x2a, 0x18, 0x25, 0xbf, 0x73, 0x2a, 0xd7, 0xbc,
    0xc0, 0x97, 0xa7, 0xbc, 0x97, 0x42, 0xe8, 0x3e, 0x4d, 0xaf,
    0xe2, 0x3e, 0x70, 0x31, 0x74, 0xbe, 0x8d, 0xc6, 0x3b, 0x3e,
    0x2d, 0x08, 0x5f, 0xbd, 0xc7, 0x7c, 0x6a, 0xbe, 0xc7, 0x5e,
    0x66, 0xbe, 0xb6, 0x74, 0x26, 0xbd, 0x88, 0xdb, 0x4f, 0x3f,
    0x41, 0x51, 0x62, 0x3f, 0xf6, 0xe3, 0xa3, 0xbe, 0x7a, 0xd9,
    0xab, 0xbd, 0xf0, 0x58, 0x94, 0x3e, 0x07, 0xe6, 0xd0, 0x3e,
    0xd1, 0xda, 0x30, 0xbe, 0xec, 0xe5, 0xdf, 0xbc, 0xa9, 0x93,
    0x37, 0x3f, 0x7a, 0x9e, 0x39, 0x3f, 0x54, 0x75, 0x17, 0xbe,
    0x58, 0x4f, 0x22, 0xbe, 0xf4, 0x8f, 0x4e, 0x3f, 0x73, 0x82,
    0x61, 0x3e, 0x1c, 0xce, 0xb0, 0xbe, 0xc3, 0xb1, 0x88, 0x3d,
    0x9c, 0x75, 0xbb, 0x3e, 0xf0, 0xa4, 0xaf, 0x3e, 0xfa, 0x49,
    0x65, 0x3e, 0x29, 0xbc, 0x51, 0xbe, 0x72, 0xce, 0xf0, 0xbc,
    0x4d, 0xba, 0xbe, 0xbe, 0xca, 0x8a, 0x22, 0x3d, 0xeb, 0x3b,
    0x3e, 0xbc, 0xd8, 0x2d, 0x99, 0x3e, 0xb4, 0x4c, 0xf3, 0x3d,
    0x8a, 0x1c, 0x17, 0xbd, 0x2a, 0x37, 0x81, 0x3e, 0xb8, 0x08,
    0xbd, 0xbb, 0xe1, 0xf6, 0xcb, 0xbe, 0x1a, 0xcb, 0x2d, 0x3d,
    0x8d, 0x41, 0x13, 0x3d, 0xd8, 0x7b, 0x09, 0x3f, 0x73, 0x51,
    0x9a, 0x3d, 0x8f, 0xb9, 0x90, 0xbd, 0x58, 0x94, 0xea, 0xbd,
    0x56, 0x4c, 0x27, 0x3d, 0x00, 0x36, 0xc3, 0xbc, 0x52, 0x0f,
    0x3c, 0xbd, 0x41, 0x17, 0xb1, 0x3d, 0x35, 0x82, 0x06, 0x3f,
    0x7d, 0xc0, 0xdb, 0x3e, 0x70, 0x0b, 0x0a, 0xbe, 0xa8, 0x4f,
    0x90, 0xbe, 0x8c, 0xbb, 0x94, 0x3e, 0x7b, 0x84, 0x89, 0x3e,
    0x4e, 0xdd, 0x28, 0xbb, 0x37, 0xc8, 0x89, 0x3d, 0x3c, 0x55,
    0xa5, 0x3e, 0xe1, 0x4d, 0xcd, 0x3d, 0x22, 0xcb, 0x3d, 0xbe,
    0x5e, 0xea, 0x6c, 0xbe, 0x2c, 0x75, 0x19, 0x3f, 0xd9, 0x99,
    0x1e, 0x3e, 0x11, 0x29, 0x26, 0xbd, 0x18, 0x27, 0x40, 0x3d,
    0x80, 0x00, 0xe2, 0x3d, 0x86, 0xb4, 0x85, 0xbe, 0x09, 0x68,
    0xec, 0xbe, 0xce, 0x7f, 0x76, 0xbe, 0x99, 0x95, 0x0e, 0x3e,
    0x39, 0x8b, 0x26, 0xbd, 0x1a, 0x74, 0x2e, 0x3d, 0xa6, 0x4d,
    0xd6, 0x3c, 0x85, 0x6a, 0x1a, 0x3e, 0x48, 0x39, 0xc5, 0x3d,
    0x53, 0xa4, 0x23, 0xbc, 0x90, 0x43, 0x5c, 0x3e, 0x7e, 0x6b,
    0x28, 0xbd, 0xd0, 0x79, 0xe1, 0xbd, 0x11, 0xef, 0xd7, 0x3c,
    0x7e, 0xab, 0xed, 0x3b, 0x91, 0x3b, 0xb4, 0x3d, 0x21, 0xfb,
    0xd8, 0x3d, 0x3c, 0x15, 0x66, 0xbd, 0x50, 0x3a, 0xda, 0xbd,
    0xc5, 0x93, 0xd9, 0xbc, 0x44, 0x28, 0x30, 0x3e, 0x49, 0xfb,
    0xa7, 0xbb, 0xeb, 0x38, 0x26, 0x3e, 0xe2, 0xd0, 0x84, 0x3e,
    0x55, 0xbf, 0xf2, 0x3e, 0xec, 0xe9, 0x4d, 0xbe, 0x39, 0xb3,
    0x73, 0xbd, 0xaa, 0xf6, 0x01, 0x3d, 0xbf, 0x80, 0xf7, 0x3e,
    0x06, 0xc1, 0x40, 0x3d, 0xea, 0x38, 0x7c, 0x3e, 0xb2, 0x2e,
    0x04, 0x3e, 0x9a, 0xa7, 0x4d, 0xbe, 0x34, 0x2f, 0x81, 0xbe,
    0x25, 0x54, 0x29, 0x3c, 0xec, 0xed, 0x90, 0x3e, 0x1d, 0xa2,
    0xdc, 0x3e, 0xa1, 0xfb, 0x84, 0x3c, 0x03, 0x8e, 0x1c, 0x3e,
    0xb5, 0x8f, 0x8b, 0xbd, 0xe7, 0x5f, 0x1c, 0xbf, 0x09, 0x52,
    0x07, 0xbf, 0x57, 0x12, 0xc2, 0x3c, 0x34, 0xc4, 0x9f, 0x3d,
    0x13, 0xe0, 0x23, 0xbe, 0x89, 0xe6, 0xd1, 0x3d, 0x87, 0xd9,
    0x2e, 0x3e, 0x2d, 0xe1, 0x2f, 0x3e, 0x8e, 0x33, 0xae, 0xbc,
    0x96, 0xdd, 0x00, 0xbd, 0xc8, 0x21, 0x15, 0x3e, 0x76, 0x38,
    0x20, 0xbd, 0x3d, 0x5f, 0x97, 0xbc, 0xf9, 0xb2, 0xc5, 0x3d,
    0xbc, 0x6c, 0x02, 0x3e, 0xb9, 0x7a, 0x83, 0x3e, 0xca, 0x9e,
    0x06, 0x3e, 0xfc, 0xa0, 0x9e, 0xbd, 0x1d, 0x7d, 0x25, 0x3d,
    0xfc, 0x30, 0x0d, 0xbe, 0xdd, 0x9f, 0x07, 0xbe, 0x82, 0x5c,
    0x3c, 0xbd, 0xf9, 0x77, 0xee, 0x3d, 0x3a, 0x38, 0xef, 0x3e,
    0x39, 0x10, 0x82, 0x3e, 0xdb, 0x13, 0x7a, 0xbd, 0x1d, 0x41,
    0x4a, 0x3d, 0x7b, 0x7d, 0x2b, 0xbd, 0x4d, 0x80, 0x2a, 0xbe,
    0x4c, 0x49, 0x8d, 0xbd, 0x51, 0xc7, 0x1c, 0x3e, 0xf4, 0x8e,
    0xc4, 0x3c, 0x6f, 0xeb, 0x9c, 0xbd, 0xc0, 0x57, 0xd1, 0xbd,
    0xed, 0x14, 0xa8, 0x3d, 0x11, 0x7a, 0xe0, 0x3c, 0xba, 0x7c,
    0x11, 0xbe, 0x6c, 0xfd, 0x04, 0xbe, 0x54, 0xd1, 0x45, 0x3d,
    0xa9, 0x63, 0xa8, 0xbd, 0x57, 0xa4, 0xbb, 0xbe, 0xb1, 0x20,
    0xb9, 0xbe, 0xf9, 0x39, 0x0a, 0x3e, 0xe9, 0x55, 0x45, 0x3c,
    0x1f, 0x68, 0x24, 0xbe, 0xb2, 0x79, 0xa7, 0x3d, 0x41, 0x4e,
    0x44, 0x3e, 0xb4, 0x2f, 0x77, 0x3d, 0xb6, 0xee, 0x45, 0xbe,
    0x26, 0x91, 0x4d, 0xbd, 0xb2, 0x77, 0xb2, 0xbe, 0x54, 0x72,
    0x50, 0x3b, 0xf3, 0x1e, 0x10, 0x3b, 0xb4, 0x27, 0x77, 0x3d,
    0xbf, 0xf1, 0xe1, 0x3d, 0x6c, 0xc1, 0x6c, 0x3d, 0x04, 0xf7,
    0x8c, 0x3d, 0x56, 0x8c, 0xda, 0x3c, 0x2e, 0x7b, 0x9d, 0xbe,
    0x3a, 0xc2, 0x99, 0xbd, 0x01, 0x03, 0x36, 0xbd, 0xbc, 0xdc,
    0x02, 0x3d, 0xb3, 0x78, 0xb6, 0x3d, 0x60, 0x57, 0x9a, 0x3d,
    0x75, 0x71, 0xd0, 0x3d, 0x65, 0x7a, 0x79, 0xbc, 0x19, 0x2a,
    0x2e, 0xbe, 0x94, 0x8a, 0xb1, 0xbd, 0x06, 0x8a, 0x65, 0xbd,
    0x83, 0xd5, 0xa8, 0xbd, 0x15, 0x8d, 0xee, 0x3d, 0x92, 0x80,
    0x87, 0xbd, 0xf5, 0x71, 0x6b, 0xbd, 0xfc, 0xcd, 0x36, 0xbd,
    0x83, 0x9e, 0x0a, 0x3d, 0x47, 0x02, 0x14, 0xbe, 0x8b, 0x18,
    0x54, 0xbd, 0xa9, 0x34, 0xd6, 0xbd, 0xb3, 0xe1, 0xdc, 0x3d,
    0x2f, 0x89, 0xec, 0x3c, 0x65, 0xff, 0x8e, 0xbe, 0x0c, 0xfa,
    0x8d, 0xbd, 0xac, 0xb9, 0x16, 0x3e, 0x8a, 0x3b, 0x00, 0xbd,
    0xb7, 0x84, 0xbd, 0x3d, 0x66, 0xb9, 0x0f, 0xbe, 0xfa, 0x6f,
    0xdf, 0x3c, 0x35, 0x0f, 0x52, 0xbd, 0x45, 0xf0, 0x5c, 0xbb,
    0xbd, 0x01, 0xa9, 0x3e, 0xd6, 0x99, 0x14, 0xbd, 0x60, 0x79,
    0x47, 0xbe, 0xb2, 0x41, 0xa1, 0xbd, 0x57, 0xc0, 0x21, 0xbe,
    0x83, 0x7a, 0x5e, 0x3d, 0xb7, 0x95, 0x11, 0xbc, 0xc9, 0x02,
    0x20, 0xbe, 0xba, 0x02, 0x19, 0x3e, 0xfb, 0xa6, 0x40, 0xbe,
    0x75, 0xad, 0x27, 0xbd, 0xc4, 0xf7, 0x90, 0xbc, 0xe0, 0x27,
    0xf0, 0xba, 0x34, 0xc8, 0xa8, 0x3d, 0x26, 0x43, 0xc4, 0x3b,
    0x97, 0xf3, 0x8b, 0xbe, 0x40, 0x6a, 0xe9, 0x3d, 0xdd, 0x6b,
    0x42, 0xbc, 0xda, 0xc4, 0x12, 0xbc, 0xcc, 0xd5, 0x03, 0x3e,
    0xd8, 0x76, 0xdb, 0x3d, 0xd4, 0xe0, 0x02, 0x3d, 0xdf, 0xf9,
    0x8f, 0x3d, 0x29, 0x4b, 0xe1, 0xbd, 0xea, 0x80, 0x7f, 0xbc,
    0x8e, 0x67, 0x7f, 0x3d, 0x98, 0xc5, 0x32, 0xbe, 0xf4, 0x16,
    0xd2, 0xbc, 0xf2, 0xbc, 0x2e, 0x3e, 0xf0, 0x60, 0x95, 0x3b,
    0xce, 0x9f, 0x69, 0xbd, 0xa7, 0xa0, 0x91, 0xbd, 0x4d, 0x78,
    0x47, 0xbe, 0xa4, 0x14, 0x42, 0x3d, 0x8b, 0x96, 0x1d, 0xbe,
    0x82, 0x22, 0x09, 0x3e, 0xd5, 0xdf, 0xc1, 0xbb, 0xd1, 0xa3,
    0x0a, 0xbe, 0x34, 0x46, 0x22, 0x3d, 0x00, 0xf9, 0x9d, 0x3c,
    0x09, 0x3c, 0x22, 0x3e, 0x26, 0xdc, 0x0e, 0x3e, 0xcd, 0xb0,
    0x36, 0xbe, 0xbc, 0x91, 0xef, 0x3d, 0x50, 0x31, 0xaa, 0x3d,
    0x38, 0x31, 0xb0, 0x3d, 0xbd, 0x1a, 0xc2, 0xbd, 0x66, 0xed,
    0x1c, 0xbd, 0x1c, 0xb7, 0x49, 0x3e, 0x1c, 0xb2, 0x75, 0xbe,
    0x8d, 0x5d, 0xa9, 0xbd, 0xd7, 0x98, 0xb5, 0x3e, 0x8e, 0xc5,
    0x80, 0x3e, 0x5d, 0x98, 0xa2, 0x3d, 0xe0, 0xfb, 0x7f, 0x3d,
    0x70, 0xfb, 0xd3, 0x3c, 0x56, 0x52, 0x1a, 0x3e, 0xcd, 0xad,
    0x08, 0x3e, 0x06, 0xfa, 0xa3, 0xbe, 0x4d, 0x8d, 0xe6, 0x3e,
    0x2d, 0x38, 0x0f, 0x3d, 0x87, 0x39, 0xcf, 0x3d, 0xa5, 0x4b,
    0x95, 0x3c, 0x3d, 0xe3, 0xa0, 0x3d, 0x86, 0x81, 0xb3, 0xbb,
    0x5d, 0xfc, 0x10, 0x3e, 0xd4, 0x38, 0xa4, 0xbe, 0x45, 0x1b,
    0x45, 0x3e, 0xea, 0x9f, 0x62, 0xbd, 0x65, 0x83, 0x81, 0x3d,
    0xeb, 0xcc, 0xe4, 0x3d, 0x6c, 0x33, 0x4f, 0x3e, 0xe3, 0x41,
    0x01, 0xbe, 0x33, 0xe8, 0xb2, 0x3d, 0x2d, 0x52, 0xa0, 0xbe,
    0x6b, 0x10, 0x34, 0xbe, 0xd2, 0xdb, 0xce, 0xbd, 0x2a, 0x9b,
    0xf8, 0xbe, 0x17, 0xfb, 0xec, 0x3c, 0xf0, 0x87, 0xd2, 0x3d,
    0xa1, 0xac, 0x04, 0x3e, 0x32, 0x4b, 0x9a, 0xbe, 0xa0, 0x27,
    0x59, 0xbe, 0x4d, 0xe7, 0x7c, 0xbc, 0x23, 0x20, 0x20, 0xbe,
    0xc0, 0x10, 0x3f, 0x3e, 0xfc, 0x80, 0x38, 0x3d, 0xc3, 0xfe,
    0x17, 0xbe, 0x29, 0xc9, 0x76, 0xbc, 0x90, 0x1d, 0xce, 0xbe,
    0x9a, 0x80, 0x34, 0x3e, 0xbe, 0x1b, 0x57, 0x3e, 0xfc, 0x3c,
    0x8f, 0xbe, 0x65, 0xc8, 0x11, 0x3e, 0x77, 0xb7, 0x2a, 0xbe,
    0x1a, 0xa6, 0x13, 0xbe, 0xa1, 0x32, 0x07, 0x3e, 0xbe, 0x71,
    0x78, 0xbd, 0x32, 0xec, 0x68, 0xbc, 0x00, 0x8d, 0x44, 0x3f,
    0x3e, 0xba, 0x88, 0xbe, 0x6f, 0xe6, 0x22, 0x3e, 0xa4, 0x14,
    0x11, 0xbe, 0xe4, 0xcc, 0x65, 0x3d, 0x88, 0xd1, 0x61, 0x3e,
    0xbc, 0x96, 0x13, 0xbd, 0x46, 0xb7, 0xca, 0xbe, 0x1b, 0x2b,
    0x1b, 0x3f, 0x24, 0x3a, 0xa0, 0xbe, 0x33, 0x93, 0x6b, 0x3e,
    0x8c, 0xb9, 0x70, 0x3e, 0x13, 0x9c, 0x02, 0x3e, 0x39, 0x93,
    0x60, 0x3e, 0xd5, 0xbd, 0xb3, 0xbd, 0xa7, 0x2d, 0xec, 0xbe,
    0xa6, 0xa5, 0x2e, 0xbf, 0xd4, 0x24, 0xdc, 0x3d, 0xc8, 0xd2,
    0xe8, 0xbe, 0xb9, 0x92, 0x6e, 0xbe, 0xfe, 0x77, 0xad, 0x3d,
    0x13, 0xfa, 0x00, 0x3f, 0x15, 0xa8, 0x22, 0xbf, 0x14, 0xab,
    0x67, 0xbe, 0x65, 0xca, 0x11, 0xbf, 0x66, 0x4f, 0x69, 0xbd,
    0xe3, 0xa9, 0xdf, 0x3b, 0xea, 0xe2, 0xef, 0xbe, 0x04, 0xa6,
    0xc2, 0xbc, 0x82, 0xf7, 0x5b, 0x3e, 0x97, 0xd7, 0x83, 0xbd,
    0x39, 0x44, 0x5f, 0xbc, 0xa6, 0xbd, 0x20, 0xbf, 0x16, 0xc5,
    0x5f, 0xbd, 0xfe, 0xbc, 0x23, 0x3e, 0x30, 0x95, 0x3c, 0xbf,
    0x61, 0xac, 0xec, 0xbe, 0x81, 0x84, 0x61, 0x3e, 0xd0, 0x4b,
    0xa8, 0x3d, 0x6f, 0xc5, 0x38, 0x3e, 0x25, 0x3b, 0x7f, 0xbe,
    0xda, 0xa1, 0xf7, 0x3d, 0x99, 0x2e, 0x38, 0x3e, 0x5b, 0x10,
    0x06, 0xbe, 0x59, 0xc8, 0x21, 0xbe, 0xc0, 0x34, 0x94, 0x3e,
    0xa5, 0x76, 0x29, 0x3d, 0x10, 0xe5, 0xc8, 0xbc, 0xe8, 0xe6,
    0x77, 0xbe, 0xb0, 0xc0, 0xc6, 0x3c, 0x37, 0x6d, 0x85, 0x3e,
    0x9b, 0x95, 0x6b, 0x3d, 0x18, 0x68, 0x7b, 0xbe, 0x42, 0x12,
    0xc2, 0x3e, 0x47, 0xb0, 0x1a, 0xbd, 0xc8, 0x19, 0x5a, 0xbd,
    0xa1, 0x0a, 0x2f, 0xbe, 0x51, 0x0d, 0x79, 0x3e, 0x21, 0x6a,
    0x4e, 0xbf, 0x6e, 0xd9, 0xd8, 0xbe, 0x0c, 0xa4, 0xc8, 0xbd,
    0x35, 0x47, 0xd9, 0x3e, 0xfb, 0x7a, 0xd6, 0x3e, 0xd6, 0x82,
    0xf1, 0x3d, 0x48, 0x07, 0x01, 0xbe, 0x47, 0x26, 0x1b, 0x3e,
    0x7c, 0x88, 0xa3, 0xbe, 0x60, 0xf8, 0x20, 0xbf, 0x61, 0x04,
    0xac, 0xbe, 0x45, 0x35, 0xa1, 0x3e, 0x52, 0x3c, 0xd3, 0x3e,
    0x6c, 0x47, 0x11, 0x3d, 0xbc, 0xf3, 0x30, 0xbe, 0xae, 0x07,
    0xcc, 0x3d, 0xf1, 0x76, 0x3a, 0xbd, 0x98, 0x27, 0x1e, 0xbf,
    0x61, 0x9a, 0x32, 0xbf, 0xda, 0x69, 0x8c, 0x3e, 0xdf, 0x2f,
    0x7c, 0x3e, 0x1b, 0x92, 0x16, 0x3e, 0xb9, 0x3a, 0xa2, 0xbd,
    0xca, 0x0b, 0x67, 0x3e, 0xcb, 0xd0, 0x87, 0x3b, 0x9c, 0x67,
    0x8e, 0xbe, 0x41, 0xc1, 0xfb, 0xbe, 0xa7, 0x8f, 0x26, 0x3e,
    0xe5, 0xb2, 0x11, 0x3e, 0x9e, 0x2c, 0x4b, 0x3e, 0xa2, 0x79,
    0x8a, 0xbd, 0xb2, 0xb3, 0xd6, 0x3e, 0xed, 0x80, 0x29, 0x3e,
    0x38, 0xfb, 0xf8, 0xbd, 0x57, 0xbd, 0x18, 0xbf, 0x2d, 0x95,
    0xc8, 0x3c, 0xb8, 0x88, 0x24, 0x3d, 0x49, 0x3e, 0xa0, 0x3e,
    0x14, 0x63, 0x0e, 0x3f, 0xae, 0x87, 0xcf, 0x3d, 0x0d, 0xc9,
    0x4c, 0xbd, 0x9a, 0xe7, 0x07, 0xbd, 0x36, 0xad, 0x04, 0xbd,
    0x06, 0xa2, 0x04, 0x3d, 0xcc, 0x56, 0x31, 0xbf, 0x17, 0xfa,
    0xeb, 0x3e, 0xb0, 0x78, 0x04, 0x40, 0x70, 0x2c, 0x22, 0x3e,
    0x72, 0xe2, 0x21, 0x3d, 0xfe, 0xed, 0xf2, 0xbe, 0xca, 0x9b,
    0x05, 0xbe, 0x12, 0x8f, 0x41, 0x3d, 0x87, 0x3d, 0x95, 0xbe,
    0xd9, 0xda, 0xf0, 0x3e, 0x29, 0xbd, 0x8b, 0x3f, 0x28, 0x57,
    0x53, 0x3e, 0xdb, 0xae, 0x93, 0x3d, 0x78, 0xb2, 0x0b, 0xbd,
    0xf4, 0x93, 0x09, 0xbb, 0x96, 0xe9, 0xc3, 0x3d, 0x98, 0xc9,
    0xb3, 0xbc, 0x28, 0xe5, 0x93, 0x3e, 0xc9, 0xfb, 0x8b, 0x3d,
    0xa0, 0x46, 0x16, 0x3e, 0xd8, 0x9f, 0x90, 0x3b, 0x1d, 0x28,
    0x35, 0xbd, 0x2b, 0xe5, 0x85, 0xbd, 0xd5, 0x4c, 0xa0, 0xbd,
    0xd1, 0x89, 0x90, 0x3d, 0xa1, 0xe5, 0x91, 0x3e, 0x74, 0x18,
    0x89, 0xbe, 0x69, 0x9e, 0xb1, 0xbd, 0x94, 0x47, 0xab, 0xbd,
    0x37, 0x1e, 0x74, 0xbd, 0x3b, 0x29, 0x76, 0xbe, 0x29, 0x63,
    0x56, 0xbe, 0xb0, 0xa9, 0x95, 0x3d, 0x4a, 0xe5, 0xfd, 0x3e,
    0x1f, 0xa2, 0x91, 0x3f, 0x8a, 0xdc, 0xcf, 0x3d, 0xb8, 0x8b,
    0xa7, 0xbd, 0x53, 0x87, 0x5e, 0x3c, 0x15, 0xfa, 0xd4, 0xbd,
    0xdc, 0x96, 0x12, 0x3c, 0xaf, 0xa0, 0xa3, 0xbf, 0x7c, 0x08,
    0x3e, 0x3f, 0xb6, 0x66, 0x0d, 0x40, 0xf4, 0x73, 0x46, 0x3e,
    0xd7, 0xd4, 0x0c, 0xbd, 0x1a, 0x71, 0x94, 0xbe, 0x6c, 0x37,
    0x3a, 0x3c, 0x1d, 0x58, 0x89, 0xbb, 0x71, 0xf1, 0xa9, 0xbe,
    0xd3, 0xb3, 0x43, 0x3e, 0xb1, 0x20, 0x17, 0x3e, 0xd6, 0xd2,
    0x29, 0x3e, 0xfe, 0xb0, 0x43, 0xb8, 0x07, 0x47, 0x1a, 0xbe,
    0x6f, 0xd6, 0xc2, 0x3d, 0xb0, 0x25, 0x83, 0xbc, 0xbf, 0x89,
    0xc3, 0x3c, 0x39, 0xf6, 0x0c, 0x3e, 0xd5, 0x0c, 0xc6, 0xbe,
    0xc2, 0x12, 0xe2, 0xbd, 0xee, 0xc5, 0x01, 0xbe, 0xe0, 0x5c,
    0x42, 0x3e, 0xdf, 0x1d, 0x39, 0x3e, 0x0f, 0xdc, 0x3c, 0xbd,
    0xf0, 0x62, 0x86, 0x3c, 0x35, 0x74, 0x51, 0x3e, 0xa7, 0xda,
    0x52, 0xbe, 0xe4, 0x3c, 0xe0, 0xbe, 0x6a, 0x9c, 0x4d, 0xbd,
    0xe2, 0x5b, 0xec, 0x3d, 0x35, 0xa6, 0x0c, 0xbe, 0x61, 0x58,
    0x06, 0x3e, 0xd4, 0xf2, 0x96, 0xbd, 0x47, 0x23, 0x47, 0x3e,
    0x39, 0x08, 0x6a, 0x3e, 0x54, 0xb3, 0x07, 0x3e, 0xfb, 0x40,
    0x9a, 0x3e, 0xc5, 0x9b, 0x8f, 0x3e, 0x22, 0x92, 0x67, 0xbe,
    0xef, 0xb0, 0xf5, 0x3b, 0x25, 0x49, 0xa2, 0xbf, 0x80, 0x49,
    0x79, 0x3c, 0x5d, 0xa4, 0x21, 0x3f, 0x36, 0x08, 0x4e, 0x3e,
    0xda, 0x75, 0x76, 0x3e, 0xe0, 0x34, 0x01, 0xbf, 0x03, 0xd7,
    0xa1, 0xbc, 0x6a, 0xfc, 0xad, 0xbd, 0x65, 0x36, 0x9d, 0xbe,
    0x0f, 0x75, 0x99, 0xbd, 0xbb, 0xbc, 0xa6, 0xbe, 0xe0, 0x28,
    0x0d, 0x3d, 0xed, 0xa0, 0x2b, 0x3e, 0xb8, 0x30, 0x4b, 0x3e,
    0x3b, 0x46, 0x79, 0x3e, 0xea, 0x30, 0x0d, 0xbd, 0x19, 0xe3,
    0x06, 0x3e, 0x88, 0x02, 0x78, 0xbd, 0xe0, 0xe8, 0xc9, 0xbe,
    0x44, 0x54, 0x21, 0x3e, 0x8a, 0x97, 0x30, 0xbe, 0xc7, 0xee,
    0xb2, 0x3e, 0x63, 0x99, 0x0e, 0xbe, 0x32, 0x4f, 0xe2, 0x3c,
    0x17, 0xd2, 0x36, 0x3d, 0xcf, 0x02, 0xf8, 0x3c, 0x7f, 0xaf,
    0xa1, 0xbe, 0x2e, 0x26, 0x71, 0x3d, 0xa8, 0x55, 0x05, 0xbe,
    0x87, 0x59, 0x1d, 0x3e, 0x84, 0x58, 0x23, 0xbf, 0x94, 0x44,
    0x84, 0x3c, 0xb6, 0xd5, 0x94, 0x3c, 0x97, 0x2b, 0x3d, 0x3d,
    0x1c, 0x74, 0x56, 0xbe, 0xfd, 0x3a, 0xbc, 0xbd, 0xc0, 0xb9,
    0x80, 0x3f, 0x32, 0xd4, 0x2e, 0x3e, 0x10, 0x81, 0x8f, 0xbe,
    0x46, 0x9b, 0x61, 0x3c, 0x6f, 0x7c, 0x83, 0xbe, 0x49, 0xb7,
    0x88, 0x3d, 0x9a, 0x91, 0xb3, 0xbd, 0x0a, 0x0e, 0xcc, 0xbd,
    0x66, 0x5e, 0xfd, 0x3e, 0xfd, 0x33, 0x2e, 0x3e, 0x3b, 0x12,
    0xe7, 0xbc, 0x8d, 0x60, 0xd4, 0x3c, 0xe4, 0x8f, 0x53, 0x3e,
    0x47, 0xa6, 0xff, 0xbc, 0xf2, 0xe3, 0x24, 0xbd, 0x24, 0xf3,
    0xb3, 0xbd, 0xb2, 0x4f, 0x40, 0xbe, 0x4a, 0xb3, 0xac, 0x3e,
    0x75, 0xa5, 0x86, 0x3d, 0x9d, 0x58, 0x4d, 0xbb, 0x0f, 0x7b,
    0x11, 0x3e, 0xac, 0x74, 0x06, 0xbe, 0x93, 0x8a, 0x8a, 0xbe,
    0x6e, 0xaa, 0xae, 0x3d, 0x33, 0x6e, 0xb1, 0xbe, 0x18, 0xd8,
    0x8d, 0xbb, 0x16, 0x54, 0x4b, 0x3c, 0xeb, 0x57, 0xaf, 0xbc,
    0xa1, 0x42, 0x3b, 0x3c, 0x91, 0x37, 0x49, 0xbd, 0xe7, 0x25,
    0xfa, 0xbe, 0xa0, 0xaa, 0xb3, 0x3d, 0x7d, 0xee, 0xd3, 0xbd,
    0xdb, 0xde, 0xbc, 0xbc, 0xfa, 0xe8, 0x88, 0xbe, 0x2b, 0x4e,
    0x34, 0xbe, 0x4b, 0xfd, 0xaa, 0xbc, 0x44, 0x4c, 0xfa, 0x3c,
    0x1e, 0x5b, 0x86, 0xbd, 0xbf, 0x40, 0xfd, 0x3c, 0x23, 0x8e,
    0x96, 0x3f, 0xf2, 0xa9, 0x87, 0x3d, 0xf8, 0xc5, 0x47, 0xbe,
    0x3b, 0x83, 0xe3, 0x3d, 0x76, 0x60, 0x87, 0xbe, 0x74, 0x87,
    0x1c, 0x3d, 0xfc, 0x33, 0x1f, 0xbc, 0xcb, 0x82, 0x57, 0x3b,
    0xab, 0xfd, 0x13, 0x3f, 0x60, 0x4d, 0x07, 0x3e, 0xb5, 0xb4,
    0xba, 0xbd, 0xb2, 0x74, 0xc0, 0x3d, 0xcc, 0xe5, 0x8e, 0x3e,
    0xf3, 0x5d, 0x2d, 0xbc, 0xf5, 0xcf, 0x85, 0xbc, 0x93, 0x13,
    0x73, 0xbd, 0x16, 0x15, 0x31, 0x3d, 0x77, 0x44, 0x43, 0x3e,
    0x14, 0x85, 0xa2, 0xbc, 0x0e, 0xd5, 0xcf, 0x3c, 0xac, 0x6d,
    0xd4, 0x3d, 0xfd, 0xa6, 0x4a, 0xbd, 0xbf, 0x04, 0x55, 0xbd,
    0x67, 0xe3, 0x96, 0xbc, 0x56, 0x2e, 0x24, 0xbe, 0x9f, 0xcb,
    0x0a, 0x3d, 0x06, 0x2c, 0x47, 0xbe, 0x11, 0xb5, 0x4c, 0xbd,
    0xa9, 0xee, 0xd8, 0xbc, 0xbf, 0xbf, 0x05, 0xbd, 0x79, 0xf7,
    0x39, 0x3d, 0x06, 0x6c, 0x60, 0x3d, 0xa1, 0x2a, 0x50, 0xbe,
    0x54, 0x33, 0x68, 0x3b, 0x33, 0x55, 0x2a, 0xbe, 0x36, 0xdb,
    0x2e, 0xbe, 0x69, 0xba, 0x8f, 0x3d, 0xff, 0x03, 0x15, 0x3f,
    0xbd, 0x4e, 0x54, 0x3f, 0x2d, 0xa5, 0x1f, 0x3e, 0x35, 0x72,
    0x77, 0x3d, 0xa7, 0x12, 0x84, 0xbd, 0x55, 0x4b, 0x0d, 0xbe,
    0x25, 0xa6, 0x39, 0xbf, 0x52, 0xb6, 0x98, 0x3c, 0x68, 0x41,
    0x1a, 0x3f, 0xb1, 0x2f, 0x07, 0x40, 0x01, 0xe5, 0x82, 0xbb,
    0x95, 0x05, 0x84, 0x3c, 0xdf, 0xc5, 0x71, 0x3c, 0xb0, 0xa8,
    0xca, 0xbd, 0x69, 0x0a, 0x4e, 0xbf, 0x89, 0xbe, 0x80, 0x3d,
    0x2d, 0x2d, 0x31, 0x3e, 0xad, 0xe6, 0xa7, 0x3f, 0x42, 0xff,
    0x98, 0x3d, 0xfe, 0xd5, 0x2f, 0x3d, 0x4a, 0x07, 0xd3, 0xbc,
    0xbf, 0xc7, 0x1e, 0xbc, 0x9f, 0x63, 0x35, 0xbf, 0x41, 0x50,
    0xe6, 0x3d, 0xad, 0x79, 0xa8, 0xbd, 0x83, 0x20, 0x3a, 0x3e,
    0xa4, 0xfe, 0x27, 0x3d, 0xf4, 0x3d, 0xaa, 0x3c, 0xab, 0x0a,
    0xad, 0xbd, 0xcf, 0x35, 0x19, 0x3d, 0xc5, 0x3e, 0xfd, 0xbe,
    0x8e, 0x55, 0x5a, 0x3d, 0xe8, 0x8e, 0x8e, 0xbe, 0x86, 0x66,
    0x68, 0xbe, 0x9c, 0x61, 0x00, 0xbe, 0x9f, 0xca, 0x2b, 0xbc,
    0x70, 0xfe, 0x0a, 0xba, 0xd4, 0x92, 0xeb, 0x3d, 0x23, 0xb9,
    0x9f, 0xbe, 0xb2, 0x27, 0x14, 0x3d, 0x8b, 0xf0, 0x97, 0x3e,
    0xe8, 0xeb, 0x6a, 0x3f, 0x76, 0x7d, 0x82, 0xbe, 0xc6, 0xa7,
    0x7e, 0xbd, 0x87, 0x21, 0xd6, 0x3b, 0xef, 0xf5, 0xbc, 0xbd,
    0x5a, 0x55, 0x11, 0xbf, 0xfe, 0xb4, 0x14, 0x3e, 0x3e, 0xa0,
    0xc3, 0x3e, 0xff, 0xcf, 0x07, 0x40, 0x84, 0x38, 0xdd, 0xbe,
    0xbe, 0x87, 0xd6, 0xba, 0xbe, 0x7f, 0x05, 0x3c, 0x82, 0x9c,
    0x9d, 0xbd, 0xa0, 0xc3, 0xba, 0xbe, 0x97, 0xf0, 0x3b, 0x3e,
    0x61, 0x18, 0x02, 0x3e, 0x39, 0xca, 0x40, 0x3f, 0x9a, 0x4e,
    0x8a, 0xbe, 0x6c, 0xdb, 0x85, 0x3c, 0xed, 0xc6, 0x13, 0x3b,
    0xcb, 0xe2, 0x15, 0x3e, 0xe8, 0x14, 0x92, 0xbe, 0x92, 0x9b,
    0x05, 0x3e, 0xf8, 0x8e, 0xb3, 0xbd, 0x93, 0xf7, 0x58, 0x3e,
    0x39, 0xa6, 0xc5, 0x3d, 0xbc, 0xad, 0x1e, 0xbe, 0xc8, 0x20,
    0xc9, 0x3d, 0x77, 0xf8, 0x97, 0x3e, 0x16, 0xa4, 0x5a, 0xbe,
    0x38, 0x81, 0x9a, 0x3d, 0x87, 0x40, 0x9c, 0xbe, 0x52, 0xef,
    0x1c, 0xbd, 0x83, 0x04, 0x95, 0x3c, 0xdc, 0xac, 0x7f, 0xbe,
    0x84, 0xc3, 0x98, 0x3e, 0x8f, 0xa8, 0x8b, 0x3e, 0x44, 0x73,
    0x1c, 0xbe, 0x95, 0x0a, 0x05, 0x3d, 0x3a, 0x62, 0x1b, 0x3d,
    0x81, 0x47, 0x59, 0x3e, 0xbf, 0x25, 0x1b, 0xbe, 0x6a, 0x0c,
    0x09, 0xbe, 0x37, 0xb8, 0x52, 0x3e, 0x48, 0x00, 0xd4, 0x3c,
    0xe7, 0x0c, 0xad, 0x3d, 0x29, 0x9a, 0x74, 0x3c, 0x2f, 0x15,
    0xf9, 0xbd, 0xa0, 0xc8, 0xa1, 0x3e, 0x22, 0x02, 0x64, 0xbe,
    0x36, 0x07, 0x5b, 0x3d, 0xca, 0x26, 0x5c, 0x3e, 0x86, 0x54,
    0x9f, 0x3d, 0x7b, 0x9c, 0x5d, 0xbd, 0x22, 0x54, 0xc6, 0x3d,
    0x0a, 0x4f, 0x50, 0x3d, 0xcf, 0xb7, 0xc4, 0x3d, 0xea, 0xad,
    0xe3, 0xbc, 0x88, 0xdb, 0x2c, 0xbd, 0xcb, 0x81, 0xb0, 0x3e,
    0x61, 0xde, 0x41, 0x3e, 0x54, 0x99, 0x0a, 0xbe, 0xcc, 0x73,
    0xb8, 0x3d, 0xa4, 0xe8, 0x90, 0xbd, 0x57, 0x06, 0x9f, 0x3d,
    0x7b, 0x4d, 0xec, 0x3d, 0xd3, 0x51, 0xc4, 0xbe, 0x7a, 0xb1,
    0xc1, 0x3e, 0xec, 0xbf, 0xa3, 0x3e, 0xb4, 0xb3, 0xae, 0xbd,
    0x90, 0x3d, 0xa5, 0x3b, 0x03, 0x40, 0x9d, 0xbe, 0x22, 0x4e,
    0x51, 0xbe, 0x4e, 0xd7, 0x95, 0xbc, 0xb1, 0x48, 0x68, 0xbe,
    0xe3, 0x41, 0xa1, 0x3e, 0xf4, 0x15, 0x5b, 0x3e, 0x51, 0xa2,
    0x91, 0xbd, 0x16, 0xc9, 0x2c, 0xbd, 0x8b, 0x9f, 0x7d, 0xbd,
    0x2a, 0x77, 0x5b, 0xbe, 0x21, 0x3f, 0x14, 0x3e, 0xaf, 0xf1,
    0xce, 0xbd, 0x31, 0xf0, 0x05, 0x3e, 0x0a, 0x08, 0xa9, 0xbd,
    0x93, 0xe7, 0x61, 0x3d, 0xd7, 0x1e, 0x43, 0x3c, 0x4e, 0xbe,
    0x9c, 0x3d, 0xcc, 0x58, 0x01, 0xbe, 0xf5, 0xe5, 0xdf, 0x3d,
    0x7c, 0xb8, 0xab, 0x3d, 0xec, 0x46, 0x94, 0x3d, 0x2e, 0x24,
    0x08, 0xbb, 0x52, 0x21, 0x1c, 0xbd, 0x77, 0x39, 0x8d, 0xbd,
    0xbb, 0x16, 0xa0, 0xbc, 0x73, 0xc7, 0x4b, 0xbe, 0xcd, 0x2d,
    0x98, 0x3d, 0x8b, 0x7f, 0x35, 0x3d, 0xa3, 0x0c, 0xb3, 0x3e,
    0xda, 0x38, 0x07, 0x3e, 0x9c, 0x68, 0xd4, 0xbd, 0xdc, 0x15,
    0xf2, 0xbd, 0x43, 0xbe, 0x0d, 0xbd, 0xef, 0xbe, 0x1f, 0xbe,
    0x0c, 0x60, 0xf4, 0x3c, 0x86, 0xfd, 0xd2, 0xbd, 0x70, 0xfd,
    0x80, 0x3e, 0x29, 0xbe, 0x1f, 0x3e, 0xc8, 0x12, 0x25, 0x3d,
    0xd7, 0xbf, 0xb5, 0xbd, 0x70, 0x31, 0x8f, 0xbc, 0xb5, 0xa6,
    0x16, 0xbe, 0x0a, 0xc4, 0x43, 0x3d, 0x2e, 0x35, 0x57, 0x3d,
    0xe7, 0x1e, 0x4f, 0x3e, 0x36, 0xaa, 0xb1, 0xbd, 0x6f, 0x2b,
    0x33, 0x3e, 0xc2, 0x50, 0xbe, 0xbd, 0x69, 0x51, 0xd2, 0x3d,
    0xde, 0x74, 0x20, 0xbe, 0x85, 0x8a, 0xdd, 0x3d, 0x74, 0xed,
    0x95, 0x3c, 0x21, 0x3d, 0x9c, 0x3d, 0xd2, 0xb6, 0x9c, 0xbe,
    0x6d, 0xd4, 0x15, 0x3d, 0xb9, 0x31, 0xd2, 0x3d, 0xcb, 0x95,
    0x19, 0x3e, 0xd9, 0x2a, 0x24, 0xbd, 0xc0, 0xaf, 0xd3, 0x3d,
    0x73, 0xf0, 0x5a, 0x3e, 0x93, 0xbd, 0x91, 0xbd, 0xf9, 0xd5,
    0x04, 0xbe, 0xd3, 0xdd, 0x57, 0xbd, 0x58, 0x33, 0x0c, 0xbe,
    0x04, 0x5e, 0xf3, 0x3d, 0x28, 0xd1, 0x00, 0x3a, 0x74, 0x45,
    0x30, 0x3b, 0xe3, 0xfc, 0x3a, 0x3e, 0xc8, 0xdd, 0x18, 0x3c,
    0x4c, 0x42, 0x9a, 0xbd, 0x0c, 0x82, 0x7e, 0xbd, 0xf7, 0x04,
    0xa1, 0xbe, 0x61, 0x93, 0xf0, 0x3d, 0x6f, 0xd2, 0x9e, 0xbc,
    0x21, 0x4c, 0x2b, 0xbd, 0xf7, 0x26, 0x02, 0x3e, 0x21, 0xa8,
    0xa3, 0xbb, 0x91, 0xa2, 0xa0, 0xbe, 0xce, 0xab, 0x9d, 0x3c,
    0xc7, 0x53, 0x76, 0xbe, 0xb2, 0xd0, 0xb6, 0x3d, 0xf0, 0x92,
    0x95, 0xbc, 0x8c, 0x10, 0x38, 0xbd, 0x84, 0x93, 0xce, 0x3d,
    0x60, 0xae, 0x92, 0x3d, 0x17, 0x40, 0xcd, 0xbe, 0x9c, 0x8a,
    0xd3, 0xbc, 0x82, 0x41, 0x15, 0xbe, 0xef, 0x3a, 0xb7, 0xbd,
    0xc7, 0x7a, 0xa8, 0xbd, 0x0d, 0xc2, 0xe1, 0x3d, 0x5d, 0x70,
    0xa1, 0x3c, 0xd2, 0x95, 0x1e, 0xbe, 0xf7, 0x97, 0x08, 0x3e,
    0x21, 0xe9, 0x08, 0x3e, 0x5f, 0xb9, 0x60, 0xbe, 0x08, 0x7b,
    0xa8, 0xbd, 0x29, 0x0c, 0x8e, 0xbe, 0xfb, 0x81, 0x40, 0xbd,
    0x90, 0xf0, 0x5c, 0x3d, 0xf5, 0xe9, 0x01, 0xbf, 0xf4, 0x0e,
    0x11, 0xbe, 0x2b, 0xc5, 0xa7, 0x3d, 0xf9, 0x32, 0xce, 0xbe,
    0x07, 0x9d, 0xee, 0x3d, 0x3a, 0x8a, 0x19, 0xbf, 0x97, 0x36,
    0x24, 0xbe, 0x83, 0x3e, 0x91, 0x3d, 0x1a, 0x2f, 0x95, 0xbf,
    0x6b, 0x08, 0x71, 0xbf, 0x0d, 0x42, 0x5d, 0x3d, 0x40, 0x13,
    0x82, 0xbe, 0x62, 0xc3, 0xb9, 0x3e, 0xa1, 0x49, 0xa4, 0x3e,
    0x55, 0x92, 0x53, 0xbd, 0xdf, 0xf5, 0x9a, 0x3d, 0x16, 0xa7,
    0xb6, 0xbf, 0x8a, 0xab, 0xe5, 0xbf, 0x9a, 0x96, 0x96, 0x3d,
    0x88, 0x06, 0x0b, 0x39, 0xf8, 0xe0, 0x19, 0x3f, 0x9f, 0xfb,
    0x50, 0x3e, 0xbd, 0x2a, 0x12, 0x3e, 0x36, 0xde, 0x8e, 0x3d,
    0xae, 0x6d, 0x1f, 0xbf, 0x7d, 0x2b, 0x9c, 0xbf, 0x9e, 0x5a,
    0xe3, 0x3d, 0x43, 0x46, 0x3e, 0x3d, 0x24, 0xe9, 0x0d, 0xbe,
    0xbc, 0xba, 0x70, 0x3c, 0xda, 0x92, 0xec, 0xbc, 0x15, 0x10,
    0x27, 0xbe, 0xac, 0x5f, 0x45, 0xbe, 0x85, 0x1c, 0x81, 0x3e,
    0x69, 0xcb, 0x87, 0x3d, 0x27, 0xfc, 0xec, 0xbd, 0x0b, 0x24,
    0xcf, 0xbd, 0x6c, 0xe3, 0x72, 0xbd, 0x0a, 0x3a, 0x21, 0xbd,
    0xd5, 0x85, 0xaa, 0xbd, 0x37, 0x9e, 0xbb, 0xbe, 0x81, 0xf9,
    0xd2, 0x3d, 0xa1, 0x1d, 0x6c, 0x3c, 0x3d, 0x97, 0x3c, 0xbe,
    0x85, 0x88, 0xf4, 0x3c, 0x46, 0x3a, 0xc4, 0xbc, 0x63, 0xa2,
    0x6e, 0xbd, 0x8d, 0xa4, 0x6e, 0x3d, 0x52, 0x02, 0xa9, 0xbd,
    0x99, 0xa3, 0x76, 0xbd, 0x21, 0x7c, 0x30, 0xbd, 0x85, 0xc9,
    0x34, 0xbe, 0xd0, 0x12, 0x79, 0x3e, 0x5f, 0x21, 0xe7, 0x3e,
    0x5b, 0xdb, 0xd1, 0x3d, 0x88, 0x03, 0xdb, 0x3d, 0x43, 0xbe,
    0xd8, 0xbe, 0x3c, 0x4e, 0x06, 0x3e, 0xcb, 0x78, 0x7a, 0xbe,
    0xa4, 0x59, 0x0e, 0xbd, 0xa2, 0x52, 0x89, 0x3e, 0xb0, 0x28,
    0x3b, 0x3e, 0x49, 0x82, 0x3f, 0x3e, 0xbd, 0x23, 0xc7, 0xbd,
    0x11, 0x0b, 0x61, 0xbd, 0x02, 0x0f, 0x32, 0x3d, 0xb9, 0x20,
    0x17, 0xbf, 0x3a, 0xca, 0xf5, 0x3c, 0x05, 0x4f, 0x85, 0xbc,
    0x62, 0x4f, 0x97, 0xbc, 0xd0, 0xae, 0xf3, 0x3d, 0x5c, 0x39,
    0x78, 0x3d, 0x6d, 0xaa, 0x30, 0xbe, 0x3e, 0x5e, 0x12, 0x3e,
    0xf5, 0xb6, 0xa9, 0x3b, 0xfd, 0x91, 0x8b, 0xbe, 0xf9, 0x08,
    0xdc, 0x3c, 0x7c, 0x53, 0xdb, 0xbd, 0xa0, 0xe3, 0x8a, 0x3d,
    0xfd, 0xe4, 0x5c, 0xbe, 0xb0, 0xfe, 0x3c, 0x3f, 0x42, 0x98,
    0x6c, 0x3c, 0x7e, 0x75, 0xd7, 0x3b, 0xa1, 0xbe, 0x3c, 0x3d,
    0xaf, 0x47, 0x08, 0x3d, 0xe0, 0xc8, 0x68, 0xbd, 0x0b, 0xa1,
    0xe2, 0xbc, 0x31, 0xf8, 0x31, 0xbe, 0xe4, 0xdf, 0x4a, 0x3e,
    0xbc, 0x66, 0x54, 0xbe, 0xb3, 0x87, 0xa7, 0xbd, 0x50, 0x1e,
    0x17, 0x3d, 0x20, 0x37, 0x65, 0x3e, 0x97, 0x0e, 0xdf, 0x3e,
    0x0a, 0x3c, 0xf2, 0x3c, 0x2b, 0xce, 0x15, 0xbd, 0x0b, 0x7a,
    0x30, 0xbd, 0x22, 0x2d, 0xb4, 0x3e, 0x35, 0xcd, 0x8a, 0xbe,
    0x6f, 0x87, 0x55, 0x3d, 0xde, 0x31, 0x50, 0xbd, 0xf2, 0x83,
    0xb8, 0x3e, 0x66, 0x41, 0x29, 0xbc, 0xe3, 0x56, 0x48, 0xbd,
    0x62, 0x3c, 0x9f, 0x3e, 0x5b, 0x93, 0x89, 0x3e, 0xe2, 0xc9,
    0xe2, 0xbe, 0x72, 0x7e, 0x82, 0xbd, 0x31, 0xfe, 0x25, 0x3e,
    0x30, 0xeb, 0x4b, 0xbd, 0x26, 0x36, 0x37, 0x3e, 0xca, 0xc9,
    0x80, 0xbd, 0x9e, 0x75, 0x4e, 0x3e, 0xae, 0xd7, 0xb2, 0x3d,
    0x94, 0x11, 0x67, 0x3c, 0xad, 0x4c, 0x62, 0xbe, 0x60, 0x5f,
    0xff, 0x3c, 0xf4, 0xf5, 0xfb, 0x3d, 0xbc, 0x01, 0x3b, 0x3e,
    0x07, 0x27, 0x2d, 0xbe, 0x98, 0xe4, 0x0b, 0x3f, 0x83, 0x52,
    0xfb, 0x3d, 0xc8, 0x80, 0xb0, 0xbd, 0xd7, 0x19, 0xd4, 0xbd,
    0x71, 0x33, 0x2e, 0x3d, 0x2a, 0x5d, 0x3d, 0xbe, 0x68, 0x85,
    0xbf, 0xbd, 0x8f, 0x57, 0xa2, 0xbd, 0xf7, 0x85, 0xa9, 0x3e,
    0xbe, 0x68, 0xaa, 0x3c, 0x8c, 0xe8, 0x25, 0xbe, 0x2b, 0x81,
    0xb3, 0xbd, 0x22, 0xee, 0x99, 0x3e, 0x42, 0x00, 0x11, 0x3e,
    0x3e, 0x36, 0xcb, 0xbd, 0x24, 0x3d, 0x7b, 0xbd, 0x3f, 0x72,
    0xb2, 0x3e, 0xe3, 0x47, 0x4a, 0x3e, 0x8c, 0x9b, 0x6a, 0xbe,
    0x58, 0x9b, 0x8e, 0xbd, 0x48, 0xdc, 0xf0, 0x3c, 0x59, 0x12,
    0x6d, 0x3e, 0x9b, 0x7b, 0x38, 0xbd, 0xa0, 0xde, 0x93, 0xbd,
    0x6f, 0xa7, 0x92, 0x3e, 0x5c, 0x4a, 0x87, 0x3d, 0x3f, 0xb0,
    0x3e, 0xbe, 0xbd, 0xe8, 0x02, 0xbe, 0x3f, 0xab, 0x0a, 0xbd,
    0x9b, 0x59, 0x99, 0xbd, 0xdd, 0x61, 0x4d, 0x3d, 0x5f, 0x91,
    0x35, 0xbd, 0xb9, 0xdf, 0x9f, 0x3e, 0xe2, 0x17, 0x3a, 0x3d,
    0x3c, 0x87, 0x0e, 0xbe, 0xf6, 0x0f, 0xb2, 0xbd, 0x4d, 0xcb,
    0x31, 0x3c, 0x74, 0x5f, 0x3f, 0x3d, 0x71, 0x4b, 0x6d, 0x3d,
    0xcd, 0x0d, 0x92, 0xbd, 0xe1, 0xf0, 0xe5, 0x3e, 0x2b, 0x2f,
    0x58, 0x3e, 0x58, 0x7a, 0x1f, 0xbe, 0x1b, 0x12, 0x88, 0xbe,
    0x4d, 0x4f, 0x84, 0x3b, 0x90, 0xb5, 0xd4, 0xbc, 0x7e, 0x8c,
    0x8a, 0xbd, 0x4c, 0xac, 0xc8, 0x3a, 0xde, 0x2c, 0xef, 0x3e,
    0x8a, 0x4d, 0xbb, 0x3d, 0x76, 0xd9, 0x03, 0xbe, 0x81, 0xd5,
    0x61, 0xbe, 0x27, 0x9b, 0xd6, 0xbc, 0x3c, 0x5e, 0x67, 0xbd,
    0xff, 0x18, 0x6a, 0xbe, 0xb1, 0x9b, 0x3f, 0xbd, 0xeb, 0x79,
    0xab, 0x3e, 0x5f, 0x24, 0x84, 0xbd, 0x60, 0x02, 0xbb, 0xbd,
    0x2c, 0x29, 0x0b, 0xbe, 0xe5, 0x7f, 0x35, 0xbe, 0x3e, 0x56,
    0x83, 0xbd, 0x6d, 0xdd, 0xf8, 0xbe, 0xd1, 0x16, 0x18, 0xbe,
    0xf4, 0x19, 0x82, 0x3e, 0x23, 0x23, 0xfa, 0xbc, 0xa3, 0x38,
    0xfa, 0xbd, 0xed, 0x89, 0xaf, 0xbd, 0x69, 0x87, 0x3e, 0xbf,
    0x7e, 0xf0, 0x0c, 0xbf, 0xae, 0xa3, 0x7f, 0x3f, 0xd3, 0x34,
    0x96, 0x3d, 0x4d, 0xf7, 0x59, 0xbd, 0xe5, 0x18, 0xe4, 0x3d,
    0x88, 0x07, 0xb6, 0x3e, 0x17, 0x96, 0x60, 0x3f, 0xd5, 0xb5,
    0xac, 0xbf, 0x4d, 0x24, 0x4f, 0xbf, 0x36, 0x13, 0x25, 0xc0,
    0xdf, 0xc3, 0xcb, 0xbf, 0xca, 0x59, 0x3b, 0xbe, 0xcf, 0x4b,
    0xd5, 0xbf, 0x15, 0x87, 0x85, 0xbe, 0x81, 0x11, 0x97, 0xbc,
    0x70, 0xdf, 0x81, 0xbe, 0x02, 0x98, 0x47, 0xc0, 0x6d, 0x03,
    0x4d, 0xbe, 0xca, 0x13, 0x2f, 0xbd, 0x1c, 0xcc, 0x45, 0xc0,
    0x43, 0xbf, 0xb7, 0xbe, 0x5f, 0x59, 0x55, 0xbe, 0xc2, 0xc6,
    0xb3, 0xbf, 0x3c, 0x1e, 0xd8, 0xbf, 0x0e, 0x37, 0x87, 0xbf,
    0x68, 0x57, 0xfe, 0xbd, 0x01, 0xcc, 0xb7, 0xbf, 0xac, 0x77,
    0x1e, 0xbe, 0x7d, 0x99, 0xa1, 0xbc, 0x0d, 0xd9, 0xd9, 0x3c,
    0x08, 0x75, 0xe6, 0xbf, 0x31, 0x60, 0xfc, 0xbf, 0xdb, 0x62,
    0x63, 0xbd, 0x12, 0x88, 0x6f, 0xbf, 0xc7, 0x6c, 0xda, 0xbf,
    0x68, 0x91, 0x8d, 0xbf, 0x1c, 0xf9, 0x2f, 0x3d, 0xc0, 0xbb,
    0xa9, 0xbc, 0x7e, 0x58, 0xd3, 0xbf, 0xaf, 0x55, 0x88, 0x3d,
    0xce, 0x39, 0x00, 0xbe, 0x53, 0x19, 0x0b, 0xbe, 0x2b, 0x9a,
    0x74, 0xbe, 0xb2, 0x4f, 0x83, 0xbf, 0x7a, 0x02, 0x91, 0xbf,
    0xac, 0xca, 0x5a, 0xbf, 0xe9, 0x3c, 0xad, 0xbf, 0xe8, 0x62,
    0xd6, 0xbf, 0x36, 0xeb, 0xff, 0xbc, 0x7e, 0x09, 0xc2, 0xbf,
    0x69, 0xf2, 0xe9, 0xbd, 0x3d, 0xbf, 0x88, 0xbf, 0xbb, 0xf8,
    0x81, 0xbd, 0x92, 0x03, 0xa9, 0xbf, 0xbd, 0x78, 0x3e, 0xbc,
    0xf6, 0x96, 0xf2, 0xbf, 0xa5, 0xde, 0xb6, 0xbe, 0xe8, 0xfa,
    0xf5, 0xbf, 0x87, 0xaf, 0x8f, 0xbc, 0x22, 0x04, 0x7b, 0xbd,
    0x49, 0xfd, 0xff, 0xbf, 0xbd, 0xf5, 0xf5, 0xbf, 0x89, 0xf0,
    0xf4, 0xbf, 0xa6, 0xb0, 0x65, 0xbe, 0x03, 0xaa, 0x8d, 0xbf,
    0x99, 0xd7, 0x56, 0x3d, 0x33, 0x22, 0xac, 0xbf, 0x5b, 0xba,
    0x08, 0xc0, 0xa2, 0x4d, 0xa6, 0xbc, 0x0c, 0x64, 0xdc, 0x3c,
    0x84, 0x42, 0xf4, 0xbc, 0xd7, 0x19, 0x49, 0xbe, 0x71, 0x5c,
    0xa0, 0xbd, 0xeb, 0xb2, 0x92, 0xbf, 0x2e, 0xf4, 0xa7, 0xbf,
    0xd7, 0x25, 0xcf, 0xbd, 0x5d, 0xf0, 0x6a, 0xbe, 0xc0, 0xa7,
    0x11, 0xc0, 0xa2, 0xb9, 0x50, 0xbf, 0xfc, 0x15, 0xff, 0x3b,
    0x23, 0xb9, 0x06, 0xbd, 0x68, 0x92, 0x30, 0xbe, 0xed, 0xd5,
    0xe5, 0xbf, 0xa7, 0x99, 0xac, 0xbf, 0x9d, 0x26, 0x80, 0xbe,
    0xb1, 0xbc, 0xc5, 0xbf, 0x63, 0x8d, 0x5a, 0xbd, 0x39, 0xb6,
    0x3a, 0xbe, 0xc2, 0x99, 0x64, 0xbf, 0x76, 0xcf, 0x07, 0xbf,
    0x6d, 0xbd, 0xdb, 0xbf, 0x5c, 0x9f, 0x68, 0xbf, 0x88, 0xbf,
    0xea, 0xbf, 0x69, 0xb4, 0x21, 0xc0, 0xf3, 0x98, 0x4c, 0xbf,
    0x43, 0x13, 0x4c, 0xbf, 0xc5, 0x56, 0x1f, 0xbe, 0x1c, 0x86,
    0xd5, 0xbf, 0xcc, 0xff, 0x1e, 0xc0, 0xb8, 0xbb, 0x88, 0xbe,
    0xf1, 0xe0, 0xd3, 0xbe, 0x7c, 0xf7, 0x74, 0xbf, 0x4b, 0x6d,
    0xa7, 0xbf, 0x66, 0xc0, 0x0c, 0xc0, 0xc3, 0xb4, 0x3d, 0xbe,
    0x2e, 0x45, 0xa1, 0xbd, 0x65, 0xd5, 0x96, 0xbe, 0x2b, 0xf4,
    0x93, 0xbd, 0x20, 0x5f, 0xe7, 0xbf, 0xa9, 0x66, 0x5f, 0xbe,
    0xdf, 0x8d, 0xe2, 0xbd, 0x60, 0xe8, 0x7b, 0xbf, 0xfd, 0x14,
    0xf9, 0xbf, 0xf4, 0x78, 0xeb, 0xbf, 0x29, 0xbf, 0xc6, 0xbf,
    0x67, 0x37, 0xd3, 0xbe, 0x58, 0xd0, 0xc5, 0xbe, 0x61, 0x2e,
    0x7b, 0xbe, 0x74, 0x4d, 0x10, 0xbe, 0xf0, 0xb9, 0x2a, 0xc0,
    0x89, 0x5e, 0x0c, 0xbe, 0x00, 0x05, 0x12, 0xbe, 0xde, 0x89,
    0x8b, 0xbe, 0x3d, 0x8a, 0x12, 0xbe, 0x36, 0x3d, 0x23, 0xbf,
    0x2e, 0x0f, 0xb4, 0xbf, 0x8d, 0xdf, 0x81, 0xbd, 0x4c, 0x9d,
    0xa4, 0xbf, 0x35, 0xa9, 0xb5, 0xbe, 0x39, 0xa9, 0x98, 0xbd,
    0x82, 0x33, 0xc1, 0xbe, 0x69, 0x79, 0x6c, 0xbf, 0x2b, 0x14,
    0x1a, 0xbf, 0x60, 0x6b, 0x22, 0xc0, 0xdb, 0xa7, 0xcd, 0xbc,
    0x5b, 0xde, 0x04, 0xc0, 0xdd, 0x07, 0x13, 0xbe, 0x2d, 0xab,
    0x2f, 0xbf, 0x07, 0x9d, 0x60, 0xbe, 0xab, 0x1b, 0xd8, 0xbd,
    0xf2, 0xb2, 0x5c, 0xbf, 0x0b, 0x41, 0x92, 0xbf, 0xe2, 0x98,
    0xde, 0xbe, 0x7a, 0xc6, 0x74, 0x3d, 0x0e, 0xc4, 0x61, 0xbf,
    0xab, 0x9d, 0xee, 0xbe, 0x7f, 0x87, 0xc1, 0xbe, 0xf4, 0xb4,
    0xa5, 0xbf, 0x98, 0x05, 0x24, 0xc0, 0xd3, 0xe2, 0xbf, 0xbf,
    0xf8, 0x99, 0x1b, 0xc0, 0x17, 0xc2, 0xb2, 0xbe, 0x75, 0x96,
    0xf4, 0xbf, 0x6f, 0x80, 0x86, 0xbe, 0xd1, 0x6f, 0x5f, 0xbd,
    0xdf, 0x78, 0xbb, 0xbf, 0xaa, 0xcc, 0x57, 0xbe, 0x0f, 0x71,
    0xe0, 0xbd, 0xd4, 0xac, 0x55, 0xbf, 0xcb, 0xd1, 0xc3, 0xbf,
    0xf3, 0x9e, 0xb6, 0xbe, 0x4f, 0x93, 0x42, 0xbf, 0x45, 0xed,
    0xf4, 0xbd, 0xa3, 0xf3, 0x94, 0xbf, 0x5b, 0x89, 0x09, 0xbd,
    0x84, 0x77, 0x26, 0xbd, 0x42, 0x15, 0xce, 0xbe, 0x83, 0x8e,
    0xaa, 0xbd, 0x0a, 0x78, 0x53, 0xbf, 0xdb, 0x4a, 0xba, 0xbe,
    0xfc, 0x68, 0xb2, 0xbe, 0xd4, 0xd4, 0x7d, 0xbe, 0xe5, 0xa1,
    0x16, 0xc0, 0xf5, 0xb7, 0xf3, 0xbf, 0x59, 0x58, 0xe3, 0xbf,
    0x9e, 0xc8, 0xae, 0xbe, 0x55, 0x5f, 0xff, 0xbf, 0x96, 0xfc,
    0x34, 0xbe, 0x86, 0x07, 0x26, 0xbd, 0x63, 0x5e, 0x1b, 0xbf,
    0x55, 0x43, 0xe6, 0xbe, 0xa6, 0x7f, 0x71, 0xbe, 0x70, 0x10,
    0xc7, 0xbf, 0xfe, 0x50, 0xb5, 0x3d, 0x6d, 0x67, 0xef, 0xbf,
    0xaf, 0xa8, 0xdd, 0xbf, 0x1b, 0xd8, 0xc8, 0xbf, 0x13, 0x5a,
    0xdd, 0xbf, 0x03, 0xc5, 0x52, 0xc0, 0x62, 0xaa, 0x00, 0xc0,
    0x70, 0x0e, 0x39, 0xbf, 0x30, 0x2f, 0x2d, 0x3d, 0xfb, 0x45,
    0x2c, 0xc0, 0x9e, 0x7a, 0xcd, 0xbf, 0x5e, 0x30, 0x6a, 0xbf,
    0xd4, 0xd1, 0x2a, 0xbf, 0x76, 0xf0, 0x16, 0xc0, 0xea, 0x81,
    0xe4, 0xbe, 0x3a, 0x09, 0xf0, 0xbf, 0xbf, 0xb3, 0xd2, 0xbf,
    0x52, 0xa5, 0x37, 0xbf, 0x0b, 0x3b, 0x20, 0xc0, 0xee, 0x54,
    0xec, 0xbf, 0x4f, 0x95, 0x52, 0xbe, 0xda, 0x5c, 0x02, 0xc0,
    0x6b, 0x70, 0x97, 0xbe, 0x67, 0xa4, 0x65, 0xbd, 0x72, 0x6b,
    0x26, 0xbe, 0xa2, 0xc7, 0xb7, 0xbe, 0xc6, 0x6a, 0x5e, 0xbd,
    0x9b, 0x0f, 0x01, 0xc0, 0x15, 0x82, 0xc0, 0xbe, 0x86, 0x69,
    0x5e, 0xbf, 0x51, 0x68, 0x8b, 0xbf, 0xf7, 0x31, 0x6c, 0xbc,
    0x87, 0x5c, 0x0a, 0xbf, 0xfa, 0xa3, 0xc4, 0xbe, 0x49, 0xb9,
    0x8b, 0xbf, 0x62, 0x20, 0xec, 0xbf, 0x35, 0x5a, 0x9c, 0xbc,
    0xfe, 0xbd, 0x4f, 0xbf, 0xb6, 0x55, 0xcc, 0xbe, 0xac, 0xda,
    0x00, 0xbf, 0x58, 0x7d, 0x22, 0xbe, 0x81, 0xc3, 0x1d, 0xbf,
    0x3f, 0xf8, 0x19, 0xbe, 0x82, 0xa8, 0x36, 0xc0, 0x62, 0x28,
    0x18, 0xbe, 0xaa, 0x6c, 0x90, 0xbf, 0x6e, 0x95, 0xb8, 0xbf,
    0xab, 0x92, 0x8f, 0xbf, 0xd7, 0x48, 0x0b, 0xc0, 0x41, 0x3c,
    0x89, 0xbc, 0xe4, 0x18, 0xf3, 0xbf, 0x88, 0xa6, 0x91, 0xbe,
    0xcf, 0x50, 0x7c, 0xbf, 0xc5, 0xc3, 0x96, 0xbd, 0x64, 0x9e,
    0xa3, 0xbf, 0xfb, 0x06, 0xc3, 0xbe, 0x8a, 0xac, 0xa4, 0xbf,
    0xd9, 0x71, 0x08, 0xc0, 0x9d, 0x49, 0xac, 0xbc, 0xd0, 0xb3,
    0x54, 0xbe, 0xc3, 0x06, 0x4e, 0xc0, 0x97, 0x80, 0x11, 0xbe,
    0x61, 0x06, 0x36, 0xbe, 0x2e, 0xfc, 0xdf, 0x3d, 0x63, 0x22,
    0x44, 0x3c, 0x61, 0x7a, 0x77, 0xbf, 0x8a, 0xaa, 0xae, 0xbf,
    0x16, 0x30, 0x29, 0xbe, 0xc3, 0xf7, 0x52, 0xbe, 0xe1, 0xd0,
    0x2e, 0xc0, 0x18, 0x3a, 0x06, 0xbe, 0x64, 0x91, 0xa1, 0xbf,
    0xbb, 0xce, 0xb4, 0x3d, 0xbc, 0x2b, 0x8b, 0xbf, 0x34, 0xae,
    0x73, 0xbf, 0xd3, 0x84, 0x2f, 0xbe, 0x6b, 0x9c, 0x66, 0xbf,
    0x65, 0x17, 0xea, 0xbf, 0x0d, 0x11, 0x8a, 0xbe, 0x27, 0xfa,
    0x8d, 0xbf, 0xd6, 0xac, 0xc9, 0x3d, 0xcf, 0x79, 0x08, 0xc0,
    0x64, 0x5a, 0x14, 0xc0, 0xe3, 0x6b, 0xed, 0xbe, 0x9f, 0xca,
    0x4f, 0xbe, 0xf9, 0xa7, 0x52, 0xc0, 0xcd, 0x34, 0x98, 0xbe,
    0xa5, 0xdd, 0x01, 0xc0, 0xb9, 0x93, 0xc3, 0x3c, 0xe5, 0x71,
    0xb2, 0xbf, 0x90, 0x67, 0x35, 0xbf, 0x1a, 0x11, 0x21, 0xbf,
    0x99, 0x06, 0x01, 0xbf, 0xd0, 0x79, 0xc1, 0xbe, 0x94, 0xb3,
    0xe1, 0xbf, 0x3a, 0xb9, 0x20, 0xc0, 0x86, 0xc0, 0xad, 0x3d,
    0xa7, 0xd7, 0xb5, 0xbe, 0xa9, 0x36, 0xa4, 0xbe, 0x60, 0xcd,
    0x9a, 0xbe, 0xdb, 0x04, 0xb5, 0xbf, 0x2a, 0xc8, 0x60, 0xbe,
    0x69, 0xbb, 0x74, 0xbf, 0x6e, 0xc0, 0x89, 0xbf, 0x0f, 0xc2,
    0x02, 0xc0, 0x2d, 0xf6, 0x4e, 0xbf, 0x5c, 0x9c, 0xed, 0x3d,
    0xd1, 0x1c, 0xb2, 0xbf, 0x55, 0x19, 0x33, 0xbe, 0x71, 0x5c,
    0xff, 0xbd, 0xb2, 0xc0, 0x67, 0xbd, 0x4e, 0xfc, 0xac, 0xbf,
    0x31, 0x70, 0xf9, 0xbe, 0x0e, 0xd6, 0x06, 0xbf, 0x3a, 0xb5,
    0x1a, 0xbf, 0x5f, 0x51, 0xe1, 0xbf, 0x0c, 0x66, 0x9c, 0xbd,
    0x4f, 0xb4, 0xc2, 0xbe, 0x83, 0x82, 0x5f, 0xbe, 0x14, 0x0a,
    0x3a, 0xbf, 0x44, 0x21, 0xa2, 0xbf, 0x69, 0xd9, 0x11, 0xbf,
    0x6b, 0x5f, 0x27, 0xc0, 0xd1, 0xf4, 0xbb, 0xbd, 0x4e, 0xeb,
    0xa5, 0xbe, 0x5d, 0xad, 0x80, 0xbf, 0x9d, 0x25, 0x13, 0xc0,
    0x50, 0xfd, 0xda, 0xbf, 0xbf, 0x6a, 0x76, 0xbf, 0xf9, 0xe0,
    0x1e, 0xbf, 0xc7, 0xbd, 0xc1, 0xbf, 0x7c, 0x79, 0x60, 0xbe,
    0x3c, 0x09, 0xfa, 0xbd, 0x1e, 0xaa, 0x79, 0xbe, 0xc1, 0xb2,
    0xb2, 0xbe, 0xcd, 0xfd, 0x27, 0xc0, 0x63, 0xdd, 0xa9, 0xbf,
    0x22, 0xd8, 0xf7, 0xbc, 0x7f, 0x5b, 0xf0, 0x3b, 0x77, 0xc7,
    0xde, 0xbf, 0x2c, 0x54, 0x0e, 0xbc, 0x50, 0x52, 0xf6, 0xbf,
    0x0a, 0xab, 0x2a, 0xbf, 0x19, 0x82, 0xa3, 0xbe, 0x2a, 0x0f,
    0xa2, 0xbf, 0xd1, 0x59, 0xb8, 0xbe, 0x45, 0xa3, 0x5e, 0xbd,
    0xdf, 0x7e, 0xd5, 0xbe, 0xbe, 0x27, 0x59, 0xbf, 0xd5, 0xb2,
    0x31, 0xbf, 0xa5, 0x9f, 0x13, 0xc0, 0xf2, 0x80, 0x11, 0xbe,
    0x77, 0xf1, 0x7c, 0xbe, 0x2f, 0x0e, 0x28, 0xbc, 0x8c, 0xec,
    0x05, 0xbf, 0x6f, 0x41, 0xb4, 0xbf, 0xfd, 0x11, 0xec, 0xbe,
    0xc0, 0x58, 0x05, 0xbe, 0x3d, 0x2e, 0x88, 0xbf, 0xae, 0x9a,
    0xc4, 0xbe, 0xf5, 0xce, 0xc9, 0xbe, 0x06, 0x9e, 0xd4, 0xbf,
    0x13, 0x6e, 0xb2, 0xbf, 0x0c, 0x1c, 0xbe, 0xbd, 0x8e, 0xff,
    0x68, 0xbf, 0x4e, 0xe4, 0xed, 0xbf, 0x81, 0x38, 0x13, 0xc0,
    0xfa, 0xb7, 0xb3, 0xbf, 0x9f, 0xa0, 0x0f, 0xbc, 0x8b, 0x91,
    0x53, 0xc0, 0xf8, 0x7a, 0xbc, 0xbf, 0xd4, 0xcd, 0xe4, 0xbf,
    0x9d, 0x58, 0xb1, 0xbf, 0x12, 0x5d, 0xd9, 0xbf, 0xa6, 0xf7,
    0x73, 0xbf, 0x4c, 0x07, 0x9b, 0xbd, 0xb9, 0xe4, 0xc4, 0xbd,
    0x9d, 0x10, 0x08, 0xbd, 0x0b, 0xe9, 0x8d, 0xbe, 0xbc, 0x83,
    0xcb, 0xbf, 0x07, 0x8a, 0xe7, 0xbe, 0x81, 0x1f, 0x95, 0xbe,
    0x07, 0xe7, 0x8f, 0xbf, 0x3c, 0xe2, 0xb2, 0xbe, 0xc4, 0x9c,
    0xa7, 0xbe, 0x7c, 0x54, 0xb0, 0xbf, 0x5c, 0x6b, 0xaf, 0xbe,
    0x70, 0x22, 0x96, 0xbe, 0x9e, 0x5c, 0x98, 0xbf, 0x2e, 0xa5,
    0xb4, 0xbf, 0x67, 0x0b, 0xde, 0xbf, 0x1a, 0x0b, 0xad, 0x3d,
    0xb6, 0x4e, 0x7d, 0xbf, 0xda, 0xc8, 0x30, 0xbf, 0xcb, 0x90,
    0x37, 0x3d, 0x8f, 0x35, 0x22, 0xbe, 0x32, 0x70, 0x47, 0xbf,
    0x74, 0xac, 0xc9, 0xbe, 0x96, 0xdd, 0x92, 0xbf, 0x41, 0xb8,
    0x17, 0xbf, 0x56, 0x47, 0xb4, 0x3f, 0x06, 0x84, 0xa9, 0x3e,
    0xf2, 0x07, 0x18, 0xbf, 0xb0, 0x1b, 0xcb, 0xbd, 0x30, 0x88,
    0x46, 0xbd, 0xd6, 0xda, 0x23, 0xbf, 0xa5, 0x89, 0xaa, 0x3f,
    0xd2, 0xe4, 0x06, 0xc0, 0xb5, 0x20, 0xe2, 0x3e, 0x2b, 0x6d,
    0x66, 0xbf, 0x30, 0xf6, 0xcb, 0x3f, 0x39, 0x02, 0x9e, 0x3d,
