#include "network_data.h"

ai_handle ai_network_data_weights_get(void)
{

  AI_ALIGNED(4)
  static const ai_u8 s_network_weights[ 54012 ] = {
    0xaa, 0xac, 0xca, 0xab, 0xab, 0xab, 0xba, 0xbc, 0xbc, 0xba,
    0xaa, 0xbc, 0xcb, 0xbb, 0xaa, 0xba, 0xba, 0xbb, 0xcc, 0xcc,
    0xaa, 0xbb, 0xaa, 0xbb, 0xaa, 0xaa, 0xbb, 0xac, 0xca, 0xbc,
    0xcb, 0xcc, 0xce, 0xdc, 0xbc, 0xcb, 0xaa, 0xba, 0xaa, 0xba,
    0xab, 0xab, 0xbc, 0xcb, 0xcc, 0xba, 0xbd, 0xda, 0xbb, 0xbb,
    0xac, 0xca, 0xcb, 0x9a, 0xaa, 0xab, 0xaa, 0xab, 0xbb, 0x9a,
    0xbb, 0xdc, 0xbb, 0xca, 0xaa, 0xcb, 0xab, 0xa9, 0xab, 0xbb,
    0xaa, 0xbd, 0xba, 0xbb, 0xbc, 0xcc, 0xaa, 0xab, 0xab, 0xba,
    0xaa, 0xa9, 0x9a, 0xbc, 0xaa, 0xdd, 0xcb, 0xaa, 0xba, 0xcb,
    0xaa, 0xbb, 0xba, 0xaa, 0xab, 0xa9, 0xbb, 0xaa, 0xba, 0xbd,
    0xab, 0xba, 0xac, 0xbc, 0xab, 0xba, 0xbb, 0xcb, 0xbb, 0xbb,
    0xcb, 0x9a, 0xac, 0xcd, 0xbb, 0xa9, 0xbc, 0xcd, 0xa9, 0x9c,
    0xba, 0xbb, 0xab, 0xab, 0xaa, 0xaa, 0xcb, 0xdc, 0xbc, 0xbb,
    0xbb, 0xbb, 0xaa, 0x9b, 0xaa, 0xca, 0x9a, 0xc9, 0xa8, 0xab,
    0xcc, 0xcb, 0xca, 0xca, 0xbc, 0xcd, 0xbb, 0xa9, 0xcc, 0xbc,
    0xca, 0xcc, 0xca, 0xbc, 0xbb, 0xaa, 0xac, 0xbb, 0xcc, 0xcc,
    0xba, 0xaa, 0x9a, 0xaa, 0xab, 0xda, 0xba, 0xba, 0xab, 0x99,
    0x9b, 0xab, 0x9b, 0xcc, 0xaa, 0xca, 0xaa, 0xbb, 0xcb, 0xba,
    0xaa, 0xaa, 0xaa, 0xab, 0xad, 0xba, 0xbd, 0xdc, 0xb9, 0xba,
    0xbb, 0xab, 0xaa, 0xbb, 0x9a, 0xab, 0xba, 0xba, 0xcb, 0x9a,
    0xae, 0xdc, 0xa9, 0xa9, 0x9b, 0xab, 0xbb, 0xba, 0x9b, 0xbb,
    0xcb, 0xa9, 0xcd, 0xab, 0xde, 0xdb, 0x9a, 0xaa, 0xbb, 0xab,
    0xab, 0x99, 0xac, 0xbb, 0xaa, 0x9b, 0xcd, 0xbc, 0xdd, 0xba,
    0x99, 0x9a, 0xca, 0xca, 0xab, 0xaa, 0xbc, 0xac, 0xba, 0x9d,
    0xcd, 0xcc, 0xdd, 0xb7, 0x8b, 0xbb, 0xab, 0xba, 0xbb, 0xaa,
    0xaa, 0xaa, 0xc9, 0x8c, 0xdd, 0xcc, 0xdd, 0x97, 0x8b, 0xcc,
    0xaa, 0x9b, 0xcb, 0xbb, 0x9a, 0xab, 0xaa, 0x8d, 0xcc, 0xbc,
    0xdc, 0x88, 0x8b, 0xbb, 0xab, 0xaa, 0xcb, 0xba, 0xcb, 0xaa,
    0xca, 0xbd, 0xcc, 0xbb, 0xba, 0xa9, 0xa9, 0xaa, 0xac, 0xbb,
    0xab, 0xbb, 0xcc, 0xaa, 0xbb, 0xde, 0xcc, 0xab, 0xcb, 0xb8,
    0x9b, 0xaa, 0xa9, 0xab, 0xa9, 0xab, 0xba, 0xaa, 0xbb, 0xee,
    0xcb, 0xcb, 0xbd, 0xca, 0x99, 0x9a, 0xab, 0xcb, 0xbb, 0xb9,
    0xba, 0xbc, 0xca, 0xed, 0xbb, 0xbc, 0xbc, 0xb9, 0x99, 0xaa,
    0xab, 0xa9, 0xba, 0xaa, 0xa9, 0xcb, 0xca, 0xcb, 0xa9, 0xba,
    0xdc, 0xba, 0xab, 0xab, 0xb9, 0x98, 0x9a, 0x98, 0x9a, 0xab,
    0xbb, 0xbb, 0xdb, 0xcb, 0xbc, 0x98, 0x89, 0xaa, 0xa9, 0x9a,
    0xaa, 0xaa, 0xaa, 0xab, 0xba, 0xba, 0xcb, 0xac, 0x9b, 0xab,
    0xbb, 0xab, 0x9c, 0xba, 0xab, 0xba, 0xaa, 0xab, 0xaa, 0xac,
    0xac, 0xbb, 0xac, 0xcb, 0xbc, 0xaa, 0xab, 0xab, 0xab, 0xab,
    0xca, 0xba, 0xca, 0xaa, 0xac, 0xba, 0xab, 0xaa, 0xcb, 0xaa,
    0xaa, 0xcb, 0xbb, 0xbb, 0xab, 0xbb, 0xbb, 0xcc, 0xac, 0xba,
    0xac, 0xaa, 0xbb, 0xaa, 0xbb, 0xaa, 0xab, 0xcc, 0xca, 0xac,
    0xcc, 0xca, 0xab, 0xab, 0xcc, 0xda, 0xdc, 0xab, 0xcb, 0xbb,
    0xbc, 0xbb, 0xab, 0xca, 0xac, 0xba, 0xba, 0xa9, 0xcd, 0xba,
    0xbc, 0x9a, 0xba, 0xcb, 0xa9, 0x99, 0x89, 0xab, 0xbb, 0xba,
    0xb9, 0x9a, 0xcc, 0x9a, 0xac, 0xbb, 0x99, 0xba, 0x9c, 0xa9,
    0x9b, 0xac, 0xbb, 0xbb, 0xaa, 0x9a, 0xab, 0xaa, 0xba, 0xca,
    0xbc, 0xab, 0xb9, 0xa9, 0x9c, 0xaa, 0xab, 0xcc, 0xaa, 0xaa,
    0xaa, 0xab, 0x99, 0xb9, 0xbb, 0xcb, 0xaa, 0x99, 0xad, 0xba,
    0xac, 0xec, 0xbb, 0xab, 0xbb, 0xba, 0xa9, 0xbd, 0xda, 0xbc,
    0x8a, 0x9a, 0xcd, 0xcb, 0xcc, 0xed, 0xcb, 0xaa, 0xaa, 0xbb,
    0xbb, 0xcc, 0xca, 0x98, 0x89, 0xbc, 0xed, 0xba, 0xab, 0xdd,
    0xcb, 0xac, 0xbb, 0xba, 0xcb, 0xdb, 0x97, 0x79, 0xac, 0xdd,
    0xed, 0xaa, 0xac, 0xfd, 0xbc, 0xb9, 0xc9, 0xba, 0xba, 0xa7,
    0x77, 0x8c, 0xbc, 0xdf, 0xed, 0xcb, 0xab, 0xcb, 0xbb, 0xbb,
    0xaa, 0x99, 0x98, 0x87, 0x7a, 0xdd, 0xdd, 0xdd, 0xcb, 0xac,
    0xab, 0xb9, 0xab, 0xbb, 0xba, 0xa9, 0x98, 0x89, 0xbf, 0xde,
    0xcd, 0xcb, 0xbb, 0xcb, 0xac, 0xa9, 0xab, 0x98, 0xaa, 0x98,
    0xa8, 0xbd, 0xef, 0xdd, 0xba, 0xaa, 0xab, 0xbb, 0xcc, 0x9a,
    0x9a, 0x99, 0x9b, 0x99, 0xab, 0xef, 0xeb, 0xba, 0xbb, 0xa9,
    0x9b, 0xca, 0xcb, 0x9b, 0x99, 0x8b, 0xaa, 0xab, 0xbc, 0xee,
    0xcc, 0xaa, 0xcc, 0xcb, 0x9b, 0xcb, 0xac, 0x9a, 0xa9, 0xbb,
    0x9b, 0xdb, 0xde, 0xec, 0xba, 0xbb, 0xb9, 0xbb, 0xac, 0xca,
    0xcb, 0xb9, 0xba, 0xab, 0xba, 0xab, 0xcc, 0xda, 0xbc, 0xbb,
    0xab, 0xca, 0x9b, 0xba, 0xbc, 0xbb, 0xba, 0xdc, 0xca, 0xcd,
    0xdc, 0xaa, 0xad, 0xca, 0xcb, 0xba, 0xba, 0xac, 0xbb, 0xda,
    0xab, 0xcc, 0xcb, 0xcd, 0xbb, 0xab, 0xdc, 0xbb, 0xcb, 0xcb,
    0xbb, 0xca, 0x9b, 0xea, 0xbc, 0xbc, 0xbc, 0xda, 0xa9, 0xab,
    0xbc, 0xaa, 0xcb, 0xcd, 0xbc, 0xcc, 0xba, 0xdb, 0xcc, 0xbd,
    0xcc, 0xba, 0xab, 0xbb, 0xcc, 0xaa, 0xbb, 0xcb, 0xcd, 0xca,
    0xcc, 0xeb, 0xcb, 0xcc, 0xdc, 0xaa, 0xbb, 0xcb, 0xbb, 0xbb,
    0xcd, 0xcc, 0xdc, 0xac, 0xcb, 0xdc, 0x9c, 0xbc, 0xbc, 0x9c,
    0xab, 0xab, 0xbb, 0xaa, 0xcc, 0xcb, 0xdd, 0xca, 0xbc, 0xba,
    0xbd, 0xbb, 0xdd, 0xcc, 0xc9, 0x99, 0x9a, 0xab, 0xbc, 0xbd,
    0xdc, 0xaa, 0xab, 0xad, 0xbd, 0xda, 0xaa, 0xbb, 0xcb, 0xba,
    0xaa, 0xac, 0xdc, 0xcd, 0xcc, 0xab, 0xac, 0xbb, 0xbc, 0xbb,
    0xab, 0xb9, 0xa9, 0x9a, 0xbb, 0xac, 0xaa, 0xbb, 0xac, 0xac,
    0xab, 0xaa, 0xab, 0xac, 0xaa, 0xaa, 0xac, 0xab, 0xbb, 0xbb,
    0xbc, 0xac, 0xac, 0xbb, 0xbb, 0xaa, 0xbb, 0xbb, 0xbc, 0xbb,
    0xba, 0xaa, 0xba, 0xab, 0xcb, 0xaa, 0xcc, 0xaa, 0xab, 0xaa,
    0xaa, 0xab, 0xaa, 0xaa, 0xbb, 0xbb, 0xaa, 0xba, 0xaa, 0xba,
    0xbb, 0xca, 0xbb, 0xa9, 0x9a, 0xa9, 0xa9, 0xab, 0xbb, 0xba,
    0xcc, 0xa9, 0x89, 0x99, 0x9a, 0xaa, 0xbc, 0xab, 0x9a, 0xaa,
    0xba, 0xbb, 0xbc, 0xcb, 0xcb, 0xc9, 0xa9, 0x88, 0x89, 0xcc,
    0xaa, 0xaa, 0xbc, 0xbb, 0xbb, 0xac, 0xbb, 0xaa, 0xcd, 0xc9,
    0xa9, 0x98, 0x89, 0xaa, 0xbc, 0xbc, 0xca, 0xbb, 0xb9, 0xaa,
    0xa9, 0xba, 0xdd, 0xda, 0xab, 0x99, 0x87, 0xbc, 0xca, 0xb9,
    0xaa, 0xab, 0xca, 0xaa, 0xb9, 0xcd, 0xec, 0xa9, 0x9b, 0xaa,
    0x88, 0xba, 0xb9, 0x8a, 0xba, 0x99, 0x9a, 0x9a, 0xbd, 0xdd,
    0xdc, 0x98, 0xab, 0xbb, 0x87, 0xbc, 0xaa, 0x8a, 0xa9, 0x99,
    0xa9, 0xab, 0xcd, 0xde, 0xd9, 0x89, 0xbc, 0xca, 0x88, 0xbb,
    0xbb, 0x98, 0x99, 0x99, 0xaa, 0xdd, 0xdd, 0xcb, 0xa8, 0x9a,
    0xbb, 0xaa, 0x89, 0xbb, 0xbb, 0x89, 0xba, 0xab, 0xcd, 0xcd,
    0xdc, 0xb9, 0x88, 0xab, 0xba, 0x9a, 0x98, 0xab, 0xa9, 0x99,
    0x9d, 0xcc, 0xbd, 0xcc, 0xca, 0xa9, 0x9a, 0xaa, 0xa9, 0x88,
    0xa9, 0xaa, 0xba, 0x89, 0xbd, 0xdd, 0xbb, 0xb9, 0x99, 0x9a,
    0xaa, 0xb9, 0x99, 0x89, 0x9a, 0xbc, 0xaa, 0xab, 0xdd, 0xdc,
    0xcb, 0xba, 0xa9, 0x9b, 0x9a, 0xba, 0x98, 0xaa, 0xa9, 0xba,
    0xca, 0x9c, 0xcd, 0xdc, 0xac, 0xba, 0x89, 0x9b, 0x99, 0xba,
    0xac, 0xcb, 0xca, 0xaa, 0xaa, 0xaa, 0xcb, 0xab, 0xcc, 0xa9,
    0x9a, 0xaa, 0xba, 0xba, 0xbd, 0xbc, 0xdb, 0xbc, 0xab, 0x9c,
    0xdb, 0xab, 0xbb, 0xa9, 0x9a, 0xaa, 0x9c, 0xcb, 0xab, 0xdb,
    0xca, 0xba, 0xba, 0x89, 0xcd, 0xca, 0xbb, 0xac, 0xaa, 0xba,
    0xab, 0xcc, 0xca, 0xcc, 0xba, 0xcc, 0xa9, 0x8a, 0xaa, 0xbb,
    0xcb, 0xab, 0xaa, 0xba, 0xbb, 0xcb, 0xab, 0xcc, 0xba, 0xbb,
    0xcb, 0x88, 0xaa, 0xbc, 0xaa, 0xab, 0xba, 0xa9, 0xac, 0xbb,
    0xac, 0xbc, 0xb9, 0xbb, 0xaa, 0x79, 0x9b, 0xaa, 0xab, 0x9b,
    0xbb, 0x8a, 0xba, 0xaa, 0xbb, 0xbc, 0xaa, 0xab, 0xab, 0x89,
    0x9a, 0xba, 0xbb, 0xbb, 0xac, 0x9a, 0xaa, 0xcb, 0xaa, 0xcc,
    0xb9, 0xba, 0xba, 0x8a, 0xab, 0xaa, 0xaa, 0xca, 0xba, 0xb9,
    0xaa, 0xab, 0xad, 0xcb, 0xaa, 0xba, 0xbb, 0x99, 0xba, 0xab,
    0xba, 0xcc, 0xda, 0xba, 0xa9, 0x9b, 0xab, 0xa8, 0x99, 0xbc,
    0xba, 0x9a, 0x98, 0x88, 0xca, 0xcd, 0xcb, 0xa9, 0x99, 0xaa,
    0x98, 0x89, 0x9a, 0xbb, 0xcb, 0xb9, 0xa9, 0x99, 0xba, 0xba,
    0xdc, 0xbb, 0xa8, 0x98, 0x88, 0x89, 0x9a, 0xab, 0xbb, 0xbb,
    0xab, 0xba, 0xba, 0xaa, 0xca, 0xca, 0x9a, 0x9a, 0xba, 0xba,
    0xca, 0xab, 0xca, 0xba, 0xab, 0xbb, 0xba, 0xcb, 0xab, 0xba,
    0xcb, 0xab, 0xbc, 0xac, 0xac, 0xba, 0xbb, 0xaa, 0xbc, 0xba,
    0xba, 0xaa, 0xab, 0xbb, 0xba, 0xab, 0xab, 0xab, 0xca, 0xac,
    0xbb, 0xbc, 0xaa, 0xbb, 0xaa, 0xca, 0xaa, 0xa9, 0xab, 0xba,
    0xbb, 0xba, 0xcb, 0xbb, 0xaa, 0xaa, 0xcc, 0xbb, 0xcd, 0xdc,
    0xcc, 0xbb, 0xcd, 0xba, 0xcd, 0xbd, 0xcc, 0xbb, 0xca, 0xbb,
    0xcc, 0xbc, 0xbd, 0xdc, 0xdc, 0xcd, 0xcb, 0xbc, 0xcc, 0xcc,
    0xcc, 0xbb, 0xab, 0xac, 0xba, 0xbb, 0xcb, 0xbc, 0xbc, 0xcc,
    0xbd, 0xcc, 0xcc, 0xbb, 0xcc, 0xac, 0xba, 0xba, 0x99, 0xc9,
    0xaa, 0xdd, 0xdc, 0xcb, 0xbc, 0xdc, 0xcb, 0xcc, 0xdc, 0xab,
    0xaa, 0xbb, 0x99, 0xba, 0xab, 0xbc, 0xce, 0xed, 0xcd, 0xdd,
    0xcd, 0xcb, 0xcd, 0xbb, 0xbb, 0xa9, 0x89, 0xaa, 0x9a, 0xcb,
    0xbd, 0xee, 0xee, 0xdd, 0xab, 0xbc, 0xcc, 0xbb, 0xac, 0x9a,
    0x9b, 0x99, 0xbb, 0xb9, 0xab, 0xbd, 0xcd, 0xcb, 0xbb, 0xab,
    0xbc, 0xaa, 0xab, 0xa9, 0xaa, 0xb9, 0x99, 0xaa, 0xa9, 0x88,
    0x9a, 0xac, 0xbb, 0xaa, 0xaa, 0xaa, 0xaa, 0x9a, 0xbc, 0xaa,
    0xbb, 0x8b, 0x98, 0x78, 0x9b, 0xbc, 0xab, 0xcc, 0xca, 0xab,
    0xca, 0xac, 0xcb, 0xab, 0xaa, 0xab, 0xa8, 0x98, 0x8a, 0xab,
    0xa9, 0xb9, 0xbb, 0xcb, 0xaa, 0xbd, 0xb9, 0xca, 0xaa, 0xbb,
    0x88, 0x99, 0xa9, 0x9a, 0xbb, 0xcc, 0xdd, 0xaa, 0xaa, 0xdc,
    0xbb, 0x9a, 0xb9, 0xa9, 0x89, 0xaa, 0x99, 0x9b, 0xca, 0xca,
    0xbc, 0xab, 0xba, 0xba, 0xb9, 0x9a, 0xa9, 0x99, 0x8a, 0x99,
    0xbb, 0xaa, 0x9b, 0xdc, 0xab, 0xaa, 0xbc, 0xcb, 0xb9, 0xa9,
    0xcb, 0x9a, 0xa9, 0xaa, 0xaa, 0xa9, 0xb9, 0xbb, 0xaa, 0xbb,
    0xcb, 0xca, 0x99, 0xaa, 0xb9, 0xba, 0x9a, 0xa9, 0xaa, 0x9c,
    0xbb, 0xbb, 0xcb, 0xbb, 0xba, 0xc9, 0x89, 0xb9, 0x98, 0xa9,
    0xaa, 0xa9, 0xaa, 0xbc, 0xcc, 0xcb, 0xaa, 0xbb, 0xab, 0xba,
    0xa9, 0x89, 0x98, 0x87, 0x78, 0x8a, 0xca, 0xdc, 0xbc, 0xbb,
    0xba, 0xab, 0xca, 0x99, 0x89, 0x99, 0x98, 0x88, 0x88, 0x8a,
    0xaa, 0xba, 0xa8, 0x9a, 0xab, 0xba, 0xcc, 0xc9, 0x98, 0xba,
    0x9c, 0xdd, 0xcb, 0xbb, 0xaa, 0xaa, 0xb9, 0xaa, 0xab, 0xca,
    0xab, 0xed, 0xbb, 0xbc, 0xdd, 0xdd, 0xeb, 0xca, 0xba, 0xbb,
    0xaa, 0xaa, 0xcc, 0xcb, 0xab, 0xdd, 0xcc, 0xed, 0xdd, 0xdd,
    0xdd, 0xca, 0xab, 0xac, 0xab, 0xab, 0xbd, 0xca, 0xba, 0xdc,
    0xcc, 0xdb, 0xca, 0xcb, 0xcc, 0xcb, 0xcb, 0x9b, 0xaa, 0xac,
    0xbc, 0xbb, 0xc9, 0xdd, 0xcc, 0xbb, 0xab, 0xcb, 0xbb, 0xca,
    0xbc, 0xcb, 0xbc, 0xdd, 0xdb, 0xca, 0xcb, 0xdc, 0xcb, 0xcd,
    0xcc, 0xcb, 0xda, 0xbb, 0xbc, 0xcd, 0xce, 0xdd, 0xdc, 0xca,
    0xaa, 0xba, 0xaa, 0xac, 0xcc, 0xba, 0xaa, 0xaa, 0xac, 0xaa,
    0xba, 0xca, 0xca, 0xba, 0xab, 0xca, 0xac, 0xbc, 0xab, 0xaa,
    0xcb, 0xaa, 0xac, 0xbb, 0xab, 0xba, 0xac, 0xcc, 0xaa, 0xba,
    0xbb, 0xca, 0xac, 0xca, 0xab, 0xbc, 0xcb, 0xab, 0xaa, 0xbb,
    0xcb, 0xbb, 0xba, 0xaa, 0xbb, 0xab, 0xba, 0xcb, 0xcc, 0xbb,
    0xcb, 0xcc, 0xcc, 0xcb, 0xab, 0xba, 0xac, 0xcb, 0xab, 0xcb,
    0xac, 0xbc, 0xcb, 0xdc, 0xcc, 0xee, 0xde, 0xdd, 0xcc, 0xaa,
    0xaa, 0xcc, 0xce, 0xed, 0xdd, 0xde, 0xde, 0xdd, 0xdd, 0xdc,
    0xdc, 0xbc, 0xad, 0xac, 0xaa, 0xdd, 0xee, 0xcc, 0xde, 0xde,
    0xee, 0xee, 0xed, 0xdc, 0xbc, 0x99, 0xab, 0xcc, 0xbb, 0xce,
    0xcc, 0xdc, 0xdc, 0xbd, 0xcc, 0xdd, 0xdb, 0x9b, 0x89, 0x78,
    0xa9, 0xac, 0xbb, 0xbd, 0xcb, 0xbc, 0xab, 0xab, 0x98, 0x98,
    0x87, 0x88, 0x99, 0x98, 0xac, 0xbb, 0xca, 0xcd, 0xcc, 0xba,
    0xaa, 0x98, 0x77, 0x66, 0x77, 0x89, 0x8a, 0xab, 0xcd, 0xbb,
    0xca, 0xce, 0xdc, 0xbc, 0x99, 0xa8, 0x98, 0x78, 0x8a, 0xcb,
    0xba, 0xcb, 0xcb, 0xcb, 0xbb, 0xdd, 0xbb, 0x9a, 0x8a, 0x9a,
    0xbb, 0xdc, 0xdd, 0xda, 0xba, 0xab, 0x99, 0xac, 0xca, 0xaa,
    0xbb, 0xaa, 0x99, 0xaa, 0xbd, 0xdc, 0xdc, 0xaa, 0xca, 0xaa,
    0x9a, 0xab, 0xcb, 0x9b, 0x9a, 0xa9, 0x9a, 0xaa, 0xbc, 0xba,
    0xbb, 0xbb, 0xaa, 0x99, 0x89, 0xca, 0xaa, 0x98, 0x99, 0xba,
    0xab, 0xac, 0xa9, 0xaa, 0xab, 0xbc, 0xb9, 0xa9, 0x88, 0xca,
    0xc9, 0x87, 0x79, 0x89, 0xab, 0xca, 0xbb, 0xcb, 0xcc, 0xbb,
    0xab, 0xa9, 0x88, 0xbb, 0xab, 0x76, 0x68, 0x9c, 0xcb, 0xac,
    0xba, 0xac, 0xbc, 0xa9, 0xaa, 0xa9, 0x9a, 0xab, 0xab, 0x87,
    0x79, 0x9c, 0xba, 0xaa, 0xac, 0xbb, 0xad, 0xa9, 0xaa, 0xaa,
    0x8a, 0xaa, 0xbb, 0x87, 0x9a, 0xb9, 0xbb, 0x9a, 0x9a, 0xcc,
    0xbb, 0xc9, 0xa9, 0x9a, 0xaa, 0xbb, 0xcb, 0xaa, 0xa9, 0xa9,
    0x9b, 0xac, 0x9b, 0xa9, 0xab, 0xcc, 0xbb, 0xbb, 0xbb, 0xaa,
    0xab, 0xcd, 0xda, 0x99, 0xbb, 0xbc, 0xa9, 0xaa, 0xbb, 0xab,
    0xac, 0xcd, 0xbb, 0xaa, 0xbc, 0xed, 0xda, 0xaa, 0xaa, 0x99,
    0xaa, 0xbb, 0xab, 0xab, 0xbb, 0xcb, 0xcd, 0xbb, 0xba, 0xee,
    0xca, 0xcb, 0xbb, 0xab, 0xbb, 0xbb, 0xac, 0xbb, 0xaa, 0xcb,
    0xbc, 0xaa, 0xba, 0xbd, 0xdc, 0xdc, 0xba, 0xba, 0xba, 0xb9,
    0xab, 0xbb, 0xaa, 0x9c, 0xcb, 0xbc, 0xba, 0xac, 0xdc, 0xcc,
    0xbb, 0xbb, 0xca, 0xba, 0xaa, 0xbb, 0xba, 0xbb, 0xcb, 0xac,
    0xbb, 0xac, 0xcc, 0xac, 0xcc, 0xac, 0xcb, 0xbb, 0xac, 0xab,
    0xbb, 0xca, 0x99, 0xaa, 0xaa, 0xac, 0xbb, 0xbc, 0xbd, 0xca,
    0xaa, 0x9a, 0xa9, 0xba, 0xcb, 0xab, 0xa9, 0xbb, 0xaa, 0xcb,
    0xab, 0xbc, 0xbb, 0xba, 0xaa, 0xbd, 0xcc, 0xcc, 0xa9, 0x99,
    0xa9, 0xba, 0xba, 0xac, 0xaa, 0xca, 0xac, 0xbc, 0xcc, 0xcc,
    0xca, 0xaa, 0xcc, 0xbb, 0xab, 0xaa, 0xcb, 0xaa, 0xbc, 0xba,
    0xaa, 0xbb, 0xbc, 0xba, 0xaa, 0xbc, 0xcb, 0xab, 0xba, 0xbb,
    0xcb, 0xba, 0xac, 0xba, 0xba, 0xaa, 0xac, 0xba, 0xbb, 0xab,
    0xbb, 0xbb, 0xbb, 0xab, 0xbb, 0xbb, 0xab, 0xba, 0xaa, 0xaa,
    0xbb, 0xcb, 0xbc, 0xab, 0xab, 0xaa, 0xbb, 0xab, 0xac, 0xaa,
    0xb9, 0xaa, 0x99, 0x9a, 0xcc, 0xdc, 0xbb, 0xab, 0xaa, 0xab,
    0xaa, 0xaa, 0xbc, 0xaa, 0xa9, 0xaa, 0x8a, 0x9a, 0xaa, 0xba,
    0xaa, 0xbb, 0xaa, 0xab, 0xaa, 0xab, 0xba, 0x99, 0xa9, 0x9a,
    0xbb, 0xaa, 0xba, 0xcb, 0xab, 0x9c, 0xab, 0xc9, 0xaa, 0xbc,
    0xaa, 0x9a, 0x9a, 0xbb, 0xaa, 0x9a, 0xaa, 0xca, 0xbb, 0x9a,
    0x99, 0xa9, 0xca, 0xaa, 0xaa, 0x9a, 0x9a, 0x99, 0x9b, 0xba,
    0x9b, 0xbc, 0xba, 0xaa, 0xaa, 0xbb, 0xaa, 0xab, 0xa9, 0x9a,
    0x99, 0x98, 0x99, 0xab, 0x9a, 0xdc, 0xca, 0xac, 0xaa, 0xba,
    0x98, 0xba, 0xcb, 0x99, 0xa9, 0xaa, 0x9b, 0x9a, 0xa9, 0xad,
    0xdb, 0xcb, 0xab, 0xcc, 0x87, 0xaa, 0xbb, 0xba, 0xaa, 0xac,
    0xbc, 0xaa, 0x9a, 0xac, 0xdd, 0xcc, 0xcb, 0xdc, 0x98, 0x9b,
    0xaa, 0xac, 0xbc, 0xcc, 0xcb, 0xcb, 0xca, 0xab, 0xdd, 0xeb,
    0xac, 0xcb, 0x99, 0xbb, 0xc9, 0xbb, 0xcb, 0xca, 0xcb, 0xcb,
    0xab, 0x9a, 0xbc, 0xda, 0xbc, 0xcb, 0x98, 0xbb, 0xaa, 0x9c,
    0xdc, 0xbc, 0xbc, 0xa9, 0xca, 0xaa, 0xbd, 0xdd, 0xcc, 0xcb,
    0x9a, 0xba, 0xbb, 0xac, 0xbc, 0xab, 0xbb, 0xac, 0xb9, 0x9b,
    0xdd, 0xcd, 0xcb, 0xc9, 0x88, 0xbc, 0xab, 0xac, 0xbb, 0xcb,
    0xbb, 0x99, 0x99, 0x8a, 0xcc, 0xdc, 0xba, 0x98, 0x78, 0xba,
    0xaa, 0x9c, 0xba, 0xcc, 0xac, 0x9a, 0x98, 0x9c, 0xec, 0xcc,
    0x99, 0x77, 0x68, 0xaa, 0xaa, 0x9b, 0xbb, 0xba, 0xa9, 0xab,
    0xba, 0x9d, 0xcd, 0xb8, 0x77, 0x67, 0x68, 0x9b, 0xa9, 0x8b,
    0xba, 0xaa, 0xab, 0xaa, 0xbb, 0xcc, 0xba, 0x98, 0x87, 0x78,
    0x98, 0xaa, 0xca, 0x9a, 0xba, 0xaa, 0xac, 0xba, 0xba, 0xbb,
    0xaa, 0x99, 0xaa, 0xac, 0xca, 0xac, 0xbb, 0x99, 0xba, 0xab,
    0xbb, 0xcb, 0xbc, 0xbb, 0xaa, 0xba, 0xcb, 0xbd, 0xe9, 0xbc,
    0xaa, 0xa9, 0xb9, 0xaa, 0xba, 0xb9, 0xab, 0xbb, 0xbb, 0xcb,
    0xac, 0xdc, 0xc9, 0xaa, 0xb9, 0xbb, 0xaa, 0xbc, 0xba, 0x9b,
    0x9c, 0xbb, 0xcc, 0xcd, 0xbb, 0xcc, 0xba, 0xab, 0xab, 0xad,
    0xb9, 0xab, 0xca, 0xbb, 0xba, 0xbc, 0xbc, 0xcb, 0xcd, 0xbb,
    0xb9, 0xaa, 0xab, 0xbc, 0xdb, 0xca, 0xab, 0xca, 0xbb, 0x9a,
    0xba, 0xbc, 0xcb, 0xcb, 0xdb, 0xbc, 0xaa, 0xbc, 0xbb, 0xda,
    0x9a, 0xba, 0xbb, 0xc9, 0xaa, 0xab, 0xcd, 0xdc, 0xdb, 0xab,
    0xcb, 0xab, 0xbb, 0xba, 0x8a, 0xcc, 0xac, 0xba, 0xa9, 0xbb,
    0x9a, 0xaa, 0xba, 0xaa, 0xba, 0xbb, 0x9b, 0xab, 0xaa, 0xc9,
    0xcb, 0xbb, 0xaa, 0xbb, 0xbc, 0xbb, 0xba, 0xab, 0xbc, 0xaa,
    0xba, 0xcb, 0xaa, 0xba, 0xaa, 0xab, 0xab, 0xbc, 0xac, 0xab,
    0xbb, 0xaa, 0xac, 0xbb, 0xab, 0xcb, 0xab, 0xbc, 0xab, 0xba,
    0xaa, 0xab, 0xba, 0xbc, 0xbb, 0xab, 0xca, 0xab, 0xac, 0xab,
    0xba, 0xaa, 0x9a, 0xaa, 0x9b, 0xab, 0x9b, 0xba, 0xa9, 0xba,
    0xcc, 0xba, 0xb9, 0x9a, 0x9a, 0xa9, 0xba, 0xcc, 0xcc, 0x99,
    0xab, 0xb9, 0x99, 0xba, 0xbc, 0x9a, 0x99, 0x89, 0xb9, 0xaa,
    0xca, 0xab, 0xcb, 0xaa, 0xbb, 0xba, 0xb9, 0xba, 0xbb, 0x9a,
    0x99, 0x9c, 0xbb, 0xcb, 0xb9, 0xbb, 0xbb, 0xa9, 0xab, 0xca,
    0xb9, 0xaa, 0x9a, 0x9a, 0xaa, 0xaa, 0xbb, 0xb9, 0xba, 0xb9,
    0xa9, 0x9a, 0x9b, 0xaa, 0xcb, 0xbc, 0xaa, 0x9b, 0xbb, 0xba,
    0xab, 0xaa, 0xbb, 0xaa, 0xab, 0xcb, 0xba, 0xbc, 0xcb, 0xbb,
    0xba, 0x9c, 0xbc, 0xbb, 0xbb, 0xbc, 0xba, 0xba, 0xaa, 0xac,
    0xbb, 0xbb, 0xbc, 0xba, 0xaa, 0xaa, 0xcb, 0x9a, 0x9a, 0xca,
    0xab, 0xba, 0xcb, 0xbb, 0xab, 0x9b, 0xbb, 0xbc, 0xba, 0x9a,
    0xcc, 0xaa, 0xaa, 0xbb, 0xbb, 0xaa, 0xaa, 0xbb, 0xcc, 0xba,
    0x9b, 0xab, 0xca, 0xaa, 0xaa, 0xaa, 0xa9, 0x9a, 0xca, 0xbb,
    0xba, 0xac, 0xbc, 0xab, 0xab, 0xba, 0xcb, 0xbb, 0xcb, 0xb9,
    0xba, 0xcb, 0x9b, 0xab, 0xb9, 0xaa, 0xaa, 0xab, 0xab, 0xba,
    0xaa, 0xcd, 0xca, 0xbb, 0xa9, 0xab, 0xb9, 0xac, 0xba, 0xaa,
    0xbb, 0xac, 0xcb, 0xaa, 0xaa, 0xde, 0xdb, 0xab, 0xb9, 0xca,
    0xba, 0xaa, 0xbb, 0xc9, 0xab, 0xac, 0xaa, 0xaa, 0xba, 0xcc,
    0xcb, 0xcb, 0xba, 0xa9, 0xbb, 0xb9, 0xcc, 0xbc, 0xbb, 0xbc,
    0xaa, 0xba, 0xbb, 0xaa, 0x9a, 0x9a, 0xbb, 0xbb, 0xbb, 0xbb,
    0xbb, 0xbb, 0xaa, 0xab, 0xb9, 0x9a, 0xbb, 0x9a, 0xba, 0xcc,
    0xbb, 0xbb, 0xbb, 0xab, 0xcd, 0xcc, 0xca, 0xbb, 0xa9, 0xba,
    0xbb, 0x99, 0xbc, 0xdc, 0xdc, 0xcb, 0xcb, 0xbc, 0xdb, 0xcc,
    0xcb, 0xac, 0x98, 0xba, 0xc9, 0x98, 0xaa, 0xdb, 0xdd, 0xcc,
    0xcb, 0xcb, 0xbb, 0xcc, 0xcb, 0xbb, 0x99, 0xab, 0xbb, 0x87,
    0x78, 0x99, 0xbb, 0xab, 0xdc, 0xdb, 0xbb, 0xcc, 0xbb, 0xd9,
    0x98, 0xbb, 0xaa, 0x86, 0x56, 0x68, 0x9a, 0xaa, 0xcc, 0xcd,
    0xda, 0xcb, 0x9b, 0xaa, 0xa9, 0xab, 0xca, 0xa7, 0x65, 0x56,
    0x89, 0xa9, 0xad, 0xca, 0xbb, 0xcc, 0xdc, 0xcb, 0x9a, 0xba,
    0xbb, 0x98, 0x77, 0x55, 0x79, 0xaa, 0xcc, 0xdd, 0xcc, 0xda,
    0xbd, 0xda, 0xa9, 0xba, 0xcb, 0x99, 0x87, 0x65, 0x56, 0x8a,
    0xcc, 0xce, 0xec, 0xcc, 0xdd, 0xca, 0x99, 0x9c, 0xba, 0xaa,
    0x89, 0x87, 0x64, 0x69, 0xdd, 0xef, 0xdc, 0xed, 0xcc, 0xba,
    0x9a, 0xbb, 0xbc, 0xaa, 0xa8, 0x87, 0x76, 0x79, 0xee, 0xee,
    0xcc, 0xcc, 0xcb, 0x9a, 0x9a, 0xbc, 0xbb, 0xcb, 0xab, 0xcb,
    0xa9, 0xba, 0xab, 0xcb, 0xaa, 0xbc, 0xaa, 0xaa, 0xba, 0xca,
    0xca, 0xbc, 0xaa, 0xab, 0xcb, 0xab, 0xca, 0xbc, 0xbb, 0xaa,
    0xcb, 0xbb, 0xca, 0xaa, 0xba, 0xba, 0xaa, 0xac, 0xaa, 0xaa,
    0xcb, 0xaa, 0xbb, 0xbc, 0xcb, 0xaa, 0xcc, 0xcc, 0xba, 0xac,
    0xba, 0xac, 0xba, 0xbb, 0xcd, 0xcc, 0xdd, 0xbb, 0xca, 0xbb,
    0xaa, 0xbb, 0xab, 0xbb, 0x99, 0xaa, 0xab, 0xbd, 0xff, 0xfd,
    0xdd, 0xcd, 0xca, 0xca, 0x99, 0xac, 0xac, 0xaa, 0x9a, 0xab,
    0xab, 0xce, 0xde, 0xdc, 0xdc, 0xcd, 0xdb, 0xca, 0xa9, 0xbb,
    0xca, 0xab, 0xa9, 0xaa, 0xaa, 0xbb, 0xbd, 0xef, 0xed, 0xbb,
    0xcc, 0xab, 0xb9, 0x9c, 0xaa, 0xbc, 0xaa, 0xba, 0xa9, 0x99,
    0xac, 0xcd, 0xfd, 0xda, 0xcb, 0xbc, 0xa9, 0xbb, 0xbb, 0xbb,
    0xcb, 0xbc, 0xb9, 0x98, 0xa9, 0xbc, 0xde, 0xdd, 0xca, 0xbb,
    0xa9, 0xbb, 0xca, 0xbc, 0xdd, 0xcd, 0x9a, 0x98, 0x99, 0x9a,
    0xbd, 0xde, 0xbb, 0xcc, 0xaa, 0x9b, 0xca, 0xad, 0xca, 0xbc,
    0xba, 0xaa, 0x99, 0x87, 0x9e, 0xde, 0xcc, 0xdb, 0xba, 0xcb,
    0xaa, 0xcd, 0xcc, 0xac, 0xdc, 0xaa, 0x99, 0x88, 0x8a, 0xbd,
    0xec, 0xcd, 0xdc, 0xcb, 0xaa, 0xad, 0xcb, 0xcd, 0xdd, 0xec,
    0xb9, 0x98, 0x79, 0xab, 0xcd, 0xec, 0xdd, 0xcb, 0xab, 0xa9,
    0xaa, 0xba, 0xcb, 0xbc, 0xba, 0x98, 0x78, 0x89, 0x9b, 0xed,
    0xee, 0xca, 0xac, 0x98, 0x89, 0xaa, 0xab, 0xcc, 0xdb, 0xb9,
    0x88, 0x8a, 0x9a, 0xcc, 0xed, 0xcb, 0xb9, 0x98, 0x99, 0x99,
    0xab, 0xcc, 0xbb, 0xca, 0x98, 0x88, 0x9a, 0xad, 0xed, 0xbc,
    0xab, 0x99, 0x99, 0xaa, 0xbc, 0xcb, 0xbc, 0xcc, 0xaa, 0x98,
    0x99, 0xbd, 0xdd, 0xcb, 0xac, 0x98, 0x9a, 0x99, 0xbc, 0xbc,
    0xcd, 0xbb, 0xa9, 0xa9, 0x99, 0xab, 0xcb, 0xba, 0xbb, 0xba,
    0xb9, 0xa9, 0xa9, 0xbc, 0xbb, 0xcb, 0xcc, 0xca, 0x98, 0x99,
    0xab, 0xcc, 0xbc, 0xcd, 0xcc, 0xca, 0xbb, 0xbc, 0xba, 0xcc,
    0xcc, 0xcc, 0xa8, 0x9a, 0x9a, 0xba, 0xac, 0xec, 0xab, 0xaa,
    0xba, 0xbc, 0xcc, 0xdc, 0xcc, 0xbc, 0xba, 0x98, 0x98, 0xac,
    0x9a, 0xdc, 0xaa, 0x9a, 0x9b, 0xbb, 0xbb, 0xdc, 0xbb, 0xbb,
    0xbb, 0x88, 0x89, 0x9b, 0xc9, 0x9a, 0xcc, 0xbb, 0xba, 0xbc,
    0xac, 0xbe, 0xcb, 0xbc, 0xba, 0x88, 0x89, 0xaa, 0xaa, 0x9b,
    0xcb, 0xba, 0xaa, 0xaa, 0xba, 0xaa, 0xca, 0xaa, 0xaa, 0xa9,
    0xaa, 0xab, 0xab, 0x9a, 0xaa, 0xaa, 0xa9, 0xa9, 0x9b, 0xba,
    0xaa, 0xa9, 0xaa, 0xac, 0xbb, 0xba, 0xcb, 0x8a, 0xcc, 0xab,
    0xcb, 0xab, 0xba, 0xa9, 0x98, 0x88, 0x99, 0x9b, 0xbc, 0xbb,
    0xba, 0x89, 0x9b, 0xba, 0xbb, 0xb9, 0xa9, 0x9b, 0xa9, 0xbb,
    0xab, 0xac, 0xba, 0xac, 0xac, 0x99, 0x89, 0x98, 0x89, 0x9a,
    0xa9, 0xa9, 0x9b, 0xbc, 0xba, 0xba, 0xab, 0xab, 0xba, 0xbb,
    0xb9, 0xba, 0x9a, 0xca, 0xac, 0xaa, 0xa9, 0xaa, 0xbb, 0xaa,
    0xca, 0xaa, 0xca, 0xaa, 0xaa, 0xba, 0xca, 0xcb, 0xcc, 0xaa,
    0xaa, 0xca, 0xbb, 0xbc, 0xbc, 0xba, 0xbc, 0xac, 0xaa, 0xac,
    0xaa, 0xcb, 0xaa, 0xba, 0xab, 0xbb, 0xaa, 0xaa, 0xab, 0xba,
    0xbb, 0xac, 0xba, 0xbb, 0xbb, 0xbc, 0xab, 0xab, 0xca, 0xac,
    0xab, 0xbb, 0xaa, 0xca, 0xcc, 0xcb, 0xa9, 0xaa, 0x9a, 0xaa,
    0xbb, 0xcd, 0xcb, 0xcc, 0xaa, 0xba, 0xba, 0xba, 0xba, 0xab,
    0xad, 0xac, 0xbc, 0xaa, 0xba, 0xbb, 0x9a, 0x99, 0xbc, 0xbb,
    0xdb, 0x9b, 0xcb, 0xab, 0xcc, 0xcc, 0xbb, 0xa9, 0xba, 0xa9,
    0xaa, 0xcb, 0xcc, 0xcb, 0xc9, 0x9c, 0xba, 0xab, 0xcd, 0xcb,
    0xab, 0xaa, 0xbb, 0xaa, 0xbb, 0xcc, 0xbb, 0xbc, 0xba, 0xaa,
    0xbb, 0x8a, 0xdd, 0xcb, 0x9a, 0x9a, 0xbc, 0xad, 0xda, 0xcc,
    0xab, 0xdc, 0xcb, 0x9c, 0xcb, 0x9a, 0xcd, 0xdd, 0xca, 0xa9,
    0x9b, 0xbb, 0xba, 0xba, 0xad, 0xdc, 0xca, 0xca, 0xcb, 0x8b,
    0xcd, 0xcb, 0xdb, 0xa9, 0x9a, 0xbc, 0xbb, 0xba, 0xbb, 0xbb,
    0xaa, 0xab, 0xbb, 0x9a, 0xbc, 0xcc, 0xbb, 0xb9, 0x99, 0xbb,
    0xad, 0xcb, 0xbb, 0xca, 0x9a, 0xab, 0xbb, 0x9b, 0xcb, 0xac,
    0xcd, 0xcb, 0x98, 0xa9, 0xaa, 0xac, 0xcb, 0xba, 0xcb, 0xab,
    0xab, 0x89, 0xbb, 0xbc, 0xdd, 0xdc, 0xb8, 0x99, 0xa9, 0xab,
    0xcb, 0xbd, 0xba, 0xab, 0xba, 0x99, 0xbb, 0xbb, 0xdd, 0xce,
    0xba, 0x9a, 0x99, 0xba, 0xcc, 0xad, 0xdb, 0x9b, 0xba, 0x99,
    0xab, 0xab, 0xcd, 0xcc, 0xca, 0xa9, 0x9b, 0xbb, 0xba, 0x9b,
    0xca, 0xab, 0xb9, 0x8a, 0xad, 0xde, 0xcc, 0xbc, 0xab, 0xba,
    0xbb, 0xca, 0xaa, 0xaa, 0xc9, 0xaa, 0xa9, 0x98, 0xcc, 0xdd,
    0xec, 0xcc, 0xba, 0xca, 0xbb, 0xba, 0xba, 0xba, 0x99, 0xaa,
    0xb9, 0x97, 0x9a, 0xdd, 0xdc, 0xca, 0xba, 0xba, 0xab, 0xaa,
    0xbb, 0xcc, 0xa8, 0xaa, 0xba, 0x98, 0x67, 0x88, 0x99, 0xaa,
    0xba, 0xbb, 0xab, 0xca, 0xbc, 0xaa, 0x9a, 0xbb, 0xaa, 0x87,
    0x55, 0x44, 0x66, 0x89, 0xac, 0xcc, 0xab, 0xcb, 0xa9, 0xab,
    0xa8, 0xba, 0xcb, 0x98, 0x66, 0x67, 0x77, 0x8a, 0xbc, 0xab,
    0xab, 0xab, 0xab, 0x9a, 0xa9, 0xab, 0xab, 0x98, 0x89, 0x89,
    0xb9, 0x9b, 0xbc, 0xbb, 0xaa, 0xa9, 0x9b, 0xa9, 0xa9, 0x9b,
    0xbb, 0x99, 0xa9, 0xcc, 0xbd, 0xcd, 0xab, 0xaa, 0xaa, 0xaa,
    0xaa, 0x8a, 0xa9, 0xaa, 0xaa, 0xaa, 0xba, 0xcc, 0xbd, 0xdc,
    0xbc, 0xbb, 0xbc, 0xbb, 0xaa, 0x99, 0x9a, 0xaa, 0xcb, 0xab,
    0xcb, 0xbc, 0xcc, 0xdd, 0xcb, 0xcb, 0xbc, 0xaa, 0xa9, 0xaa,
    0xab, 0xcb, 0xcc, 0xbc, 0xbd, 0xab, 0xac, 0xcb, 0xaa, 0xbb,
    0xca, 0xcc, 0xdb, 0xba, 0xab, 0xba, 0xbc, 0xbc, 0xcc, 0xb9,
    0xa9, 0x9a, 0xbc, 0xcb, 0xcc, 0xbc, 0xca, 0x99, 0xaa, 0xaa,
    0xab, 0xba, 0xba, 0xca, 0xa9, 0xaa, 0x9a, 0xba, 0xca, 0xaa,
    0xaa, 0xbb, 0xbb, 0xca, 0xaa, 0xaa, 0xaa, 0xaa, 0xab, 0xac,
    0xca, 0xaa, 0xcb, 0xab, 0xba, 0xbc, 0xcb, 0xac, 0xcc, 0xbb,
    0xaa, 0xcc, 0xcb, 0xba, 0xac, 0xaa, 0xac, 0xcb, 0xba, 0xba,
    0xbb, 0xaa, 0xaa, 0xba, 0xac, 0xba, 0xbb, 0xbb, 0xbb, 0xba,
    0xaa, 0xac, 0xbb, 0xbc, 0xaa, 0xca, 0xba, 0xac, 0x98, 0x89,
    0x89, 0x9a, 0x89, 0x9a, 0xbb, 0xb9, 0x9a, 0xbc, 0xbb, 0xaa,
    0xcc, 0xb9, 0xa9, 0x88, 0x89, 0x99, 0xa9, 0x89, 0x89, 0x99,
    0x98, 0x9a, 0xab, 0xaa, 0xab, 0xb9, 0xaa, 0x98, 0x98, 0x98,
    0x99, 0x98, 0x89, 0x88, 0x88, 0x89, 0x99, 0xaa, 0xba, 0xa9,
    0xab, 0xb9, 0x88, 0x98, 0x98, 0x99, 0x88, 0x99, 0x88, 0x9a,
    0xab, 0xab, 0xaa, 0xac, 0xba, 0xbb, 0xa9, 0x99, 0x9a, 0xa9,
    0x9a, 0x89, 0x99, 0x9b, 0x9b, 0xca, 0xbb, 0xbb, 0xba, 0xab,
    0xbd, 0xcd, 0xcb, 0xcb, 0xab, 0xbc, 0xba, 0x9a, 0xac, 0xaa,
    0xca, 0xba, 0xca, 0xbb, 0xcc, 0xcc, 0xdd, 0xde, 0xdc, 0xdb,
    0xdd, 0xc9, 0xaa, 0xab, 0xba, 0xbb, 0xba, 0xac, 0xdd, 0xce,
    0xde, 0xef, 0xdd, 0xcc, 0xdc, 0xda, 0xbb, 0xaa, 0xbb, 0xb9,
    0xab, 0xdc, 0xca, 0xbb, 0xdd, 0xcd, 0xdd, 0xcd, 0xcd, 0xbb,
    0xdb, 0xac, 0xbb, 0x99, 0xbc, 0xcb, 0xcc, 0xbc, 0xdd, 0xdc,
    0xdd, 0xcc, 0xdb, 0xab, 0xbd, 0xbc, 0xcb, 0xb9, 0xcb, 0xba,
    0xdc, 0xca, 0xaa, 0xba, 0xbb, 0xdc, 0xbb, 0xbc, 0xcd, 0xbb,
    0xca, 0xab, 0xaa, 0x9b, 0xaa, 0xa9, 0xab, 0x9a, 0x99, 0xaa,
    0x9a, 0xac, 0xba, 0xab, 0xab, 0xbb, 0x9a, 0xbb, 0x9a, 0xc9,
    0xba, 0xba, 0x99, 0x9a, 0x9a, 0xcb, 0xab, 0xca, 0xbb, 0xbb,
    0xb9, 0xaa, 0xab, 0xaa, 0xba, 0x9a, 0xa9, 0xab, 0xab, 0xbb,
    0x9b, 0xcb, 0xbc, 0xcc, 0xba, 0xab, 0xba, 0x99, 0xab, 0xba,
    0xaa, 0xcb, 0xba, 0xca, 0xac, 0xca, 0xcb, 0xbb, 0xbb, 0xbc,
    0xab, 0xa9, 0xca, 0xaa, 0xac, 0xb9, 0xbb, 0xcb, 0xbc, 0xac,
    0xac, 0xcc, 0xab, 0xcc, 0xab, 0xba, 0xa9, 0xa9, 0xaa, 0xaa,
    0xaa, 0xca, 0xdc, 0xab, 0xaa, 0xaa, 0xab, 0xab, 0xbc, 0xbb,
    0x9a, 0xca, 0x9b, 0xcc, 0x9c, 0xaa, 0xad, 0xaa, 0xa9, 0x99,
    0xa9, 0xaa, 0x9a, 0xab, 0xaa, 0xb8, 0x9b, 0xba, 0xaa, 0xab,
    0xac, 0xaa, 0xa9, 0xa9, 0xa9, 0xab, 0xcc, 0xab, 0xba, 0xcc,
    0xab, 0xbc, 0xab, 0xad, 0xcb, 0xba, 0xab, 0xab, 0xbc, 0xbb,
    0xbb, 0xcb, 0xbb, 0xbb, 0xbc, 0xab, 0xaa, 0xbc, 0xab, 0xba,
    0xba, 0xac, 0xbb, 0xdb, 0xcc, 0xcb, 0xab, 0xca, 0xab, 0xab,
    0xcb, 0xcc, 0xaa, 0xba, 0xab, 0xbc, 0xbc, 0xbb, 0xab, 0xab,
    0xbb, 0xab, 0xdc, 0xaa, 0xab, 0xaa, 0x9a, 0xaa, 0xba, 0xbc,
    0xb9, 0xb9, 0xa9, 0xcc, 0xca, 0xba, 0xdb, 0xab, 0xbb, 0xab,
    0xac, 0xca, 0xba, 0xbc, 0xab, 0xbc, 0xba, 0xcb, 0xab, 0xac,
    0xca, 0xab, 0xca, 0xca, 0xbc, 0xba, 0xcc, 0xaa, 0xaa, 0xcb,
    0xba, 0xba, 0xbb, 0xca, 0xba, 0xac, 0xaa, 0xab, 0xbb, 0xab,
    0xaa, 0xab, 0xaa, 0xca, 0xab, 0xbb, 0xab, 0xcc, 0xab, 0xbb,
    0xac, 0xbb, 0xaa, 0xcb, 0xca, 0xab, 0xcc, 0xbb, 0xbc, 0xba,
    0xbc, 0xcc, 0xdc, 0xab, 0xcc, 0xba, 0x9a, 0xca, 0xac, 0xbb,
    0x99, 0xab, 0xcc, 0xdd, 0xcc, 0xdb, 0xbd, 0xcd, 0xdb, 0xbd,
    0xca, 0xbc, 0xbb, 0xb9, 0x9a, 0x9b, 0xdb, 0xcd, 0xcc, 0xbb,
    0xca, 0xbb, 0xaa, 0xac, 0xaa, 0xab, 0xab, 0x99, 0x9a, 0xbb,
    0xab, 0xcb, 0xdd, 0xcc, 0xca, 0xb9, 0xaa, 0xcb, 0xbb, 0xac,
    0xcb, 0x99, 0xab, 0xcc, 0xcb, 0xac, 0xbc, 0xcc, 0xdb, 0xcb,
    0xbb, 0xaa, 0xab, 0xab, 0xbb, 0x89, 0x9b, 0xcd, 0xac, 0xbb,
    0xbc, 0xbd, 0xbd, 0xcc, 0xcb, 0xba, 0xcc, 0xab, 0xab, 0x9a,
    0x9c, 0xda, 0xcc, 0xba, 0xba, 0xcb, 0xde, 0xee, 0xdc, 0xcc,
    0xbb, 0xba, 0xba, 0xab, 0xab, 0xcb, 0xcd, 0xaa, 0xa9, 0x9a,
    0xcb, 0xdc, 0xdd, 0xcb, 0xda, 0xbb, 0xcb, 0xa9, 0xab, 0xcc,
    0xcb, 0xbb, 0xab, 0xba, 0xca, 0xac, 0xcd, 0xcc, 0xdd, 0xbb,
    0xab, 0x9a, 0xaa, 0xbb, 0xab, 0xcc, 0xab, 0xcb, 0xba, 0xcb,
    0xbb, 0xcc, 0xdc, 0xcb, 0xb9, 0xb9, 0x9a, 0xca, 0xbc, 0xdc,
    0xda, 0xca, 0xaa, 0xdc, 0xbb, 0xbb, 0xcd, 0xaa, 0xca, 0xa9,
    0xbb, 0xaa, 0xbc, 0xec, 0xbb, 0xab, 0xab, 0xba, 0xbc, 0xbc,
    0xbc, 0xac, 0xcc, 0xba, 0x9a, 0xcc, 0xbc, 0xcc, 0xbc, 0xbc,
    0xab, 0xaa, 0xab, 0xaa, 0xcd, 0xcb, 0xba, 0xaa, 0xa9, 0xaa,
    0xac, 0xcc, 0xcb, 0xba, 0xbb, 0xba, 0xaa, 0xab, 0xdd, 0xac,
    0xbb, 0xab, 0xb9, 0x98, 0x9a, 0xdc, 0xdd, 0xba, 0xab, 0xcc,
    0xda, 0xac, 0xbd, 0xcb, 0xaa, 0xa9, 0xb8, 0x8a, 0x9a, 0x9b,
    0xed, 0xda, 0xab, 0xbc, 0xcc, 0xde, 0xcb, 0xca, 0xaa, 0x9b,
    0xaa, 0x98, 0x88, 0xaa, 0xee, 0xdd, 0xcc, 0xba, 0xac, 0xdd,
    0xdc, 0xbb, 0xba, 0x9d, 0xba, 0xa9, 0x87, 0x78, 0x9c, 0xdb,
    0xcb, 0xab, 0x9b, 0xcc, 0xda, 0xbc, 0xa9, 0x9b, 0xba, 0x9c,
    0xa9, 0x87, 0x78, 0x9a, 0xbb, 0x9c, 0xa9, 0x9b, 0xcb, 0xbb,
    0xb9, 0xab, 0x99, 0xbb, 0xbc, 0x88, 0x88, 0x89, 0xba, 0x9a,
    0xaa, 0xab, 0xcc, 0xaa, 0xaa, 0xa9, 0x99, 0xba, 0xbb, 0xa9,
    0xaa, 0x9a, 0xaa, 0xba, 0xba, 0x89, 0xac, 0xba, 0xb9, 0xbb,
    0x9a, 0x9b, 0xab, 0xab, 0xaa, 0x9a, 0x9a, 0xaa, 0xbb, 0x99,
    0xab, 0xba, 0xab, 0xba, 0x8a, 0xab, 0xba, 0x9b, 0xaa, 0xa9,
    0xaa, 0xa9, 0xaa, 0xa8, 0xac, 0xbb, 0xbb, 0xb9, 0x9a, 0xbb,
    0xba, 0x9c, 0xbb, 0xcb, 0xbb, 0xab, 0xac, 0xaa, 0xa9, 0xac,
    0xbb, 0xa9, 0xbb, 0xcb, 0xca, 0x99, 0xaa, 0xac, 0xbc, 0xdc,
    0xac, 0xaa, 0x9b, 0xba, 0xbb, 0xaa, 0xcc, 0xac, 0xaa, 0xbb,
    0xaa, 0xbc, 0xca, 0xba, 0xbb, 0x9a, 0xcb, 0xaa, 0xca, 0xbb,
    0xac, 0xaa, 0xca, 0xac, 0xcb, 0xaa, 0xbb, 0xaa, 0xba, 0xab,
    0xbc, 0xab, 0xaa, 0xac, 0xba, 0xac, 0xab, 0xba, 0xbc, 0xbb,
    0xba, 0xab, 0xab, 0xab, 0xab, 0xab, 0xbb, 0xaa, 0xba, 0xab,
    0xaa, 0xaa, 0xba, 0xbb, 0xca, 0xaa, 0xcc, 0xaa, 0xca, 0xab,
    0xba, 0xca, 0x9b, 0xa9, 0x88, 0xa9, 0x98, 0x78, 0x78, 0x9a,
    0x99, 0xa8, 0xaa, 0xba, 0xcc, 0xab, 0xba, 0x87, 0x76, 0x78,
    0x88, 0x77, 0x77, 0x98, 0x89, 0x99, 0x8a, 0xbc, 0xcb, 0xaa,
    0x99, 0x88, 0x87, 0x78, 0x88, 0x9a, 0x88, 0x98, 0x99, 0x99,
    0x9c, 0xcc, 0xab, 0xcb, 0xcc, 0xdc, 0xa8, 0x78, 0x89, 0xac,
    0xaa, 0x9b, 0x99, 0xab, 0xac, 0xab, 0xaa, 0xbb, 0xdb, 0xcc,
    0xea, 0x78, 0x89, 0x99, 0xa9, 0xaa, 0xab, 0x9c, 0xcd, 0xcb,
    0xbb, 0xcb, 0xcb, 0xdd, 0xcd, 0xa8, 0xa9, 0x99, 0x9a, 0xbb,
    0x9b, 0xbc, 0xbc, 0xca, 0xaa, 0xdc, 0xca, 0xbc, 0xcd, 0xba,
    0x9a, 0xba, 0xba, 0xbb, 0xa9, 0xad, 0xbc, 0xbb, 0xbb, 0xcb,
    0xba, 0xba, 0xbd, 0xca, 0x9a, 0xba, 0xaa, 0xbc, 0xa9, 0xba,
    0xab, 0xba, 0xcc, 0xcc, 0xba, 0xab, 0xbc, 0xcd, 0xcb, 0xcc,
    0xba, 0xab, 0xa9, 0xab, 0xab, 0xaa, 0xad, 0xaa, 0xac, 0xb9,
    0xcd, 0xdd, 0xbc, 0xdc, 0xba, 0x9b, 0xb9, 0xaa, 0xbc, 0xab,
    0xaa, 0xba, 0xba, 0x9a, 0xbd, 0xcb, 0xab, 0xbc, 0xcb, 0x99,
    0xbb, 0xcd, 0xda, 0xaa, 0xab, 0xba, 0xbb, 0xab, 0xbc, 0xcb,
    0xbd, 0xcc, 0xd9, 0x99, 0xaa, 0x9c, 0xbb, 0xcb, 0xab, 0xa9,
    0xba, 0xbb, 0xaa, 0xcb, 0xcd, 0xaa, 0xdb, 0x9a, 0xca, 0xad,
    0xcd, 0xcc, 0xcc, 0xaa, 0xca, 0xab, 0xaa, 0xbc, 0xbc, 0xbc,
    0xd9, 0x9a, 0x9a, 0xba, 0xad, 0xca, 0xbc, 0xad, 0xaa, 0xb9,
    0xbb, 0xcc, 0xdc, 0xcc, 0xc9, 0xab, 0xbb, 0xca, 0xad, 0xca,
    0xcd, 0xdb, 0xab, 0xca, 0xa9, 0xbd, 0xbc, 0xdd, 0xa9, 0xba,
    0xba, 0xcb, 0xcb, 0xaa, 0xcb, 0xdb, 0xad, 0xca, 0xbb, 0xcd,
    0xcd, 0xcc, 0xc9, 0xba, 0xbc, 0xcc, 0xcc, 0xab, 0xbc, 0xcb,
    0xac, 0xcc, 0xca, 0xcc, 0xbb, 0xcc, 0xba, 0xaa, 0xbc, 0xbb,
    0xcb, 0xbb, 0xaa, 0xbc, 0xbc, 0xcb, 0xcc, 0xdb, 0xbb, 0xaa,
    0xba, 0xab, 0xbc, 0xa9, 0xaa, 0xca, 0xab, 0xca, 0x99, 0x9a,
    0xb9, 0xa9, 0x99, 0x9a, 0xa9, 0xb9, 0xa9, 0xaa, 0xa9, 0xaa,
    0xcc, 0xba, 0xab, 0xa9, 0x98, 0xa9, 0xba, 0xb9, 0x89, 0x9a,
    0x99, 0x89, 0x9a, 0xbb, 0xab, 0xaa, 0xb9, 0x88, 0x98, 0xa9,
    0x9a, 0x98, 0x89, 0x88, 0x89, 0x88, 0xaa, 0xba, 0xaa, 0x9a,
    0x98, 0x98, 0x87, 0x88, 0x88, 0x88, 0x89, 0x99, 0xa8, 0x98,
    0xab, 0xaa, 0xbc, 0xaa, 0x9a, 0x9a, 0xa9, 0x87, 0x88, 0x99,
    0x9c, 0xbc, 0xbb, 0xaa, 0xba, 0xba, 0xaa, 0xaa, 0xba, 0xcb,
    0xab, 0xba, 0xab, 0xbc, 0xbc, 0xbc, 0xbb, 0xca, 0xab, 0xaa,
    0xca, 0xaa, 0xba, 0xca, 0xab, 0xaa, 0xba, 0xab, 0xcb, 0xaa,
    0xaa, 0xcb, 0xcc, 0xba, 0xbc, 0xbc, 0xcb, 0xca, 0xac, 0xaa,
    0xba, 0xba, 0xbc, 0xba, 0xba, 0xbc, 0xaa, 0xbb, 0xcb, 0xba,
    0xba, 0x9a, 0xbb, 0xaa, 0xaa, 0x9a, 0xaa, 0x9a, 0x9a, 0xac,
    0x9b, 0xcc, 0xaa, 0xab, 0xdd, 0xba, 0x98, 0xa9, 0xab, 0x9a,
    0xdc, 0x87, 0x67, 0x89, 0xaa, 0xbb, 0xbb, 0xbd, 0xed, 0xd9,
    0x88, 0x8a, 0xaa, 0xbc, 0xdd, 0x85, 0x57, 0x8a, 0xaa, 0x9b,
    0xab, 0xbc, 0xdb, 0xca, 0x98, 0x99, 0xa9, 0x9b, 0xcc, 0x85,
    0x68, 0xaa, 0x9a, 0xbc, 0xbb, 0xcb, 0xca, 0x99, 0x98, 0x9a,
    0x9a, 0xaa, 0xa9, 0x75, 0x79, 0xcb, 0xba, 0xbc, 0xaa, 0xcd,
    0xa9, 0xab, 0x99, 0x8a, 0x9b, 0xab, 0xb8, 0x65, 0x89, 0xbc,
    0xdb, 0xbc, 0xbb, 0xcd, 0xb9, 0x9a, 0x9a, 0x89, 0xac, 0xcc,
    0x97, 0x56, 0x8a, 0xcc, 0xbc, 0xaa, 0xbb, 0xcd, 0xdd, 0xbb,
    0xaa, 0x9a, 0xaa, 0xab, 0x87, 0x78, 0xbd, 0xcc, 0xcd, 0xaa,
    0xab, 0xdd, 0xdd, 0xbb, 0xbc, 0xbd, 0xab, 0xcb, 0x88, 0x8a,
    0xee, 0xec, 0xed, 0xab, 0xcc, 0xdb, 0xdb, 0xda, 0xbb, 0xac,
    0xdc, 0xb9, 0x99, 0xbe, 0xed, 0xcd, 0xcd, 0xca, 0xac, 0xca,
    0xbc, 0xbb, 0xba, 0xac, 0xcd, 0xaa, 0x9b, 0xcd, 0xcc, 0xac,
    0xab, 0xac, 0xaa, 0xca, 0xbb, 0x9a, 0xba, 0xbb, 0xbb, 0xba,
    0xa9, 0xcc, 0xcd, 0xca, 0xbc, 0xca, 0xba, 0xaa, 0xca, 0xaa,
    0xab, 0xca, 0xab, 0xba, 0xb9, 0xbb, 0xbc, 0xcc, 0xcc, 0xba,
    0xba, 0x89, 0x99, 0x9c, 0xab, 0xc9, 0xaa, 0xaa, 0xbc, 0xbc,
    0xab, 0xbb, 0xac, 0xba, 0xb9, 0x78, 0xac, 0xab, 0xcb, 0xcb,
    0xdb, 0xc9, 0xab, 0xcb, 0x9b, 0xbc, 0xdd, 0xab, 0xca, 0x89,
    0xbb, 0xaa, 0xbb, 0xaa, 0xdb, 0xa9, 0xca, 0xba, 0xaa, 0xca,
    0xcd, 0xcc, 0xab, 0xbb, 0xaa, 0xbb, 0x9a, 0xba, 0xbb, 0xab,
    0xab, 0xab, 0xbc, 0xba, 0xad, 0xbb, 0xbb, 0xda, 0xab, 0xba,
    0xba, 0xbc, 0x9b, 0x99, 0x9c, 0xa9, 0xab, 0xa9, 0xbd, 0xbc,
    0xcb, 0xda, 0xbb, 0xba, 0xab, 0xbc, 0xbc, 0xaa, 0xac, 0xbb,
    0xbb, 0xb9, 0xac, 0xba, 0xac, 0xdc, 0xab, 0xbb, 0xbc, 0xdb,
    0xbb, 0xab, 0xbb, 0xbb, 0xbb, 0xaa, 0xbc, 0xba, 0xab, 0xec,
    0xab, 0xcc, 0xbb, 0xca, 0xcb, 0xcb, 0x9c, 0xcc, 0xdc, 0xab,
    0xdc, 0xab, 0xab, 0xed, 0xbc, 0xcd, 0xce, 0xbb, 0xcc, 0xba,
    0xcc, 0xcd, 0xbc, 0xaa, 0xbb, 0xbc, 0xbb, 0xee, 0xcc, 0xbb,
    0xbd, 0xbc, 0xbb, 0xbb, 0xbc, 0xcc, 0xcb, 0xbb, 0xca, 0xbb,
    0xaa, 0xdd, 0xdb, 0xdc, 0xcc, 0xcd, 0xba, 0xcb, 0xdc, 0xba,
    0xcb, 0xbb, 0xda, 0xaa, 0xcb, 0xcc, 0xdb, 0xc9, 0xaa, 0xbb,
    0xbc, 0xcd, 0xcb, 0xbd, 0xbd, 0xcb, 0xcb, 0xba, 0xbb, 0xaa,
    0xca, 0xa9, 0xba, 0xac, 0xca, 0x9a, 0xba, 0xab, 0xbb, 0xbb,
    0xbc, 0xac, 0xbb, 0xbb, 0xab, 0xca, 0xab, 0xba, 0xba, 0xaa,
    0xba, 0xcb, 0xac, 0xbc, 0xbc, 0xaa, 0xab, 0xbb, 0xcb, 0xbc,
    0xbb, 0xca, 0xbb, 0xbb, 0xac, 0xbb, 0xbb, 0xba, 0xbb, 0xba,
    0xbb, 0xac, 0xac, 0x9c, 0xca, 0xaa, 0xbb, 0x99, 0xaa, 0xcc,
    0xba, 0xab, 0xab, 0xcc, 0xcb, 0xba, 0xba, 0x9c, 0xbc, 0xcb,
    0xba, 0x97, 0x67, 0xad, 0xed, 0xac, 0xca, 0xab, 0xcb, 0x9b,
    0xbb, 0xbb, 0xbc, 0xad, 0xcc, 0xb7, 0x58, 0xcd, 0xcc, 0xce,
    0xdc, 0xbb, 0xab, 0x9a, 0xcc, 0xba, 0xbb, 0xae, 0xbd, 0xb7,
    0x57, 0xee, 0xbc, 0xce, 0xdd, 0xcc, 0xbb, 0x9c, 0xbb, 0xcb,
    0xac, 0xcb, 0xcd, 0xb7, 0x69, 0xee, 0xcc, 0xcb, 0xb9, 0xab,
    0xab, 0xcb, 0xbb, 0xbb, 0xcc, 0xbc, 0xcc, 0xb6, 0x5a, 0xee,
    0xbc, 0xdc, 0xcb, 0x9a, 0xab, 0xbb, 0xaa, 0xcd, 0xbb, 0xca,
    0xcd, 0xa5, 0x6b, 0xee, 0xcd, 0xdc, 0xda, 0xbb, 0xab, 0xb9,
    0xac, 0xba, 0xbc, 0xcb, 0xde, 0x94, 0x6d, 0xdd, 0xdc, 0xcb,
    0xc9, 0xab, 0xbb, 0xbb, 0xca, 0x8c, 0xbc, 0xcc, 0xcc, 0x85,
    0x8c, 0xdc, 0xbd, 0xca, 0xcb, 0xab, 0xaa, 0xba, 0xbb, 0xaa,
    0xbb, 0xab, 0xda, 0x77, 0x9d, 0xdc, 0xcc, 0xbc, 0xba, 0xab,
    0xaa, 0xca, 0xbd, 0xbb, 0xac, 0xcc, 0xd9, 0x89, 0x9b, 0xca,
    0xcc, 0xbc, 0xaa, 0xab, 0xbb, 0xbb, 0xca, 0xbc, 0xbb, 0xca,
    0x98, 0x99, 0xbb, 0xcb, 0xdb, 0xbb, 0xab, 0xab, 0xaa, 0xba,
    0xac, 0xac, 0xab, 0xbb, 0xa9, 0x9a, 0xbc, 0xcc, 0xbc, 0xcb,
    0xaa, 0xab, 0xab, 0xaa, 0xab, 0xcb, 0xab, 0xa9, 0xa9, 0xba,
    0xbb, 0xbd, 0xba, 0xcb, 0xba, 0xcc, 0xaa, 0xab, 0xbb, 0xa9,
    0xaa, 0xba, 0x99, 0xbb, 0xab, 0xbc, 0xca, 0xac, 0xda, 0xba,
    0xaa, 0xcb, 0xab, 0x99, 0xaa, 0xaa, 0xba, 0x9b, 0xab, 0xbb,
    0xca, 0xab, 0xcc, 0xbc, 0xba, 0xba, 0xb9, 0xab, 0xba, 0xba,
    0x9b, 0xab, 0xbc, 0xba, 0xcc, 0xab, 0xbd, 0xac, 0xb9, 0xdb,
    0xb9, 0xbb, 0xaa, 0xab, 0xb9, 0xb9, 0xaa, 0xaa, 0xa9, 0x9a,
    0xab, 0xab, 0xba, 0xca, 0xca, 0xaa, 0x9a, 0xaa, 0xaa, 0x9a,
    0x99, 0x99, 0x99, 0xaa, 0xa9, 0xab, 0xba, 0xca, 0x9a, 0xb9,
    0xab, 0xa9, 0xb8, 0xaa, 0x89, 0x89, 0xaa, 0xaa, 0xa9, 0xac,
    0xc9, 0xba, 0xaa, 0xbc, 0xaa, 0xbc, 0xa9, 0xaa, 0xaa, 0xc9,
    0xba, 0x9a, 0xbc, 0xac, 0xba, 0xca, 0xaa, 0xba, 0xbb, 0xaa,
    0xbc, 0xbb, 0x99, 0xca, 0xaa, 0xba, 0xcb, 0xaa, 0xba, 0xbb,
    0xaa, 0x9a, 0xba, 0xab, 0xba, 0xab, 0xbb, 0x9a, 0xaa, 0xcd,
    0xcc, 0xab, 0xa9, 0xa9, 0xaa, 0xcb, 0xac, 0xba, 0xba, 0xbb,
    0xaa, 0xaa, 0xab, 0xca, 0xca, 0xab, 0xca, 0x99, 0x9a, 0xcd,
    0xbb, 0xdc, 0xaa, 0xaa, 0xcc, 0xaa, 0xab, 0xab, 0xcb, 0xba,
    0xba, 0xba, 0xa9, 0xcb, 0xbb, 0xca, 0xbc, 0xca, 0xba, 0xaa,
    0xba, 0x9a, 0xba, 0xac, 0xcc, 0xab, 0xbb, 0xab, 0xba, 0xcb,
    0xaa, 0xbb, 0xab, 0xba, 0xbc, 0xbb, 0xab, 0xcb, 0xaa, 0xbc,
    0xab, 0xab, 0xca, 0xba, 0xcb, 0xab, 0xba, 0xba, 0xcc, 0xaa,
    0xab, 0xbc, 0xaa, 0xbb, 0xab, 0xbb, 0xbb, 0xab, 0xaa, 0xba,
    0xab, 0xbc, 0xab, 0xbb, 0xbb, 0xba, 0xab, 0xbb, 0xab, 0xbb,
    0x99, 0x9b, 0x9a, 0x8a, 0x99, 0xab, 0xbb, 0xac, 0xa9, 0xac,
    0xab, 0xab, 0xab, 0xba, 0xa9, 0xaa, 0xba, 0x99, 0xab, 0x9b,
    0xbb, 0xac, 0xbc, 0xba, 0xaa, 0xba, 0xaa, 0xaa, 0xab, 0xcb,
    0x9a, 0xba, 0xbb, 0xaa, 0xab, 0xca, 0xcd, 0xbc, 0xa9, 0xac,
    0xaa, 0xbb, 0xab, 0xcb, 0xbb, 0x99, 0xab, 0xbb, 0xab, 0xbc,
    0xab, 0xbb, 0xba, 0xbc, 0xdc, 0xab, 0xbb, 0xab, 0x99, 0x9a,
    0xaa, 0xab, 0xac, 0xac, 0xbc, 0xba, 0xb9, 0xac, 0xcb, 0xbc,
    0xcc, 0xbc, 0xba, 0x88, 0x9d, 0xdd, 0xcd, 0xbc, 0xcc, 0xaa,
    0xaa, 0xad, 0xbd, 0xbd, 0xbd, 0xbb, 0xca, 0x87, 0x7c, 0xdd,
    0xdd, 0xdc, 0xcc, 0xbc, 0xc9, 0xbc, 0xca, 0xdd, 0xcc, 0xcb,
    0xb9, 0x86, 0x57, 0xdd, 0xdd, 0xbc, 0xbb, 0xbb, 0xba, 0xbc,
    0xbc, 0xcb, 0xbc, 0xac, 0xde, 0xa6, 0x44, 0x9b, 0xba, 0xcc,
    0xbb, 0xab, 0xca, 0xca, 0xcd, 0xba, 0xaa, 0xaa, 0xde, 0xe9,
    0x64, 0x8b, 0xa9, 0xac, 0xab, 0xca, 0xac, 0xba, 0xbb, 0xa9,
    0x9a, 0xbb, 0xde, 0xeb, 0x85, 0x8a, 0xab, 0xbd, 0xcc, 0xaa,
    0xaa, 0xba, 0xaa, 0x99, 0xab, 0xcb, 0xcc, 0xdb, 0x75, 0x8b,
    0xcc, 0xce, 0xec, 0xcb, 0xcb, 0xaa, 0x99, 0x99, 0xa9, 0xab,
    0xcc, 0xeb, 0x76, 0x8a, 0xdc, 0xbd, 0xcb, 0xbb, 0xba, 0xba,
    0xaa, 0x9b, 0xbb, 0xab, 0xdc, 0xda, 0x76, 0xad, 0xec, 0xcb,
    0xbb, 0xba, 0xac, 0xba, 0xba, 0xbb, 0xaa, 0xac, 0xcb, 0xc8,
    0x77, 0xbd, 0xdb, 0xbb, 0xaa, 0x9c, 0xab, 0xab, 0xac, 0xa9,
    0xaa, 0xac, 0xdb, 0x87, 0x9a, 0xcd, 0xba, 0xbc, 0xa9, 0xaa,
    0xac, 0xba, 0xa9, 0xaa, 0xbb, 0xa9, 0xaa, 0x89, 0xab, 0xec,
    0xbc, 0xbc, 0xba, 0xab, 0xaa, 0xba, 0xaa, 0xba, 0xaa, 0xa9,
    0xab, 0xaa, 0xbd, 0xbc, 0xca, 0xa9, 0xcb, 0xac, 0xbc, 0xba,
    0xba, 0xab, 0xaa, 0xac, 0xab, 0xbc, 0xcb, 0xbb, 0xbc, 0xbb,
    0xab, 0xaa, 0xaa, 0xdb, 0xaa, 0xaa, 0xbb, 0xbb, 0xba, 0xcb,
    0xbb, 0xbb, 0xbc, 0xca, 0xba, 0xbb, 0xab, 0xcb, 0xa9, 0xbc,
    0xbb, 0xbc, 0xab, 0xcb, 0xbd, 0xac, 0xcc, 0x9c, 0xaa, 0xbb,
    0xab, 0xab, 0xbb, 0xca, 0xcb, 0xbc, 0xdb, 0xac, 0xcc, 0xbc,
    0xcc, 0xcc, 0xab, 0xaa, 0xba, 0xbb, 0xcc, 0xbc, 0xab, 0xbc,
    0xc9, 0xba, 0xba, 0xbc, 0xbc, 0xcb, 0xaa, 0xcb, 0xcc, 0xbc,
    0xbb, 0xbb, 0xbc, 0xbc, 0xdd, 0xca, 0xba, 0xab, 0xbb, 0xaa,
    0xa9, 0xba, 0xba, 0xbb, 0xac, 0xcc, 0xab, 0xaa, 0xbc, 0xcb,
    0xca, 0xca, 0xba, 0xba, 0xbb, 0xcb, 0xac, 0xaa, 0xbc, 0xaa,
    0xaa, 0xaa, 0xbc, 0xac, 0xca, 0xba, 0xab, 0xbb, 0xbb, 0xcc,
    0xcb, 0xbb, 0xca, 0xab, 0xab, 0xab, 0xbc, 0xbb, 0xab, 0xca,
    0xbc, 0xba, 0xaa, 0xaa, 0xba, 0xca, 0xca, 0xcc, 0xcb, 0xcb,
    0xab, 0xcb, 0xca, 0xaa, 0xbb, 0xcb, 0xca, 0xca, 0xac, 0xbb,
    0xac, 0xdc, 0xbc, 0xcd, 0xcd, 0xcb, 0xcb, 0xcb, 0xcc, 0xcb,
    0xbc, 0xaa, 0xba, 0xab, 0xbb, 0xba, 0xba, 0xba, 0xaa, 0xaa,
    0xcb, 0xba, 0xaa, 0xaa, 0xba, 0xab, 0xaa, 0xcb, 0xba, 0xbb,
    0xab, 0xaa, 0xab, 0xab, 0x99, 0x99, 0xba, 0xab, 0xcb, 0xab,
    0xbc, 0xca, 0xbc, 0xbb, 0xab, 0xab, 0xbb, 0xbc, 0xbb, 0xba,
    0x9b, 0xb9, 0xab, 0xba, 0xcb, 0xdb, 0xab, 0xca, 0xac, 0xba,
    0xbb, 0xbc, 0xba, 0xa9, 0x9a, 0x99, 0xcd, 0xac, 0xbd, 0xca,
    0xaa, 0xbc, 0xaa, 0xab, 0xbb, 0xab, 0xb9, 0xaa, 0xac, 0xaa,
    0xcd, 0xba, 0xbc, 0xcb, 0x9b, 0xbb, 0xcc, 0xbc, 0xbb, 0xdb,
    0xba, 0xab, 0xbb, 0xaa, 0xae, 0xba, 0xca, 0xcb, 0xab, 0xbc,
    0xcb, 0xbb, 0xbd, 0xdb, 0xaa, 0x9c, 0xbc, 0xb9, 0x9e, 0xdb,
    0xcb, 0xaa, 0xcc, 0xab, 0xb9, 0xaa, 0xa9, 0xac, 0xb9, 0x9a,
    0xac, 0xba, 0xce, 0xcb, 0xaa, 0xaa, 0xba, 0xcb, 0xca, 0x98,
    0x9b, 0xcc, 0xaa, 0x8a, 0xaa, 0xcc, 0xbe, 0xca, 0xaa, 0xbd,
    0xda, 0xab, 0xca, 0x78, 0xbc, 0xcd, 0xbb, 0x9a, 0xbb, 0xb9,
    0xbd, 0xca, 0xbb, 0xcd, 0xbc, 0xbe, 0xc8, 0x79, 0xcd, 0xdd,
    0xba, 0x8a, 0xdb, 0xaa, 0xcb, 0xcb, 0xaa, 0xda, 0xcb, 0xce,
    0xb5, 0x5c, 0xec, 0xdc, 0xcc, 0x99, 0xcc, 0xcc, 0xbb, 0xbb,
    0xba, 0xca, 0xbb, 0xcf, 0xd4, 0x6c, 0xec, 0xdc, 0xdb, 0x99,
    0xca, 0xcb, 0xbc, 0xca, 0xbb, 0xec, 0xaa, 0xcf, 0xc3, 0x5e,
    0xde, 0xcc, 0xda, 0x99, 0xcc, 0xba, 0xcc, 0xca, 0xba, 0xd9,
    0xbb, 0xdf, 0x95, 0x5d, 0xde, 0xcb, 0xbb, 0xab, 0xbb, 0xcc,
    0xac, 0xcc, 0xba, 0xba, 0xbd, 0xcc, 0x97, 0x7a, 0xbc, 0xbc,
    0xab, 0xcb, 0xba, 0xbb, 0xad, 0xbc, 0xa9, 0xdc, 0xcb, 0xbb,
    0xa8, 0x88, 0xbb, 0xcc, 0xba, 0xba, 0xca, 0xca, 0xcb, 0xbc,
    0xbb, 0xdc, 0xbb, 0xcb, 0xc9, 0x99, 0xbc, 0xbd, 0xbb, 0xbb,
    0xba, 0xbb, 0xad, 0xbb, 0xaa, 0xdc, 0xaa, 0xac, 0xa8, 0x9a,
    0xac, 0xbd, 0xab, 0xcc, 0xab, 0xbb, 0xad, 0xac, 0xcb, 0xdc,
    0xcb, 0xba, 0xa9, 0x99, 0xbb, 0xcb, 0xbb, 0xbb, 0xbc, 0xbb,
    0xcc, 0xca, 0xcc, 0xcc, 0xba, 0xba, 0xaa, 0xaa, 0xba, 0xcb,
    0xba, 0xba, 0xa9, 0xab, 0xbb, 0xca, 0xac, 0xcb, 0xba, 0xbb,
    0x9a, 0xba, 0xbc, 0xca, 0xcc, 0xbb, 0xca, 0x9b, 0xbc, 0xca,
    0xbb, 0xab, 0xca, 0xbc, 0xaa, 0xaa, 0xdc, 0xcd, 0xcd, 0xdc,
    0xcc, 0xcd, 0xcb, 0xbb, 0xac, 0xbb, 0xcc, 0xba, 0xbc, 0xcb,
    0xaa, 0xab, 0xba, 0x9a, 0xac, 0xba, 0xca, 0xba, 0xab, 0xba,
    0xaa, 0xbb, 0xab, 0xbb, 0xab, 0xba, 0xca, 0xac, 0xbc, 0xba,
    0xca, 0xab, 0xca, 0xaa, 0xca, 0xbb, 0xaa, 0xba, 0xab, 0xba,
    0xca, 0xaa, 0xab, 0xbc, 0xab, 0xcb, 0xac, 0xbb, 0xbb, 0xbb,
    0xbb, 0xbc, 0xaa, 0xa9, 0xaa, 0xac, 0xbc, 0xba, 0xaa, 0xcb,
    0xba, 0xbb, 0xb9, 0x9a, 0x89, 0xba, 0xbc, 0xcc, 0xbc, 0xcc,
    0xbc, 0xa9, 0x9a, 0xab, 0xab, 0x9a, 0xa9, 0xaa, 0x99, 0x9a,
    0xcc, 0xcc, 0xdc, 0xdc, 0xcb, 0xab, 0xa9, 0xab, 0xa9, 0xa9,
    0x99, 0x89, 0x89, 0xaa, 0xba, 0xcd, 0xdd, 0xec, 0xda, 0xbc,
    0xa8, 0xaa, 0xb9, 0x99, 0x98, 0x99, 0xba, 0xac, 0xac, 0xbe,
    0xcc, 0xaa, 0xaa, 0xac, 0xb8, 0xbb, 0xa9, 0x89, 0x88, 0x8b,
    0xcb, 0xab, 0xcc, 0xef, 0xec, 0xab, 0xba, 0xcc, 0xc8, 0x9b,
    0xba, 0x99, 0x89, 0xba, 0xbc, 0xde, 0xdd, 0xee, 0xcb, 0xbd,
    0xbc, 0xcc, 0xa8, 0xac, 0x99, 0x88, 0x9a, 0xdd, 0xcd, 0xdd,
    0xbb, 0xb8, 0xac, 0xcd, 0xba, 0xcc, 0xb9, 0xab, 0xca, 0x89,
    0xbd, 0xcb, 0xdc, 0xac, 0x96, 0x57, 0xab, 0xbd, 0xcd, 0xcd,
    0xb8, 0x9a, 0xba, 0x88, 0xad, 0xb9, 0xa8, 0x76, 0x54, 0x79,
    0xbb, 0xdb, 0xdb, 0xdc, 0xba, 0xaa, 0xaa, 0x99, 0x9a, 0x88,
    0x87, 0x67, 0x8a, 0xed, 0xcc, 0xbb, 0xcc, 0xdc, 0x9a, 0xbb,
    0xca, 0x99, 0x88, 0x88, 0x78, 0x8a, 0xac, 0xdd, 0xab, 0xcb,
    0xbd, 0xab, 0x9a, 0xbc, 0xcb, 0xaa, 0x98, 0x98, 0x9a, 0xba,
    0xaa, 0xba, 0xbc, 0xcc, 0xbb, 0xa9, 0x99, 0xaa, 0xaa, 0xbc,
    0x99, 0x9a, 0xcc, 0xbb, 0x9b, 0xaa, 0xbb, 0xab, 0xb9, 0xc9,
    0x98, 0xac, 0xbb, 0xbb, 0xab, 0xaa, 0xba, 0xca, 0xbb, 0xbb,
    0x9c, 0xba, 0xab, 0xab, 0x99, 0x9a, 0xbc, 0xbb, 0xda, 0xbb,
    0xaa, 0xba, 0xcb, 0xab, 0xbb, 0xbb, 0xbb, 0xbb, 0x98, 0xbb,
    0xaa, 0xba, 0xca, 0xcb, 0xba, 0xac, 0xab, 0xa9, 0xab, 0xcc,
    0xba, 0xb9, 0x99, 0xaa, 0xbb, 0xaa, 0xc9, 0xaa, 0x99, 0xaa,
    0xba, 0xbc, 0xca, 0xa9, 0xaa, 0xa9, 0xa8, 0xba, 0xba, 0x9a,
    0xaa, 0xab, 0xa8, 0x9a, 0xba, 0xcb, 0xba, 0xaa, 0xba, 0xba,
    0xa9, 0x9c, 0xaa, 0xba, 0xbc, 0xba, 0x9a, 0xbb, 0xcb, 0xbc,
    0xab, 0xcc, 0xaa, 0xcd, 0xca, 0xbb, 0xbb, 0x9b, 0xcb, 0xcb,
    0xab, 0xba, 0x9a, 0xbb, 0xab, 0xbb, 0xa9, 0xcc, 0xaa, 0xba,
    0xab, 0x9c, 0xaa, 0xab, 0xba, 0xba, 0xbb, 0xbb, 0xab, 0xb9,
    0x9b, 0xcb, 0xcc, 0xbc, 0xbb, 0xa9, 0xba, 0xab, 0xba, 0xa9,
    0xba, 0xaa, 0xaa, 0xa9, 0xad, 0xcc, 0xcc, 0xbc, 0xbc, 0xa9,
    0x9a, 0xba, 0xcc, 0xcc, 0xbb, 0xab, 0xba, 0xba, 0xab, 0xba,
    0xbb, 0xac, 0xab, 0xab, 0x9b, 0xab, 0xac, 0xcb, 0xc9, 0xb9,
    0x99, 0x9a, 0x9a, 0x99, 0xbb, 0xbb, 0xcb, 0xaa, 0xbb, 0x9a,
    0xab, 0xaa, 0xb9, 0xaa, 0xaa, 0xaa, 0xca, 0xaa, 0xba, 0xca,
    0xbb, 0xbb, 0xcb, 0xaa, 0xbc, 0xac, 0xaa, 0xab, 0xbb, 0xaa,
    0xba, 0xaa, 0xbc, 0xba, 0xbb, 0xab, 0xaa, 0xbc, 0xbb, 0xbb,
    0xaa, 0xaa, 0xac, 0xbc, 0xab, 0xcc, 0xbb, 0xbb, 0xaa, 0xbc,
    0xbb, 0x9b, 0xac, 0xbb, 0xac, 0xcd, 0xdc, 0xcc, 0xab, 0xcb,
    0xca, 0xca, 0xcb, 0xba, 0xaa, 0x99, 0x98, 0x9a, 0xbc, 0xdc,
    0xcd, 0xdc, 0xda, 0xdc, 0xcc, 0xab, 0xab, 0xaa, 0x97, 0x89,
    0x89, 0x9b, 0xcc, 0xba, 0xaa, 0xbc, 0xdc, 0xcb, 0xdb, 0xba,
    0xab, 0xa9, 0x98, 0x78, 0xab, 0xcb, 0xbb, 0xbc, 0xdc, 0xbb,
    0xbc, 0xbb, 0xcc, 0xba, 0xaa, 0x99, 0x88, 0x89, 0xbc, 0xcc,
    0xcb, 0xce, 0xcc, 0xbd, 0xcc, 0xbb, 0xbc, 0xab, 0xab, 0xa8,
    0x88, 0xab, 0xcb, 0xcc, 0x9b, 0xcc, 0xca, 0xac, 0xcb, 0x9a,
    0xcd, 0xac, 0xab, 0xa7, 0x89, 0xbb, 0xcc, 0xbc, 0xcc, 0xcc,
    0xcc, 0xbc, 0xbc, 0xbb, 0xcb, 0xbb, 0xbb, 0x97, 0x9a, 0xba,
    0xcd, 0xcc, 0xdc, 0xcb, 0xbb, 0xcb, 0xbc, 0xaa, 0x9b, 0xbb,
    0xab, 0x98, 0x9c, 0xac, 0xca, 0xce, 0xdc, 0xac, 0xcb, 0xb9,
    0xaa, 0xab, 0x9b, 0xbc, 0xab, 0x99, 0x9a, 0xbb, 0xbd, 0xdd,
    0xdc, 0x9a, 0xbb, 0xcb, 0xb9, 0xba, 0xa9, 0x9a, 0xca, 0x9b,
    0xcc, 0xbd, 0xec, 0xda, 0xca, 0xbc, 0xba, 0xbb, 0xaa, 0xcb,
    0xa9, 0x9b, 0xbb, 0xbe, 0xcc, 0xdd, 0xcc, 0xa9, 0x9a, 0xaa,
    0xab, 0xbb, 0x9a, 0xab, 0xab, 0xab, 0xba, 0xee, 0xee, 0xeb,
    0x9a, 0x9a, 0xba, 0xba, 0xaa, 0x9b, 0xbb, 0xac, 0xbc, 0xac,
    0xad, 0xee, 0xdd, 0xcc, 0xba, 0xa9, 0xbb, 0xbb, 0xab, 0xac,
    0xba, 0xcb, 0xab, 0xaa, 0xab, 0xdd, 0xed, 0xcc, 0xca, 0x9b,
    0xab, 0xba, 0xaa, 0xab, 0xa9, 0xbb, 0xab, 0xca, 0xab, 0xcc,
    0xca, 0xcb, 0xcb, 0x99, 0xa9, 0xaa, 0xb9, 0xac, 0xbb, 0xca,
    0xac, 0xba, 0xaa, 0xab, 0xab, 0xab, 0xaa, 0xbb, 0xaa, 0xab,
    0xab, 0xba, 0xbc, 0xb9, 0xbc, 0xba, 0xba, 0x99, 0xa9, 0xaa,
    0xaa, 0xbb, 0xaa, 0xab, 0xaa, 0xba, 0xba, 0xbd, 0xcb, 0xab,
    0xaa, 0x9b, 0xa8, 0xa9, 0x9b, 0xb9, 0xbc, 0xab, 0xbc, 0xbb,
    0xba, 0x9a, 0xcb, 0xac, 0xab, 0xaa, 0xba, 0xb9, 0x99, 0x9b,
    0x9b, 0xba, 0xac, 0xab, 0xac, 0xab, 0xbb, 0xba, 0xba, 0xca,
    0x99, 0xca, 0xaa, 0xa9, 0xba, 0xaa, 0x9a, 0xaa, 0xbb, 0xcb,
    0xb9, 0xbb, 0xab, 0xaa, 0x9a, 0xab, 0xba, 0xba, 0x9a, 0xbb,
    0xab, 0x9b, 0xbb, 0xab, 0x9b, 0xbc, 0xcb, 0x9a, 0xba, 0xb9,
    0xaa, 0x9a, 0xba, 0xab, 0x9a, 0x9c, 0xba, 0xca, 0x99, 0xbb,
    0xca, 0xaa, 0xaa, 0xba, 0xab, 0xaa, 0x9c, 0xba, 0x9a, 0xab,
    0xcd, 0xca, 0xaa, 0xbb, 0xcb, 0xca, 0xc9, 0xac, 0xcc, 0xbb,
    0xbb, 0xab, 0xbb, 0xac, 0xac, 0xba, 0xa9, 0xaa, 0xaa, 0xa9,
    0xbc, 0xab, 0xac, 0xcb, 0xbb, 0xba, 0xaa, 0xb9, 0x9a, 0xba,
    0xba, 0xcb, 0xaa, 0xbc, 0xab, 0xaa, 0xba, 0xba, 0xba, 0xab,
    0xaa, 0xca, 0xab, 0xac, 0xaa, 0xba, 0xaa, 0xca, 0xab, 0xbc,
    0xac, 0xba, 0xac, 0xac, 0xab, 0xab, 0xab, 0xaa, 0xac, 0xab,
    0xcc, 0xab, 0xca, 0xbc, 0xaa, 0xcc, 0xaa, 0xba, 0xbb, 0xab,
    0xbc, 0xbb, 0xab, 0xbc, 0xba, 0xbb, 0xbb, 0xba, 0xaa, 0xaa,
    0xab, 0xaa, 0xbb, 0xbc, 0xcb, 0xbb, 0x99, 0xca, 0xbb, 0xb9,
    0xcc, 0xba, 0xbc, 0xbb, 0xca, 0xac, 0xbb, 0xbc, 0xbc, 0x9b,
    0x99, 0xab, 0xbc, 0x99, 0xcb, 0xab, 0xcb, 0xdb, 0xcb, 0xba,
    0xdb, 0xda, 0xab, 0xbb, 0x99, 0xbb, 0xab, 0x99, 0xbb, 0xca,
    0xab, 0xba, 0xbb, 0xcb, 0xbb, 0xbb, 0xab, 0xbc, 0xc8, 0xca,
    0xab, 0x9a, 0xb9, 0xaa, 0xab, 0x9a, 0xac, 0xcb, 0xbb, 0xbb,
    0xdb, 0xcb, 0xa8, 0x9b, 0xaa, 0xaa, 0xa9, 0xaa, 0xab, 0x9a,
    0xab, 0xab, 0xcc, 0xba, 0xba, 0xba, 0xa9, 0xaa, 0xaa, 0xab,
    0xaa, 0xba, 0x9a, 0xac, 0x9b, 0x9a, 0xce, 0xcc, 0xbb, 0xbb,
    0xb9, 0xaa, 0xab, 0xa9, 0xab, 0xaa, 0x9b, 0xb9, 0xa9, 0x88,
    0x9c, 0xbd, 0xdc, 0xcc, 0xa9, 0x9a, 0xcb, 0x99, 0xa9, 0x9b,
    0xbb, 0xaa, 0xca, 0x88, 0x8a, 0xdb, 0xcc, 0xdc, 0xc9, 0xbb,
    0xca, 0x89, 0xba, 0xbb, 0xab, 0xcc, 0xb9, 0x97, 0x79, 0xcc,
    0xcc, 0xcd, 0xa9, 0xbb, 0xab, 0x8a, 0xbd, 0xab, 0xca, 0xcb,
    0xbb, 0x97, 0x6a, 0xed, 0xcb, 0xdc, 0xcb, 0xba, 0xbb, 0x9b,
    0xac, 0xac, 0xcb, 0xba, 0xb9, 0xa7, 0x6b, 0xcc, 0xcb, 0xbb,
    0xea, 0x9a, 0xca, 0x9b, 0xac, 0xbb, 0xac, 0xba, 0xda, 0x85,
    0x7b, 0xcc, 0xcd, 0xdc, 0xba, 0xaa, 0xab, 0x9b, 0xbb, 0xbb,
    0xbb, 0xdd, 0xe8, 0x65, 0x9c, 0xad, 0xab, 0xbb, 0xbb, 0xbb,
    0xb9, 0xaa, 0xba, 0xbb, 0xcd, 0xcd, 0x96, 0x57, 0xab, 0xbc,
    0xaa, 0xcb, 0xab, 0xba, 0xab, 0x8b, 0xcd, 0xcc, 0xed, 0xea,
    0x76, 0x7a, 0xba, 0xcd, 0xbb, 0xaa, 0xbb, 0xac, 0xb9, 0x8b,
    0xec, 0xcc, 0xcb, 0xaa, 0x88, 0x9c, 0xab, 0xab, 0xbb, 0xab,
    0xba, 0xbc, 0xa9, 0x8b, 0xdb, 0xcc, 0xdc, 0xa9, 0x8a, 0xbb,
    0xac, 0xaa, 0xbb, 0xbb, 0xcb, 0xac, 0xaa, 0x8a, 0xca, 0xac,
    0xcb, 0x99, 0xaa, 0xbb, 0x9a, 0xcb, 0xaa, 0xab, 0xcb, 0xab,
    0xbb, 0x99, 0x9a, 0xaa, 0x99, 0xb9, 0xab, 0xaa, 0x9a, 0xbb,
    0xbb, 0xbb, 0xa8, 0xbb, 0xcc, 0xaa, 0xba, 0xb9, 0xbb, 0xcb,
    0xba, 0xab, 0x9a, 0xb9, 0xbc, 0xcb, 0xa9, 0xbb, 0xca, 0x99,
    0xaa, 0xaa, 0xbb, 0xa9, 0xa9, 0x9a, 0xac, 0xbb, 0xcb, 0xc9,
    0x99, 0xca, 0xab, 0x9a, 0xa8, 0x99, 0xaa, 0xa9, 0xa9, 0xab,
    0xab, 0xaa, 0x99, 0x99, 0x9a, 0x9a, 0xca, 0xab, 0xa9, 0x88,
    0xab, 0xaa, 0xac, 0xbb, 0xcc, 0x98, 0x98, 0x88, 0x8a, 0xcb,
    0xac, 0xbb, 0xab, 0xbb, 0xbc, 0xcb, 0xbb, 0xab, 0xab, 0xaa,
    0xbb, 0xbb, 0xbb, 0xba, 0xcb, 0xba, 0xac, 0xba, 0xbc, 0xaa,
    0xaa, 0xaa, 0xbc, 0xba, 0xba, 0xbc, 0xbb, 0xaa, 0xbb, 0xab,
    0xba, 0xab, 0xba, 0xbb, 0xaa, 0xba, 0xcc, 0xbc, 0xaa, 0xba,
    0xab, 0xab, 0xbb, 0xac, 0xbc, 0xcb, 0xba, 0x9b, 0xaa, 0xba,
    0xca, 0xaa, 0xba, 0x9a, 0xca, 0xbc, 0xaa, 0xbb, 0xbb, 0xcd,
    0xca, 0x87, 0x78, 0xac, 0xac, 0xba, 0xba, 0x9a, 0xab, 0xab,
    0xbb, 0xab, 0xdd, 0xd9, 0x99, 0x87, 0x79, 0x9a, 0xcb, 0xad,
    0xca, 0xbb, 0xab, 0xab, 0xab, 0xcc, 0xec, 0xda, 0x9a, 0x86,
    0x78, 0xbc, 0xab, 0xdc, 0xcd, 0xcb, 0xda, 0xbb, 0xaa, 0xbc,
    0xdd, 0xdb, 0xc9, 0x87, 0x68, 0xcc, 0xcb, 0xdb, 0xbb, 0xcb,
    0xca, 0xbb, 0xa9, 0xab, 0xdd, 0xdc, 0xcb, 0x77, 0x78, 0xcd,
    0xca, 0xbc, 0xdc, 0xbb, 0xaa, 0xab, 0xb9, 0xad, 0xec, 0xdd,
    0xda, 0x76, 0x6a, 0xdc, 0xba, 0xbc, 0xcb, 0xaa, 0xba, 0xbb,
    0xaa, 0x9b, 0xcc, 0xbd, 0xed, 0x86, 0x6b, 0xdc, 0xbc, 0xca,
    0xbb, 0xbb, 0xbb, 0xab, 0xb9, 0x8d, 0xcb, 0xdd, 0xed, 0x85,
    0x6b, 0xdd, 0xba, 0xcb, 0xcb, 0xbb, 0xbb, 0xbc, 0xab, 0x9b,
    0xcc, 0xce, 0xfe, 0xa6, 0x7b, 0xbc, 0xb9, 0xac, 0xab, 0x9c,
    0xbb, 0xba, 0xab, 0x9d, 0xeb, 0xbd, 0xff, 0x97, 0x89, 0xbb,
    0xaa, 0xca, 0xaa, 0xaa, 0x99, 0xbc, 0xc9, 0x9b, 0xdd, 0xcd,
    0xde, 0xb8, 0x8a, 0xab, 0xab, 0xa9, 0xaa, 0x99, 0xa8, 0xaa,
    0xc9, 0xab, 0xdc, 0xcc, 0xde, 0xd8, 0x89, 0xaa, 0xbb, 0xba,
    0xaa, 0xaa, 0x99, 0xba, 0xbb, 0x9b, 0xcc, 0xca, 0xcc, 0xb9,
    0xaa, 0x9a, 0xaa, 0xaa, 0xb9, 0xaa, 0x99, 0xac, 0xba, 0x9a,
    0xbc, 0xcc, 0xcc, 0xb9, 0xaa, 0xba, 0xbb, 0xba, 0xcb, 0x98,
    0xa9, 0xbb, 0xca, 0xac, 0xbb, 0xab, 0xcc, 0xca, 0xaa, 0x99,
    0xbb, 0xbb, 0xaa, 0xaa, 0xba, 0x9c, 0xa9, 0xbc, 0xac, 0xab,
    0xcc, 0xca, 0xaa, 0xa9, 0x9a, 0x9a, 0xbc, 0xba, 0xca, 0x9a,
    0xaa, 0xac, 0xcc, 0xba, 0xab, 0xac, 0xba, 0xbb, 0xab, 0xaa,
    0xbb, 0xcc, 0xba, 0xba, 0xca, 0xac, 0xac, 0xba, 0xcb, 0xba,
    0xba, 0xab, 0xbb, 0xab, 0xb9, 0xbc, 0xcb, 0xbb, 0xba, 0x9c,
    0xba, 0xab, 0xba, 0xcb, 0xba, 0xbb, 0xab, 0xba, 0xab, 0xbc,
    0xcb, 0xaa, 0xab, 0x9b, 0xab, 0xbb, 0xca, 0xab, 0xaa, 0xba,
    0xca, 0xbb, 0xba, 0x9c, 0xcb, 0xcb, 0xca, 0x9b, 0xaa, 0xba,
    0x9c, 0xbc, 0xbb, 0x9a, 0x9a, 0xac, 0xab, 0xaa, 0xbb, 0xca,
    0xba, 0xab, 0xca, 0x9b, 0x9a, 0xac, 0xba, 0xba, 0xba, 0xba,
    0xbb, 0xb9, 0xbc, 0xba, 0xac, 0xbc, 0xaa, 0xab, 0xbb, 0xab,
    0xba, 0xcb, 0x9a, 0xbc, 0xba, 0xab, 0xca, 0xab, 0xcb, 0xab,
    0xaa, 0x9a, 0xbc, 0x99, 0xbc, 0xbc, 0xca, 0xba, 0xbb, 0xaa,
    0xba, 0xab, 0xbc, 0xbc, 0xbb, 0xca, 0xba, 0xab, 0xab, 0xbb,
    0xaa, 0x9a, 0xab, 0xca, 0xbb, 0xbb, 0xba, 0xaa, 0xaa, 0xaa,
    0xcb, 0xbb, 0xba, 0xac, 0xca, 0xbb, 0xbb, 0xaa, 0xcb, 0xba,
    0xba, 0xca, 0xcb, 0xaa, 0xac, 0xac, 0xbb, 0xbb, 0xab, 0xaa,
    0xab, 0xcc, 0xaa, 0xaa, 0xbb, 0xbb, 0xbb, 0xa9, 0x9a, 0x9b,
    0xba, 0xaa, 0xab, 0xba, 0xab, 0xbb, 0xaa, 0xac, 0xab, 0xac,
    0xbb, 0xbc, 0xbb, 0xcb, 0xac, 0xac, 0xbc, 0xcc, 0xba, 0xcc,
    0xcc, 0xbb, 0xba, 0xca, 0xcc, 0xac, 0xbc, 0xaa, 0xbb, 0xcc,
    0xbc, 0xbd, 0xdc, 0xcc, 0xdc, 0xba, 0xba, 0xab, 0xaa, 0xca,
    0xcb, 0xbb, 0xbb, 0xaa, 0xba, 0xcb, 0xcc, 0xce, 0xdd, 0xac,
    0xac, 0xbc, 0xba, 0xaa, 0xbd, 0xcb, 0xbb, 0xbb, 0xcc, 0xdc,
    0xdd, 0xde, 0xfc, 0xca, 0xb9, 0xcb, 0xcb, 0xbc, 0xbb, 0xba,
    0xbb, 0xcb, 0xcc, 0xdd, 0xff, 0xff, 0xdc, 0xab, 0xa9, 0xaa,
    0x9b, 0xba, 0xb9, 0xaa, 0xba, 0xad, 0xcc, 0xdd, 0xee, 0xd9,
    0x99, 0xbb, 0x9a, 0xbb, 0xb9, 0xb9, 0xbb, 0xba, 0x99, 0x9a,
    0xa9, 0x99, 0x87, 0x56, 0x57, 0xaa, 0xba, 0xaa, 0xca, 0xa9,
    0xbc, 0xab, 0xaa, 0x98, 0x77, 0x65, 0x42, 0x23, 0x46, 0x9b,
    0xbb, 0x99, 0xcb, 0x9b, 0x99, 0xaa, 0xba, 0xb9, 0x98, 0x76,
    0x54, 0x45, 0x56, 0x9a, 0xab, 0xaa, 0xbc, 0xaa, 0xcb, 0xbc,
    0xbd, 0xcd, 0xdc, 0xcc, 0xcd, 0xb9, 0x99, 0xac, 0xaa, 0xbc,
    0xbb, 0xda, 0xcc, 0xbc, 0xcb, 0xcc, 0xee, 0xee, 0xfe, 0xdb,
    0xaa, 0x9b, 0xbb, 0xcc, 0xbb, 0xab, 0xab, 0xab, 0xbb, 0xcb,
    0xcc, 0xcb, 0xdc, 0xcd, 0xca, 0xaa, 0xca, 0xdd, 0xca, 0xab,
    0xab, 0xaa, 0xaa, 0xbc, 0xbc, 0xac, 0xbd, 0xdc, 0xab, 0xbb,
    0xc9, 0xbc, 0xbc, 0xcb, 0xcc, 0xcb, 0xbb, 0xcc, 0xcd, 0xdd,
    0xcc, 0xcc, 0xcb, 0x9c, 0xaa, 0xac, 0xbb, 0xbb, 0xbb, 0xbc,
    0xac, 0xaa, 0xaa, 0xbc, 0xbb, 0xcc, 0xca, 0xaa, 0xa9, 0x99,
    0x99, 0x99, 0x9a, 0xaa, 0xaa, 0x99, 0x88, 0x9a, 0xaa, 0xaa,
    0xbb, 0xaa, 0xca, 0x98, 0x98, 0x99, 0xaa, 0xca, 0xbb, 0xac,
    0xbb, 0xaa, 0xba, 0xaa, 0xbb, 0xaa, 0xbb, 0x9a, 0xba, 0x9a,
    0xaa, 0xaa, 0xba, 0xbb, 0xdc, 0xcc, 0xcb, 0xbb, 0xbc, 0xca,
    0xca, 0xac, 0xac, 0xcc, 0xba, 0xab, 0xbc, 0xcb, 0xbb, 0xbb,
    0xab, 0xbb, 0xbd, 0xbb, 0xab, 0xac, 0xbb, 0xba, 0xab, 0x9a,
    0xab, 0xba, 0xba, 0xba, 0xab, 0xaa, 0xdc, 0xab, 0xba, 0xab,
    0xbb, 0xcb, 0xac, 0xbb, 0xba, 0xbb, 0xbc, 0xbb, 0xbc, 0xac,
    0xbc, 0xba, 0xcb, 0xbc, 0xca, 0xba, 0xbb, 0xcb, 0xbc, 0xbc,
    0xbb, 0xab, 0xba, 0xbb, 0xab, 0xba, 0xab, 0xca, 0xa9, 0xab,
    0xaa, 0xbb, 0xab, 0xaa, 0xbb, 0xaa, 0xca, 0xbc, 0xab, 0xba,
    0xbb, 0xbb, 0x9a, 0x8a, 0xab, 0xbc, 0xbc, 0xbc, 0xbb, 0x9b,
    0xbb, 0xa9, 0xa9, 0xac, 0xab, 0xca, 0x9a, 0xbb, 0xab, 0xba,
    0xbb, 0xaa, 0xa9, 0xbc, 0xba, 0xab, 0xbb, 0xaa, 0xba, 0xba,
    0xcb, 0xbb, 0xbb, 0xab, 0xab, 0xba, 0xba, 0xbc, 0xbb, 0xcc,
    0xca, 0xbb, 0xac, 0xbb, 0xca, 0xba, 0xab, 0xbb, 0xca, 0xca,
    0xbc, 0xab, 0xab, 0xaa, 0xaa, 0xbb, 0xbc, 0xbc, 0xbb, 0xbb,
    0xab, 0xcb, 0xba, 0xbb, 0xbb, 0xcb, 0xcb, 0xca, 0xab, 0xac,
    0xab, 0xbb, 0xbb, 0xbb, 0x9a, 0xac, 0xdc, 0xcb, 0x9a, 0xa9,
    0xcc, 0xbb, 0xa9, 0xab, 0xbc, 0xaa, 0xcc, 0xcc, 0xbc, 0xcb,
    0xaa, 0x99, 0xbb, 0xcc, 0xcb, 0x9b, 0xaa, 0xba, 0xbb, 0xab,
    0xbc, 0xcc, 0xbc, 0xbb, 0xab, 0xbb, 0xcc, 0xdc, 0xab, 0xcb,
    0xbc, 0xbb, 0xbc, 0xda, 0xbc, 0xcb, 0xcb, 0xcc, 0xdd, 0xee,
    0xed, 0xcc, 0xcc, 0xcb, 0xbc, 0xba, 0xcb, 0xdb, 0xba, 0xac,
    0xbb, 0xcd, 0xee, 0xee, 0xcc, 0xbc, 0xdd, 0xdc, 0xdd, 0xaa,
    0xab, 0xbc, 0xcb, 0xcb, 0xbb, 0xbc, 0xba, 0xba, 0xbb, 0xab,
    0xbc, 0xab, 0xdd, 0xaa, 0xac, 0xdb, 0xac, 0xbb, 0xbb, 0xaa,
    0x98, 0x87, 0x8a, 0xaa, 0xba, 0xac, 0xdc, 0xac, 0xaa, 0xcc,
    0xbc, 0xba, 0xab, 0x99, 0x98, 0x9b, 0xba, 0xab, 0xbc, 0xcd,
    0xdb, 0xac, 0xaa, 0xac, 0xab, 0x9a, 0xab, 0xaa, 0xbc, 0xcc,
    0xcc, 0xab, 0xcb, 0xdc, 0x99, 0xbc, 0xba, 0xbc, 0xaa, 0xab,
    0xab, 0xaa, 0xac, 0xdc, 0xaa, 0xbb, 0xca, 0x98, 0x78, 0xcb,
    0xac, 0xbb, 0x99, 0x99, 0xaa, 0xb9, 0xaa, 0xbc, 0xab, 0xca,
    0x9a, 0x87, 0x78, 0xbb, 0xbb, 0x9a, 0x9a, 0xaa, 0xbb, 0xac,
    0xba, 0xba, 0xbb, 0xab, 0x99, 0x87, 0x89, 0xbb, 0xba, 0xaa,
    0x9a, 0xaa, 0xaa, 0xdc, 0xaa, 0xcc, 0xbc, 0xa9, 0x99, 0x89,
    0x8a, 0xaa, 0xaa, 0xa9, 0x9b, 0xbc, 0xca, 0xbd, 0xaa, 0xaa,
    0xba, 0x99, 0x8a, 0x9c, 0xab, 0xbb, 0xab, 0xa9, 0xaa, 0x9a,
    0xab, 0xac, 0xcb, 0xac, 0xaa, 0x9a, 0x9a, 0xcc, 0xa9, 0xac,
    0xca, 0xaa, 0xcb, 0xaa, 0xaa, 0xbc, 0xbb, 0xbb, 0xaa, 0x9b,
    0xbc, 0xdc, 0xbc, 0xaa, 0xab, 0xbc, 0xbb, 0xaa, 0xab, 0xaa,
    0xa9, 0x99, 0xaa, 0xac, 0xcd, 0xec, 0xbd, 0xba, 0xcb, 0xcc,
    0xba, 0xba, 0xa9, 0x88, 0x89, 0x88, 0x99, 0xcc, 0xdd, 0xdd,
    0xcc, 0xba, 0xac, 0xdc, 0xca, 0xba, 0xa9, 0x98, 0x78, 0x9a,
    0xba, 0xcc, 0xbd, 0xdc, 0xbd, 0xbb, 0xbb, 0xcc, 0xa9, 0xbb,
    0xba, 0xab, 0xab, 0xbd, 0xcd, 0xbd, 0xbb, 0xaa, 0xcd, 0xba,
    0xaa, 0xac, 0xdc, 0xdd, 0xdd, 0xdd, 0xed, 0xcd, 0xda, 0xdc,
    0xa9, 0xab, 0xdc, 0xaa, 0xbc, 0x99, 0xcb, 0xab, 0xcd, 0xed,
    0xed, 0xed, 0xcd, 0xdc, 0xca, 0xcc, 0xca, 0xac, 0xcc, 0xab,
    0xab, 0xbc, 0xab, 0xcd, 0xcc, 0xdd, 0xdd, 0xcb, 0xcd, 0xcd,
    0xcb, 0xab, 0xaa, 0xa9, 0xbb, 0xcd, 0xdd, 0xcc, 0xfd, 0xdd,
    0xda, 0xbc, 0xcc, 0xbb, 0xaa, 0xbc, 0xbb, 0xb9, 0xac, 0xbc,
    0xbd, 0xbc, 0xcc, 0xcb, 0xac, 0xca, 0xbc, 0xbb, 0xac, 0xca,
    0xbb, 0xaa, 0xcc, 0xab, 0xab, 0xaa, 0xba, 0xaa, 0xac, 0xab,
    0xcb, 0xab, 0xba, 0xab, 0xbb, 0xab, 0xcc, 0xba, 0xab, 0xbb,
    0xab, 0xbc, 0xaa, 0xca, 0xaa, 0xbb, 0xcb, 0xbb, 0xcb, 0xab,
    0xba, 0xbc, 0xab, 0xca, 0xcc, 0xbb, 0xbb, 0xbc, 0xba, 0xab,
    0xbc, 0xba, 0xaa, 0xac, 0xbd, 0xdc, 0xbb, 0xcb, 0xbd, 0xbc,
    0xcb, 0xab, 0xbc, 0xbb, 0xab, 0xbb, 0xbb, 0xbb, 0xcc, 0xdc,
    0xaa, 0xa9, 0xbb, 0xbb, 0xab, 0xba, 0xaa, 0x99, 0x9d, 0xcc,
    0xab, 0xbc, 0xcb, 0xab, 0xb8, 0xb9, 0xa9, 0x99, 0xaa, 0x9b,
    0xa9, 0x99, 0xab, 0xac, 0xba, 0xba, 0xa9, 0xcb, 0xb9, 0xb9,
    0xaa, 0x9a, 0xaa, 0xaa, 0xa8, 0xac, 0xbc, 0xbb, 0xac, 0xcc,
    0xaa, 0xac, 0xab, 0xa9, 0xaa, 0xa9, 0xa9, 0xaa, 0xb9, 0x9b,
    0xba, 0xbb, 0xab, 0xca, 0x9a, 0xdd, 0xcd, 0xa9, 0x99, 0x9a,
    0x98, 0x9a, 0xb9, 0xac, 0xbb, 0xaa, 0xcb, 0xca, 0xbd, 0xcc,
    0xdd, 0xcb, 0x99, 0x9a, 0xaa, 0xba, 0xbb, 0xaa, 0xbb, 0xcb,
    0xbc, 0xbc, 0xbb, 0xdd, 0xdd, 0xda, 0xa9, 0x99, 0xa9, 0xab,
    0xbc, 0xa9, 0x9a, 0xaa, 0xcc, 0xbb, 0xba, 0xba, 0xbc, 0xcc,
    0xc8, 0x88, 0xa9, 0xba, 0x8a, 0x98, 0xaa, 0xbb, 0xcc, 0xaa,
    0xc9, 0xaa, 0xac, 0xab, 0xc8, 0x99, 0xba, 0x99, 0x89, 0x9a,
    0xaa, 0xaa, 0xbc, 0x98, 0xa9, 0xa9, 0xaa, 0xac, 0xb9, 0xaa,
    0xba, 0xbb, 0x9b, 0xbb, 0xb9, 0xab, 0xab, 0x97, 0x88, 0x99,
    0xaa, 0xab, 0x99, 0xaa, 0xcb, 0xbc, 0xcb, 0xcc, 0xba, 0x9a,
    0xbb, 0x88, 0x89, 0x99, 0xaa, 0xcd, 0xb9, 0xab, 0xbb, 0xaa,
    0xac, 0xcc, 0xda, 0xab, 0xaa, 0x77, 0x99, 0x9a, 0xbb, 0xcb,
    0xaa, 0xba, 0xbb, 0xac, 0xbc, 0xcc, 0xdb, 0xbc, 0xaa, 0x88,
    0x89, 0x9a, 0xcc, 0xcc, 0xaa, 0xbc, 0xcb, 0xbc, 0xcb, 0xbc,
    0xcc, 0xba, 0xba, 0x98, 0x98, 0x9a, 0xdc, 0xbc, 0xb9, 0xbb,
    0xca, 0xab, 0xba, 0xdb, 0xcb, 0xac, 0xba, 0xb9, 0x89, 0xca,
    0xdc, 0xdc, 0xaa, 0xcc, 0xac, 0xba, 0xbc, 0xcc, 0xbb, 0xbb,
    0xac, 0x98, 0x9b, 0xaa, 0xcc, 0xeb, 0xb8, 0xbb, 0xca, 0xcb,
    0xba, 0xcb, 0xbc, 0xba, 0xab, 0x98, 0x9b, 0xbc, 0xdf, 0xec,
    0xa9, 0xcc, 0xcb, 0xab, 0xbc, 0xbc, 0xcd, 0xcb, 0xcc, 0x98,
    0xce, 0xec, 0xdf, 0xdc, 0x99, 0xba, 0xcb, 0xcc, 0xbb, 0xbc,
    0xdd, 0xba, 0xac, 0xba, 0xde, 0xff, 0xee, 0xcb, 0xab, 0xab,
    0xba, 0xcc, 0xda, 0xcc, 0xdb, 0xbb, 0xab, 0xdc, 0xde, 0xde,
    0xcb, 0x99, 0xa9, 0xac, 0xbb, 0xbc, 0xbc, 0xce, 0xdb, 0xaa,
    0xad, 0xed, 0xed, 0xed, 0xdd, 0xaa, 0x89, 0xab, 0xaa, 0xaa,
    0xbc, 0xed, 0xbc, 0xbb, 0xac, 0xdc, 0xcd, 0xbb, 0xcd, 0xa8,
    0x99, 0xac, 0xbb, 0xcc, 0xcc, 0xdb, 0xbb, 0xcc, 0xaa, 0xab,
    0xca, 0xbc, 0xbc, 0xab, 0xbb, 0xca, 0xcc, 0xbc, 0xaa, 0xbc,
    0xab, 0xac, 0xac, 0xcb, 0xca, 0xba, 0xab, 0xbb, 0xcb, 0xca,
    0xaa, 0xaa, 0xcc, 0xaa, 0xbb, 0xca, 0xba, 0xab, 0xbb, 0xca,
    0xcb, 0xac, 0xbb, 0xbb, 0xbc, 0xba, 0xbc, 0xba, 0xba, 0xbb,
    0xac, 0xab, 0xaa, 0xab, 0xab, 0xbb, 0xca, 0xba, 0xbc, 0xbb,
    0xac, 0xbb, 0xbc, 0xcc, 0xca, 0xab, 0xab, 0xaa, 0xaa, 0xdd,
    0xba, 0xbc, 0xaa, 0x99, 0xab, 0xbc, 0xac, 0xaa, 0xaa, 0xa9,
    0xbb, 0xcb, 0xbb, 0xab, 0xcb, 0xcb, 0xca, 0xba, 0xbb, 0x9b,
    0xac, 0xbb, 0xbc, 0xa9, 0xaa, 0xbc, 0xaa, 0xbb, 0xcc, 0xaa,
    0xac, 0xba, 0xca, 0xbb, 0xab, 0xac, 0xbb, 0x9b, 0xbb, 0xba,
    0xca, 0xaa, 0x9a, 0xab, 0xbc, 0xbc, 0xca, 0xbc, 0xbc, 0x9a,
    0xab, 0x9b, 0xba, 0xca, 0xaa, 0xba, 0x9c, 0xcd, 0xcb, 0x98,
    0x99, 0xcc, 0xca, 0x9c, 0xbb, 0xbb, 0xbc, 0xab, 0xab, 0xcb,
    0xdd, 0xdd, 0x97, 0x8a, 0xbb, 0xee, 0xc8, 0xab, 0xba, 0xaa,
    0xdc, 0xac, 0xcc, 0xcd, 0xcb, 0x97, 0x78, 0xbc, 0xdd, 0xde,
    0xa8, 0xba, 0xcb, 0xab, 0xaa, 0xbb, 0xcb, 0xba, 0xa8, 0x78,
    0xbd, 0xee, 0xdd, 0xec, 0x88, 0xab, 0xab, 0xca, 0x9b, 0xca,
    0xcb, 0x99, 0x99, 0xbc, 0xde, 0xed, 0xeb, 0xa8, 0x79, 0xaa,
    0xab, 0xcc, 0xaa, 0xab, 0xa9, 0xb9, 0xab, 0xce, 0xee, 0xdd,
    0xb9, 0x98, 0x89, 0xab, 0xac, 0xab, 0xba, 0x9a, 0xaa, 0xba,
    0xcc, 0xde, 0xea, 0xa9, 0x99, 0x88, 0x8a, 0xab, 0xbb, 0x89,
    0x9b, 0x9a, 0x9c, 0xcb, 0xbd, 0xdd, 0xbb, 0x9a, 0x89, 0x89,
    0x9a, 0xca, 0xaa, 0x9b, 0xaa, 0xab, 0xbd, 0xbd, 0xcd, 0xda,
    0x98, 0x99, 0x9a, 0xab, 0xcd, 0xab, 0xaa, 0xb9, 0xbb, 0xca,
    0xcb, 0xdd, 0xdb, 0xc8, 0x99, 0xa9, 0xba, 0xac, 0xcc, 0xbb,
    0xab, 0xbb, 0xbb, 0xcc, 0xbd, 0xcd, 0xda, 0x88, 0x99, 0x9a,
    0xcc, 0xcc, 0xbd, 0xab, 0xaa, 0xbb, 0xcc, 0xdd, 0xca, 0xcb,
    0x88, 0x89, 0x9d, 0xcc, 0xbc, 0xcc, 0xdb, 0xba, 0xab, 0xbc,
    0xac, 0xba, 0xcb, 0x88, 0x78, 0x9b, 0xdc, 0xbd, 0xdc, 0xcd,
    0xca, 0xcb, 0xab, 0xaa, 0xba, 0x99, 0x98, 0x89, 0x9b, 0xcd,
    0xdc, 0xcb, 0xba, 0xbc, 0xdb, 0xbc, 0xab, 0xb9, 0xb9, 0x89,
    0x99, 0x9a, 0xcd, 0xcb, 0xba, 0xaa, 0xbc, 0xbc, 0xbb, 0xca,
    0xba, 0x99, 0xaa, 0xa9, 0xa9, 0xcc, 0xcc, 0xbb, 0x9b, 0xbb,
    0xab, 0xac, 0xcb, 0xac, 0xaa, 0xa9, 0xba, 0xba, 0xaa, 0xcc,
    0xca, 0xab, 0xba, 0xba, 0xcb, 0xba, 0xbb, 0xcb, 0xca, 0x9a,
    0x9a, 0xac, 0xbb, 0xbc, 0xbb, 0xcc, 0xac, 0xaa, 0xba, 0xba,
    0xaa, 0xca, 0xba, 0xcc, 0xba, 0xac, 0xcb, 0xab, 0xaa, 0xbb,
    0xbc, 0xcc, 0xbb, 0xb9, 0xaa, 0xca, 0xba, 0xbd, 0xbb, 0xbb,
    0xcb, 0xba, 0xb9, 0xab, 0xbb, 0xda, 0xca, 0xa9, 0xba, 0xcc,
    0xaa, 0xaa, 0xbb, 0xcb, 0xcb, 0xaa, 0xbb, 0xab, 0xcb, 0xab,
    0xba, 0xab, 0xba, 0xba, 0xba, 0xcb, 0xab, 0xbc, 0xaa, 0xbb,
    0xba, 0xbc, 0xbc, 0xbc, 0xbb, 0xca, 0xcc, 0xab, 0xba, 0xbb,
    0xaa, 0xbb, 0xac, 0xcb, 0xbc, 0xab, 0xba, 0xaa, 0xba, 0xba,
    0xcb, 0xbb, 0xaa, 0xbb, 0xaa, 0xac, 0xaa, 0xab, 0xbb, 0xbb,
    0xab, 0xdc, 0xbb, 0xbc, 0xcb, 0xcb, 0xac, 0xab, 0x9b, 0xba,
    0xab, 0xbb, 0xcc, 0xcc, 0xca, 0xbb, 0xcc, 0xcb, 0xdd, 0xca,
    0xaa, 0xca, 0xab, 0xbb, 0xab, 0xab, 0xba, 0xab, 0xaa, 0xbc,
    0xbb, 0xdc, 0xbd, 0xab, 0xaa, 0xbb, 0xab, 0xaa, 0xab, 0xcb,
    0xaa, 0xba, 0xbb, 0xcb, 0xca, 0xca, 0xbd, 0xba, 0xab, 0xcd,
    0xaa, 0x9b, 0xca, 0xab, 0xbb, 0xaa, 0xab, 0xac, 0xba, 0xba,
    0xcc, 0xbc, 0xbb, 0xdb, 0xaa, 0x9b, 0xa9, 0xbb, 0xba, 0x9c,
    0xcc, 0xba, 0xcb, 0xcb, 0xcb, 0xba, 0xab, 0xcd, 0xcb, 0xab,
    0xba, 0xab, 0xcc, 0xad, 0xdb, 0xbc, 0xbc, 0xbc, 0xbb, 0xbb,
    0xaa, 0xbd, 0xcb, 0x9a, 0xaa, 0xab, 0xcd, 0xcc, 0xbb, 0xba,
    0xac, 0xac, 0xcb, 0xaa, 0xba, 0xac, 0xba, 0xba, 0xab, 0xba,
    0xbb, 0xcb, 0xbb, 0xba, 0x9a, 0x9a, 0x99, 0xbb, 0xab, 0xca,
    0xaa, 0xcb, 0x9a, 0x99, 0x9c, 0xbb, 0x99, 0xb8, 0x99, 0x98,
    0x88, 0xaa, 0xac, 0xa8, 0x78, 0x9a, 0xb9, 0x9a, 0xbc, 0xcb,
    0xcc, 0xaa, 0xa9, 0x88, 0x78, 0xaa, 0xbb, 0xa8, 0x77, 0x89,
    0xa9, 0xaa, 0xcc, 0xab, 0xbb, 0xbc, 0xc9, 0x98, 0x78, 0xbb,
    0xa9, 0x98, 0x87, 0x67, 0x79, 0x8b, 0xcd, 0xbc, 0xbb, 0xac,
    0xaa, 0x99, 0x98, 0xac, 0xca, 0xba, 0x88, 0x76, 0x55, 0x68,
    0xce, 0xec, 0xcc, 0xba, 0x9a, 0xab, 0xca, 0xbc, 0xab, 0xbc,
    0xbc, 0x98, 0x64, 0x55, 0x9c, 0xdc, 0xbb, 0xaa, 0xac, 0xdc,
    0xbc, 0xca, 0xbb, 0xdd, 0xed, 0xed, 0xa6, 0x55, 0x68, 0x89,
    0xaa, 0x99, 0xbc, 0xde, 0xdb, 0xba, 0xbb, 0xee, 0xed, 0xff,
    0xfc, 0x76, 0x77, 0x99, 0x8a, 0xac, 0xcc, 0xcc, 0xca, 0xba,
    0xbb, 0xde, 0xdb, 0xdd, 0xee, 0xba, 0x88, 0x89, 0xaa, 0xbb,
    0xab, 0xac, 0xca, 0x9c, 0xbc, 0xcd, 0xaa, 0xbb, 0xcb, 0xb9,
    0x99, 0xab, 0xaa, 0xab, 0xcc, 0xac, 0xb9, 0xac, 0xba, 0xcb,
    0xcb, 0xaa, 0xab, 0xdb, 0x9a, 0xba, 0xab, 0xbb, 0xba, 0xba,
    0xb9, 0xaa, 0xbc, 0xcb, 0x99, 0xab, 0xac, 0xcc, 0xba, 0xba,
    0xbc, 0xab, 0xaa, 0xab, 0xbb, 0xca, 0xbc, 0xbb, 0x9b, 0xac,
    0xbb, 0xcd, 0xdb, 0xca, 0xab, 0xab, 0xcc, 0xaa, 0xbb, 0xbc,
    0xab, 0xcb, 0x8a, 0xbc, 0xca, 0xcb, 0xbb, 0xdb, 0xbb, 0xba,
    0xab, 0xb9, 0x9a, 0xac, 0xcb, 0xca, 0x9b, 0xbb, 0xaa, 0xa9,
    0x9b, 0xaa, 0xbb, 0x9a, 0x99, 0xb9, 0x99, 0xaa, 0xca, 0xbb,
    0xbd, 0xbc, 0xaa, 0xab, 0xdb, 0xac, 0xba, 0xba, 0xbc, 0xca,
    0xbc, 0xbb, 0xcc, 0xba, 0xba, 0xcc, 0xca, 0xba, 0xab, 0xbc,
    0xcb, 0xcb, 0xbc, 0xba, 0xab, 0xab, 0xbc, 0xab, 0xcb, 0xbb,
    0xac, 0xbb, 0xcb, 0xbb, 0xab, 0xbc, 0xbc, 0xaa, 0xaa, 0xbb,
    0xab, 0xab, 0xac, 0xcc, 0xaa, 0xbc, 0xab, 0xcb, 0xbb, 0xba,
    0xaa, 0xab, 0xaa, 0xcb, 0xbc, 0xbb, 0xaa, 0xba, 0xba, 0xab,
    0xba, 0xbb, 0xbc, 0xba, 0xab, 0xab, 0xaa, 0xaa, 0xbb, 0xba,
    0xa9, 0xaa, 0xab, 0x9b, 0xbc, 0xbb, 0xcd, 0xcb, 0xcc, 0xcb,
    0xcb, 0xbb, 0xbb, 0xaa, 0x9a, 0xaa, 0xab, 0xab, 0xcb, 0xcb,
    0xbb, 0xbc, 0xcc, 0xbb, 0xab, 0xcc, 0xbc, 0x9b, 0xa8, 0x9a,
    0x9a, 0xaa, 0xac, 0xab, 0xbb, 0xcb, 0xcb, 0xbb, 0xcb, 0xab,
    0xa9, 0x9a, 0x99, 0x99, 0xa9, 0xab, 0xaa, 0xbc, 0xcb, 0xbc,
    0xda, 0xcc, 0xbc, 0xcb, 0xba, 0xb9, 0x9a, 0xa9, 0x9b, 0xba,
    0xab, 0xaa, 0xcb, 0xba, 0xab, 0xcb, 0xba, 0xbc, 0xab, 0x9a,
    0x9a, 0xaa, 0xbb, 0xcc, 0xbb, 0xab, 0x9b, 0xab, 0xca, 0xbc,
    0xbb, 0xab, 0x9a, 0x99, 0x9a, 0xaa, 0xbc, 0xcb, 0xaa, 0xbc,
    0xbc, 0xbc, 0xcc, 0xcd, 0xdb, 0xca, 0xba, 0x8a, 0xab, 0xba,
    0xaa, 0xcb, 0xcd, 0xcb, 0xcd, 0xcd, 0xde, 0xdc, 0xeb, 0xbc,
    0xba, 0x99, 0x9a, 0x9a, 0xaa, 0xaa, 0xcb, 0xdb, 0xdb, 0xac,
    0xb9, 0xaa, 0x98, 0xbb, 0xca, 0xa9, 0x9b, 0xab, 0xa9, 0x9a,
    0xaa, 0x98, 0x89, 0x87, 0x87, 0x76, 0x77, 0xba, 0xaa, 0xa8,
    0xaa, 0xca, 0xa9, 0x97, 0x87, 0x77, 0x77, 0x66, 0x67, 0x65,
    0x67, 0x9a, 0xaa, 0x98, 0x98, 0xa9, 0x99, 0xa9, 0x89, 0x9b,
    0xba, 0xa9, 0x88, 0x98, 0x89, 0xaa, 0xca, 0xab, 0x99, 0x99,
    0xaa, 0xbc, 0xdd, 0xde, 0xde, 0xdd, 0xdc, 0xcb, 0x9b, 0xab,
    0xca, 0xcc, 0xcb, 0xba, 0xbb, 0xad, 0xed, 0xee, 0xee, 0xfe,
    0xed, 0xec, 0xcc, 0xab, 0xca, 0xdd, 0xdd, 0xdd, 0xbb, 0xcc,
    0xea, 0xcc, 0xdc, 0xdd, 0xed, 0xcc, 0xba, 0xbb, 0xaa, 0xdc,
    0xcc, 0xdd, 0xcc, 0xbc, 0xba, 0xac, 0xac, 0xdc, 0xdd, 0xcd,
    0xba, 0xbb, 0xba, 0xcb, 0xab, 0xcc, 0xcb, 0xda, 0xcb, 0xbb,
    0xbb, 0xac, 0xbc, 0xcd, 0xbc, 0xca, 0xca, 0xaa, 0xcb, 0xba,
    0xa9, 0xbb, 0xaa, 0x9b, 0x99, 0xac, 0xbb, 0xcc, 0xbd, 0xab,
    0xbb, 0xbb, 0xbc, 0xaa, 0xab, 0x9a, 0xba, 0xab, 0xab, 0xac,
    0xaa, 0xcc, 0xcd, 0xaa, 0xba, 0xaa, 0xaa, 0xba, 0xab, 0xab,
    0xbc, 0xc9, 0xcb, 0xab, 0xca, 0xcc, 0xcc, 0xcb, 0xca, 0xb9,
    0xab, 0xaa, 0xb9, 0xab, 0xbc, 0xca, 0xbb, 0xaa, 0xcb, 0xbb,
    0xba, 0xca, 0xac, 0xb9, 0x9a, 0xab, 0xac, 0xca, 0xac, 0xbb,
    0xc9, 0xba, 0xaa, 0xcd, 0xc9, 0xca, 0xba, 0xba, 0xaa, 0xab,
    0xab, 0xbb, 0x9c, 0xa9, 0xca, 0xbc, 0xcb, 0xde, 0xb9, 0xab,
    0xba, 0xbb, 0xa9, 0xab, 0xcb, 0xab, 0xaa, 0xaa, 0xcc, 0xcc,
    0xca, 0xdc, 0xca, 0xaa, 0xaa, 0xba, 0xab, 0xbb, 0xcb, 0xcb,
    0xbc, 0xb9, 0xab, 0xbb, 0xbb, 0xca, 0xca, 0xca, 0xab, 0xba,
    0xab, 0xba, 0xbc, 0xbc, 0xaa, 0xab, 0xac, 0xba, 0xbb, 0xbc,
    0xca, 0xba, 0xbb, 0xaa, 0xaa, 0xab, 0xca, 0xbc, 0xca, 0xbb,
    0xaa, 0xac, 0xac, 0xab, 0xba, 0xaa, 0xcc, 0xcb, 0xcb, 0xbc,
    0xba, 0x99, 0xba, 0x99, 0x98, 0x99, 0x9b, 0x9b, 0xaa, 0xac,
    0xba, 0xa9, 0xaa, 0xbb, 0xbc, 0xcc, 0xcb, 0xaa, 0xab, 0xbc,
    0x9b, 0xba, 0xaa, 0xbb, 0xaa, 0xb9, 0x99, 0xaa, 0xcc, 0xcd,
    0xbb, 0xcb, 0xbb, 0xba, 0xb9, 0xa9, 0xbb, 0xab, 0xbc, 0xa8,
    0x99, 0x9b, 0xcb, 0xcc, 0xdc, 0xba, 0xbb, 0xbb, 0x99, 0x99,
    0xad, 0xaa, 0xba, 0xa9, 0x99, 0xab, 0xba, 0xca, 0xba, 0xaa,
    0xaa, 0x9a, 0x99, 0x9b, 0xed, 0xba, 0xaa, 0xaa, 0xab, 0xac,
    0xbb, 0xbb, 0xba, 0xca, 0x9a, 0x99, 0xab, 0xc9, 0xcc, 0xbc,
    0xbb, 0xac, 0xcc, 0xaa, 0xab, 0x9a, 0xbb, 0xba, 0xba, 0xab,
    0x9b, 0xca, 0xac, 0xab, 0xaa, 0xaa, 0xba, 0xac, 0xac, 0xcc,
    0xaa, 0xab, 0xa9, 0xaa, 0xab, 0xba, 0xbd, 0xaa, 0xbb, 0xbb,
    0xcb, 0xab, 0xbb, 0xaa, 0xca, 0xab, 0xaa, 0xaa, 0xa9, 0xba,
    0xcb, 0xcc, 0xab, 0xcb, 0xbb, 0xac, 0xac, 0xbb, 0x99, 0xac,
    0xb9, 0x99, 0x9b, 0xba, 0xca, 0xcb, 0xca, 0xdb, 0xab, 0xaa,
    0xac, 0xaa, 0xaa, 0xbb, 0xb9, 0x98, 0x8a, 0xa9, 0xab, 0xba,
    0xcb, 0xcc, 0xbb, 0xcc, 0xaa, 0xbb, 0xbb, 0xbd, 0xbb, 0x87,
    0x8b, 0xba, 0xab, 0xba, 0xac, 0xca, 0xbb, 0xcb, 0xaa, 0xba,
    0xac, 0xbd, 0xda, 0x77, 0x7a, 0xaa, 0xa9, 0xbb, 0xcc, 0xb8,
    0xbb, 0xcb, 0xc9, 0x9a, 0xba, 0xbd, 0xeb, 0x66, 0x89, 0xa9,
    0xa9, 0xbc, 0xac, 0xb8, 0xa9, 0xc9, 0x99, 0x9b, 0xbb, 0xbe,
    0xe9, 0x56, 0x9a, 0xa8, 0xaa, 0xcc, 0xbb, 0xb9, 0x88, 0x99,
    0x99, 0x9a, 0x9b, 0xbd, 0xc8, 0x57, 0xa9, 0xaa, 0xbb, 0xab,
    0xbb, 0xeb, 0xb8, 0x89, 0x9b, 0xb9, 0xac, 0xcc, 0x87, 0x69,
    0xbc, 0xbb, 0xba, 0xbb, 0xbd, 0xee, 0xb9, 0xba, 0xbc, 0xdc,
    0xcc, 0xa9, 0x88, 0x8a, 0xbb, 0xbc, 0xcc, 0xba, 0xcc, 0xee,
    0xcc, 0xde, 0xdc, 0xcc, 0xcc, 0xa9, 0x99, 0x9a, 0xaa, 0xaa,
    0xaa, 0xba, 0xab, 0xed, 0xdd, 0xdd, 0xdd, 0xdc, 0xcb, 0xa9,
    0xaa, 0x9a, 0x9b, 0xba, 0xa9, 0x9c, 0xac, 0xed, 0xdd, 0xdc,
    0xbc, 0xba, 0xba, 0xba, 0xba, 0xbb, 0xab, 0xdc, 0x99, 0xbb,
    0xab, 0xcc, 0xbc, 0xdc, 0xca, 0xbb, 0xab, 0xcb, 0xac, 0xda,
    0xaa, 0xba, 0x99, 0xbb, 0xcb, 0xbb, 0xdc, 0xcc, 0xbb, 0xbb,
    0xbc, 0xac, 0xac, 0xcb, 0x9a, 0xcb, 0xab, 0xaa, 0xaa, 0x9a,
    0xbc, 0xcb, 0xcb, 0xbc, 0xaa, 0xa9, 0xbc, 0xbd, 0xab, 0xab,
    0xb9, 0xac, 0xcc, 0x99, 0xab, 0xb9, 0xa9, 0x9a, 0xb9, 0xaa,
    0xac, 0xdc, 0xcd, 0xca, 0xa9, 0xbb, 0xcc, 0xab, 0xba, 0xaa,
    0xab, 0x9a, 0xbb, 0xac, 0xab, 0xba, 0xac, 0xbc, 0xba, 0xca,
    0xba, 0xbc, 0xbc, 0xba, 0xbb, 0xba, 0xcb, 0xbb, 0xaa, 0xab,
    0xac, 0xac, 0xba, 0xaa, 0xaa, 0xba, 0xaa, 0xaa, 0xab, 0xba,
    0xac, 0xba, 0xab, 0xba, 0xca, 0xcb, 0xaa, 0xba, 0xab, 0xbc,
    0xcb, 0xca, 0xaa, 0xbb, 0xba, 0xab, 0xab, 0xac, 0xcc, 0xcb,
    0xbb, 0xbb, 0xbc, 0xcb, 0xbb, 0xcc, 0xab, 0xcc, 0xee, 0xcd,
    0xdc, 0xbb, 0xac, 0xcc, 0xdd, 0xca, 0xcc, 0xde, 0xdd, 0xda,
    0x99, 0xac, 0xce, 0xdd, 0xed, 0xcb, 0xa9, 0xbc, 0xdd, 0xab,
    0xcb, 0xcd, 0xbb, 0xbc, 0xaa, 0xab, 0xdd, 0xdd, 0xcc, 0xac,
    0xa9, 0xab, 0xde, 0xaa, 0xaa, 0xdc, 0xbc, 0xcb, 0xba, 0x9b,
    0xcd, 0xcc, 0xdb, 0xbc, 0xbc, 0xcb, 0xdf, 0xab, 0xca, 0xdd,
    0xcc, 0xcc, 0xbb, 0xbc, 0xcc, 0xdc, 0xba, 0xab, 0xbb, 0xdb,
    0xde, 0xdc, 0xaa, 0xdd, 0xdc, 0xcd, 0xbb, 0xbc, 0xce, 0xee,
    0xca, 0xaa, 0xcc, 0xba, 0xdf, 0xca, 0xac, 0xde, 0xbc, 0xcd,
    0xdb, 0xab, 0xdd, 0xee, 0xed, 0xdc, 0xde, 0xed, 0xce, 0xbc,
    0xaa, 0xdd, 0xcb, 0xbc, 0xdc, 0xbd, 0xdd, 0xed, 0xdd, 0xdc,
    0xcc, 0xb9, 0xad, 0xca, 0xba, 0xdd, 0xcb, 0xcc, 0xba, 0xbc,
    0xde, 0xee, 0xcd, 0xdb, 0xa9, 0x99, 0x9c, 0xab, 0xca, 0xcc,
    0xaa, 0xbc, 0xad, 0xcc, 0xdc, 0xdc, 0xc9, 0x98, 0x88, 0x88,
    0x8b, 0xaa, 0xca, 0xb9, 0x98, 0x9a, 0x9b, 0xcc, 0xba, 0xa9,
    0x88, 0x97, 0x77, 0x87, 0x79, 0xba, 0xab, 0x88, 0x87, 0x77,
    0x88, 0x99, 0x88, 0x88, 0x88, 0x97, 0x77, 0x77, 0x89, 0xba,
    0xbb, 0x98, 0x77, 0x77, 0x67, 0x77, 0x88, 0x89, 0x98, 0x98,
    0x86, 0x87, 0x88, 0xab, 0xcb, 0x98, 0x88, 0x77, 0x77, 0x77,
    0x88, 0x88, 0x89, 0x89, 0x77, 0x98, 0x99, 0xab, 0xbc, 0x99,
    0x89, 0x98, 0x77, 0x88, 0x99, 0x99, 0x88, 0x98, 0x89, 0xa9,
    0xa9, 0x9a, 0xca, 0xaa, 0x9a, 0xaa, 0xa9, 0x99, 0xba, 0xa9,
    0x99, 0xa9, 0xab, 0xbb, 0x99, 0xbb, 0xca, 0xab, 0xaa, 0xcb,
    0xaa, 0x9a, 0xa9, 0xba, 0xac, 0xbb, 0xcb, 0xba, 0x9b, 0xcb,
    0xaa, 0xdb, 0xaa, 0xdb, 0xb9, 0xac, 0xba, 0xaa, 0xbc, 0xab,
    0xaa, 0xcc, 0x9a, 0xab, 0xca, 0xdb, 0xab, 0xcb, 0xcb, 0x9b,
    0xab, 0xcb, 0xbb, 0xbb, 0xbb, 0xab, 0xac, 0xbb, 0xaa, 0xab,
    0xba, 0xba, 0xab, 0x9a, 0xab, 0x9a, 0xaa, 0xac, 0xbb, 0xab,
    0xbb, 0xca, 0xac, 0xaa, 0xaa, 0x9c, 0xba, 0xaa, 0xba, 0xbb,
    0xab, 0xaa, 0xab, 0xba, 0xab, 0xac, 0xac, 0xb9, 0x8a, 0x99,
    0x99, 0x9a, 0xa9, 0xbc, 0xba, 0x9a, 0xaa, 0xba, 0xab, 0xbb,
    0xbb, 0xdc, 0xa9, 0xbb, 0xba, 0x9c, 0xbc, 0xaa, 0xbb, 0xcc,
    0x9c, 0xab, 0xaa, 0xbc, 0xaa, 0xab, 0xcc, 0xba, 0xcc, 0x9a,
    0xba, 0xab, 0xbb, 0xba, 0x9a, 0xab, 0xba, 0xbb, 0xaa, 0xab,
    0xaa, 0xcb, 0xcb, 0xcb, 0xbb, 0xba, 0xba, 0xaa, 0xab, 0xcb,
    0xbc, 0xbc, 0xbc, 0xab, 0xca, 0xcb, 0xcc, 0xaa, 0xaa, 0xbb,
    0xbb, 0xaa, 0xaa, 0xaa, 0xab, 0xba, 0xac, 0xcb, 0xab, 0xba,
    0xaa, 0xcb, 0xca, 0xba, 0xab, 0xab, 0xbb, 0xca, 0xaa, 0xcc,
    0xba, 0xaa, 0xaa, 0xaa, 0xba, 0x9b, 0xbc, 0xbd, 0xdc, 0xcc,
    0xdb, 0xba, 0xc9, 0xbc, 0xab, 0xbb, 0xba, 0x9a, 0x99, 0xdd,
    0xbd, 0xbd, 0xeb, 0xdb, 0xbe, 0xed, 0xdb, 0xcb, 0xaa, 0xb9,
    0xba, 0x9a, 0x98, 0xa9, 0x99, 0x9a, 0xa9, 0xaa, 0xbb, 0xac,
    0xbb, 0xba, 0xac, 0xb9, 0xa9, 0x9a, 0xa9, 0xaa, 0x9a, 0x98,
    0xb9, 0xaa, 0xa9, 0xaa, 0xbd, 0xca, 0xab, 0xca, 0xaa, 0xa9,
    0x9a, 0x9a, 0xab, 0x9b, 0x99, 0xba, 0xba, 0xa9, 0xbd, 0xbc,
    0xaa, 0xba, 0x9a, 0xab, 0xab, 0x9b, 0xaa, 0xaa, 0xa9, 0xbb,
    0xab, 0xcb, 0xcd, 0xba, 0xab, 0xb9, 0x99, 0xaa, 0xba, 0xba,
    0xab, 0xbc, 0xaa, 0xab, 0xad, 0xcc, 0xde, 0xac, 0xbc, 0xc8,
    0x89, 0x9a, 0x9b, 0xbc, 0xba, 0xbc, 0xcd, 0xdd, 0xce, 0xc9,
    0x99, 0xbb, 0xbc, 0xa9, 0x8a, 0x99, 0xa9, 0xaa, 0xa9, 0x9a,
    0x9b, 0xcb, 0x99, 0x88, 0x79, 0xab, 0xc9, 0xa8, 0x9a, 0x88,
    0x99, 0x98, 0x88, 0x77, 0x76, 0x77, 0x76, 0x77, 0x78, 0xaa,
    0xbc, 0xac, 0xcd, 0xca, 0xaa, 0xba, 0x98, 0x99, 0x87, 0x88,
    0x89, 0xab, 0xca, 0xca, 0xcb, 0xee, 0xed, 0xed, 0xcc, 0xcc,
    0xbc, 0xed, 0xbc, 0xcd, 0xac, 0xbc, 0xbb, 0xaa, 0xbb, 0xde,
    0xed, 0xdc, 0xdc, 0xcb, 0xbe, 0xfd, 0xdd, 0xdc, 0xcd, 0xdc,
    0xdb, 0xbb, 0xcc, 0xec, 0xcd, 0xcb, 0xdc, 0xcc, 0xbe, 0xdb,
    0xbd, 0xab, 0xac, 0xbc, 0xdc, 0xbb, 0xcb, 0xcb, 0xab, 0xcc,
    0xcb, 0xcc, 0xbb, 0xca, 0xbc, 0xac, 0xaa, 0xcc, 0xdc, 0xba,
    0xbb, 0xbb, 0xaa, 0xdb, 0xbb, 0xba, 0xcc, 0xac, 0xdc, 0xcb,
    0xbc, 0xca, 0xbb, 0x9a, 0xca, 0xaa, 0xab, 0xbb, 0xbb, 0xa9,
    0xca, 0xaa, 0xcb, 0xcc, 0x9a, 0xaa, 0xaa, 0xcb, 0xcb, 0xbc,
    0xbd, 0xbb, 0xcd, 0xab, 0xac, 0xab, 0xcc, 0xac, 0x89, 0xbb,
    0xba, 0xab, 0xaa, 0xda, 0xab, 0xbb, 0xbc, 0xaa, 0xab, 0xa9,
    0xbb, 0xdc, 0xba, 0xba, 0xaa, 0xca, 0xba, 0xdb, 0xac, 0xab,
    0xcc, 0xba, 0xab, 0xbb, 0x9c, 0xcb, 0xba, 0xa9, 0x99, 0xaa,
    0xcc, 0xd9, 0xab, 0xa9, 0xcc, 0xab, 0xbb, 0xca, 0xcc, 0xcb,
    0xba, 0x9b, 0xac, 0xcc, 0xcc, 0xa9, 0xab, 0xac, 0xcb, 0xdc,
    0xbb, 0xdb, 0xba, 0xcc, 0xc9, 0x9b, 0x9a, 0xca, 0xac, 0xeb,
    0xba, 0xcb, 0x9b, 0xcc, 0xba, 0xdb, 0xcc, 0xcd, 0xb9, 0xab,
    0x9a, 0xba, 0xca, 0xba, 0x99, 0xba, 0xaa, 0xba, 0xab, 0xbc,
    0xdb, 0xac, 0xa9, 0x9a, 0x9a, 0xbb, 0xbb, 0xaa, 0xaa, 0xcc,
    0xbb, 0xdd, 0xdd, 0xde, 0xdb, 0xcc, 0xdb, 0xba, 0xbc, 0xab,
    0xaa, 0xbb, 0xcc, 0xdd, 0xbd, 0xdd, 0xdd, 0xba, 0xba, 0xab,
    0xcc, 0xab, 0xba, 0xbb, 0xba, 0xbb, 0xbb, 0xbb, 0xcb, 0xaa,
    0xbb, 0xbc, 0xab, 0xcb, 0xaa, 0xac, 0xcb, 0xbb, 0xaa, 0xab,
    0xba, 0xba, 0xcc, 0xbc, 0xab, 0xab, 0xcb, 0xac, 0xab, 0xaa,
    0xab, 0xbc, 0xba, 0xba, 0xcb, 0xab, 0xba, 0xbb, 0xcb, 0xbb,
    0xbb, 0xac, 0xbb, 0xbc, 0xbb, 0xab, 0xbb, 0x9b, 0x99, 0xb9,
    0x99, 0xac, 0xde, 0xed, 0xca, 0xbb, 0xbc, 0xdd, 0xc9, 0xac,
    0xac, 0xa8, 0x89, 0x8a, 0x99, 0xcc, 0xdc, 0xef, 0xfe, 0xbc,
    0xcc, 0xdc, 0xaa, 0xcc, 0xab, 0x99, 0x98, 0x99, 0x9a, 0xbc,
    0xab, 0xce, 0xff, 0xed, 0xdb, 0xbd, 0xcc, 0xab, 0xbb, 0xa9,
    0x98, 0x89, 0x9a, 0x9b, 0xaa, 0xad, 0xef, 0xed, 0xcb, 0xcc,
    0xcc, 0xba, 0xbc, 0xa8, 0x88, 0xa9, 0xaa, 0xaa, 0xaa, 0x9a,
    0xbe, 0xee, 0xed, 0xbc, 0xcb, 0xba, 0xcb, 0x9a, 0x9a, 0xb9,
    0xab, 0xaa, 0x9a, 0x98, 0x9c, 0xbe, 0xed, 0xdd, 0xcc, 0xba,
    0xaa, 0xaa, 0x89, 0xaa, 0xba, 0xbb, 0xaa, 0xa9, 0x9a, 0xac,
    0xfe, 0xed, 0xfc, 0xaa, 0xcc, 0x99, 0x89, 0xab, 0xaa, 0x9b,
    0xbb, 0xda, 0x99, 0xab, 0xcd, 0xde, 0xfe, 0xcb, 0xba, 0x99,
    0x9b, 0xa9, 0xba, 0xba, 0xbb, 0xab, 0xab, 0xa9, 0xbc, 0xce,
    0xff, 0xcc, 0xab, 0x99, 0xbb, 0x8b, 0xab, 0xbc, 0xba, 0xab,
    0xbc, 0xa9, 0xab, 0xcc, 0xed, 0xcb, 0xab, 0x99, 0x9c, 0xac,
    0xab, 0xaa, 0xac, 0xc9, 0xbc, 0xaa, 0xbb, 0xcc, 0xce, 0xbb,
    0xaa, 0x9a, 0x9c, 0xac, 0xca, 0xaa, 0xba, 0xaa, 0xbb, 0xba,
    0xcc, 0xba, 0x9c, 0xbb, 0xab, 0x99, 0x9a, 0x9a, 0xbc, 0xab,
    0xba, 0xab, 0xab, 0xaa, 0xba, 0xca, 0xaa, 0xac, 0xba, 0x9a,
    0xaa, 0x9a, 0xab, 0xbc, 0xba, 0xbb, 0xca, 0xab, 0xbb, 0xa9,
    0xab, 0xaa, 0xaa, 0xab, 0xca, 0xba, 0xaa, 0x9a, 0xcb, 0xbc,
    0xab, 0xab, 0xa9, 0xb9, 0x9a, 0xba, 0xab, 0xac, 0xbb, 0xaa,
    0xab, 0xbb, 0xab, 0xba, 0xab, 0xaa, 0x9a, 0x99, 0x88, 0xbb,
    0xbb, 0xab, 0xba, 0xab, 0xcc, 0xcb, 0xaa, 0xaa, 0x9a, 0x99,
    0x99, 0x9a, 0x99, 0xaa, 0xc9, 0x8c, 0xbb, 0xba, 0xab, 0xba,
    0xab, 0xaa, 0xbb, 0xc9, 0xba, 0xbb, 0xaa, 0xac, 0xba, 0x9a,
    0xba, 0xbc, 0x9a, 0xab, 0xbc, 0xba, 0xbc, 0xac, 0xb9, 0xbc,
    0xaa, 0xbb, 0xaa, 0xaa, 0x99, 0xaa, 0xc9, 0xac, 0xab, 0xca,
    0xab, 0xba, 0xbc, 0xbd, 0xdb, 0xaa, 0xaa, 0xbc, 0xaa, 0x9b,
    0xa9, 0xaa, 0x9a, 0xb9, 0xb9, 0xba, 0xbb, 0xdc, 0xdc, 0xca,
    0xbb, 0xb9, 0x99, 0xab, 0xaa, 0xab, 0xb9, 0xaa, 0x9b, 0xaa,
    0xcb, 0xdb, 0xbc, 0xca, 0xaa, 0xb9, 0x9a, 0xbc, 0xcc, 0xbc,
    0xba, 0xaa, 0x9a, 0xa9, 0x99, 0xaa, 0xba, 0xcc, 0xbb, 0xbb,
    0xa9, 0xaa, 0xa9, 0x99, 0x9a, 0xa9, 0x99, 0xb9, 0x99, 0xaa,
    0x9b, 0xba, 0xca, 0xab, 0xab, 0xa9, 0x9a, 0xba, 0xba, 0xaa,
    0xaa, 0xbb, 0xbb, 0xbb, 0xba, 0xca, 0xbc, 0xbb, 0xbc, 0xbb,
    0xcc, 0xcb, 0xcc, 0xbb, 0xcc, 0xbb, 0xba, 0xba, 0xcb, 0xbc,
    0xac, 0xba, 0xba, 0xbb, 0xaa, 0xac, 0xab, 0xba, 0xca, 0xcb,
    0xba, 0xab, 0xbb, 0xbc, 0xab, 0xba, 0xbb, 0x9b, 0xab, 0xaa,
    0xaa, 0xaa, 0x9a, 0xaa, 0xaa, 0xa9, 0xaa, 0xaa, 0xba, 0xb9,
    0xa9, 0xaa, 0x99, 0xbb, 0xab, 0xca, 0xba, 0xac, 0xba, 0x98,
    0x99, 0xab, 0xbb, 0x9a, 0x99, 0xaa, 0x89, 0x89, 0x98, 0x89,
    0x88, 0x98, 0x89, 0xaa, 0xa9, 0xab, 0xbb, 0x99, 0xaa, 0xba,
    0x99, 0x99, 0xa9, 0x99, 0x98, 0x98, 0x99, 0x98, 0xaa, 0xba,
    0xaa, 0x98, 0x99, 0xab, 0xa9, 0x9a, 0x9a, 0xb9, 0xb9, 0xaa,
    0xaa, 0x99, 0x9a, 0xba, 0xcb, 0x99, 0xab, 0xaa, 0xb9, 0xa9,
    0x9a, 0xaa, 0xab, 0xba, 0xa9, 0x99, 0xb9, 0xac, 0xbb, 0x99,
    0x9a, 0xa9, 0xaa, 0x9a, 0xab, 0x99, 0xa9, 0xaa, 0x9a, 0x8b,
    0x99, 0xbc, 0xaa, 0x9a, 0xaa, 0x89, 0x9a, 0xa9, 0xa9, 0x9a,
    0xaa, 0x99, 0x9a, 0x89, 0x87, 0xab, 0xab, 0x99, 0xbb, 0xa9,
    0x99, 0x99, 0x99, 0xa9, 0xaa, 0xab, 0xaa, 0xba, 0x97, 0xbb,
    0xbb, 0x88, 0xba, 0xbb, 0xcb, 0xab, 0xaa, 0xbb, 0xbc, 0xcd,
    0xac, 0xcc, 0xa8, 0xaa, 0xb9, 0x98, 0x9b, 0xbb, 0xcb, 0xcc,
    0xcb, 0xcb, 0xcd, 0xdc, 0xcd, 0xcc, 0x98, 0xac, 0xab, 0x8b,
    0xcb, 0xbd, 0xdb, 0xbb, 0xbc, 0xbb, 0xca, 0xab, 0xca, 0xdc,
    0xa9, 0xbb, 0xca, 0xa9, 0xac, 0xca, 0xbc, 0xcd, 0xab, 0xbc,
    0xbc, 0xca, 0xca, 0xdc, 0x88, 0x9a, 0xbb, 0x8a, 0xcc, 0xcb,
    0xbb, 0xca, 0xba, 0xbb, 0xbb, 0xcb, 0xac, 0xcb, 0x99, 0xaa,
    0xaa, 0x8a, 0xdc, 0xcc, 0xcc, 0xcb, 0xca, 0xda, 0xcc, 0xbb,
    0xbc, 0xbb, 0x9b, 0xaa, 0xaa, 0x79, 0xca, 0xbc, 0xcb, 0xdc,
    0xaa, 0xac, 0xda, 0xcb, 0xda, 0xcb, 0x89, 0xaa, 0xc9, 0x78,
    0xab, 0xdc, 0xbc, 0xbc, 0xaa, 0xba, 0xab, 0xcc, 0xba, 0xab,
    0x99, 0xbb, 0xbb, 0x76, 0x89, 0xb9, 0xca, 0xcb, 0xbc, 0xaa,
    0xbb, 0xbb, 0x99, 0xab, 0x99, 0xaa, 0xba, 0x65, 0x8a, 0xba,
    0xba, 0xbb, 0xaa, 0xcc, 0xcb, 0x9c, 0xbb, 0x9a, 0xa9, 0xbb,
    0xaa, 0x87, 0x9a, 0xca, 0xbc, 0xbd, 0xcc, 0xbc, 0xaa, 0xac,
    0xcc, 0xab, 0xb9, 0xba, 0xab, 0x9a, 0xaa, 0xbb, 0xca, 0xdb,
    0xbb, 0xbd, 0xca, 0xbc, 0x9b, 0xbc, 0xb9, 0xba, 0xba, 0xca,
    0x9a, 0x9b, 0xaa, 0xcc, 0xbc, 0xcb, 0xbb, 0xaa, 0xba, 0xad,
    0xac, 0xab, 0xbb, 0xab, 0xcc, 0xa9, 0xaa, 0xca, 0xbc, 0xcb,
    0xbc, 0xda, 0xbc, 0xdc, 0xca, 0xbb, 0xaa, 0xbd, 0xdc, 0xbb,
    0xcb, 0xba, 0xab, 0xac, 0xcc, 0xcb, 0xba, 0xcb, 0xba, 0xab,
    0xbc, 0xaa, 0xbb, 0xab, 0xcb, 0xdc, 0xcc, 0xba, 0xbc, 0xca,
    0xaa, 0xcb, 0xcb, 0xac, 0xab, 0xa9, 0xbb, 0x9b, 0xba, 0xba,
    0xab, 0xba, 0xbb, 0xba, 0xcc, 0xab, 0xba, 0xcb, 0xca, 0xba,
    0xba, 0xbb, 0xbb, 0xab, 0xbb, 0xaa, 0xbb, 0xba, 0xaa, 0xbc,
    0xba, 0xba, 0xbc, 0xaa, 0xcc, 0xac, 0xbc, 0xab, 0xba, 0xaa,
    0xaa, 0xca, 0xbb, 0xac, 0xbb, 0xca, 0xac, 0xaa, 0xab, 0xba,
    0xab, 0xcb, 0xcc, 0xcc, 0xcc, 0xcc, 0xac, 0xba, 0xcc, 0xba,
    0xcc, 0xa9, 0xa9, 0xa9, 0xaa, 0xac, 0xdd, 0xec, 0xcb, 0xcc,
    0xdb, 0xcd, 0xcc, 0xab, 0xaa, 0x99, 0x98, 0x99, 0x8a, 0xac,
    0xcd, 0xdc, 0xdd, 0xdb, 0xcb, 0xcb, 0xcc, 0xba, 0xab, 0x99,
    0x89, 0x9a, 0xbb, 0xa9, 0xbb, 0xbc, 0xcc, 0xdc, 0xaa, 0xab,
    0xcc, 0xab, 0xab, 0x99, 0x9a, 0xaa, 0xba, 0x9b, 0xa9, 0xac,
    0xca, 0xa9, 0xab, 0xbc, 0xdc, 0xba, 0xaa, 0x99, 0x99, 0xbb,
    0xb9, 0x9a, 0xb9, 0x9b, 0x99, 0x9a, 0xaa, 0xcd, 0xdd, 0xac,
    0xba, 0x98, 0x89, 0xac, 0xba, 0xbc, 0xa9, 0x9b, 0xba, 0xa9,
    0x9a, 0xbc, 0xdc, 0xcb, 0xbb, 0xa8, 0x99, 0x99, 0xab, 0xbc,
    0xdb, 0xcb, 0xbb, 0xbb, 0xa9, 0xdc, 0xda, 0xba, 0xba, 0xa7,
    0x88, 0xba, 0xbc, 0xbd, 0xcd, 0xcd, 0xcb, 0xdb, 0xac, 0xba,
    0xaa, 0xab, 0xc9, 0x97, 0x77, 0x9a, 0xab, 0xbb, 0xbb, 0xac,
    0xdc, 0xcd, 0xcd, 0x9b, 0xa9, 0xab, 0xbb, 0x87, 0x77, 0xbc,
    0xbc, 0xbc, 0xcc, 0xab, 0xbc, 0xcd, 0xcc, 0xbc, 0xa9, 0xaa,
    0xba, 0xa7, 0x68, 0xbb, 0xdd, 0xcc, 0xba, 0xaa, 0xcb, 0xca,
    0xcb, 0xcc, 0x99, 0xaa, 0xab, 0x96, 0x6a, 0xcd, 0xde, 0xca,
    0xab, 0xba, 0xab, 0xcc, 0xbb, 0xcc, 0xca, 0xbc, 0xbb, 0x96,
    0x7a, 0xcd, 0xdd, 0xb9, 0xba, 0xab, 0xa9, 0xbb, 0xbb, 0xcb,
    0xa9, 0xbc, 0xba, 0x98, 0x8a, 0xbd, 0xec, 0x9a, 0xac, 0xbc,
    0xca, 0xbc, 0xac, 0xdb, 0xaa, 0xab, 0xba, 0xa9, 0x88, 0xcc,
    0xec, 0xab, 0xac, 0xcb, 0xca, 0xcb, 0xca, 0xcc, 0xbc, 0xcb,
    0xab, 0xa9, 0x99, 0xca, 0xdc, 0xba, 0xcb, 0xa9, 0xba, 0xbc,
    0xca, 0x9b, 0xcc, 0xac, 0xbb, 0x9a, 0x98, 0xac, 0xac, 0xac,
    0xab, 0xaa, 0xab, 0xb9, 0xa9, 0xbb, 0xbb, 0xbc, 0xbb, 0xdb,
    0x97, 0x9a, 0x9a, 0xaa, 0xaa, 0xb9, 0xab, 0xa9, 0xbc, 0xba,
    0xbc, 0xab, 0xcb, 0xca, 0xa9, 0xaa, 0xab, 0xba, 0x9a, 0x9a,
    0xba, 0xa9, 0x9b, 0xaa, 0xca, 0xbc, 0xca, 0x9c, 0xaa, 0xba,
    0xab, 0xbc, 0x9b, 0xbb, 0xaa, 0xca, 0xab, 0xaa, 0xbb, 0xba,
    0xbb, 0xbc, 0xaa, 0xaa, 0xbb, 0xbb, 0xca, 0xbc, 0xba, 0xaa,
    0xab, 0xab, 0xba, 0xaa, 0xab, 0xad, 0xaa, 0xbb, 0xba, 0xbb,
    0xab, 0xb9, 0x9a, 0x9c, 0xa9, 0xaa, 0xbc, 0xbb, 0xba, 0xba,
    0x9c, 0xac, 0xaa, 0xaa, 0xbb, 0xcb, 0xac, 0xcb, 0x89, 0xa9,
    0x9a, 0xac, 0xab, 0xbb, 0xab, 0xba, 0x9a, 0x9a, 0xbb, 0xb9,
    0xcc, 0xaa, 0xa9, 0xa9, 0xba, 0xca, 0xaa, 0xca, 0xbb, 0xca,
    0xab, 0xcc, 0xba, 0xa9, 0xac, 0xbc, 0xba, 0xab, 0xaa, 0xba,
    0xba, 0xbc, 0xbc, 0xca, 0xac, 0xbc, 0xba, 0xcc, 0xcb, 0xbc,
    0xbb, 0xaa, 0xab, 0xab, 0xbc, 0xbb, 0xba, 0xbc, 0xba, 0xcc,
    0xca, 0xba, 0xca, 0xbc, 0xaa, 0xab, 0xab, 0xaa, 0xcb, 0xab,
    0xbb, 0xab, 0xab, 0xab, 0x99, 0xa9, 0x9a, 0xab, 0x99, 0x9b,
    0xba, 0xba, 0xba, 0xbb, 0xaa, 0x9a, 0xaa, 0xaa, 0x9a, 0xa9,
    0x9a, 0x98, 0x98, 0x9b, 0xbb, 0xaa, 0xaa, 0xbc, 0xba, 0xaa,
    0xaa, 0x9a, 0xaa, 0xaa, 0x9a, 0xab, 0xca, 0xac, 0xdb, 0xbb,
    0xab, 0xdd, 0xbc, 0xba, 0xba, 0xbb, 0xab, 0xab, 0xca, 0xcc,
    0xbb, 0xcc, 0xbb, 0xab, 0xba, 0xcd, 0xcc, 0xc9, 0xbb, 0xcc,
    0xab, 0xbc, 0xdc, 0xcc, 0xbc, 0xab, 0xcc, 0xbc, 0xbb, 0xbc,
    0xab, 0xbc, 0xaa, 0xcb, 0xbb, 0xcb, 0xcb, 0xbb, 0xdc, 0xac,
    0xed, 0xba, 0xc9, 0xab, 0xcb, 0xcb, 0xba, 0xab, 0xdc, 0xcd,
    0xdd, 0xee, 0xee, 0xed, 0xdd, 0xbc, 0xba, 0xba, 0xac, 0xbc,
    0xca, 0xac, 0xbc, 0xcd, 0xee, 0xef, 0xff, 0xef, 0xed, 0xbc,
    0xcb, 0x9a, 0xab, 0xab, 0xab, 0xba, 0x9b, 0xab, 0xbc, 0xce,
    0xee, 0xee, 0xca, 0xab, 0xaa, 0x99, 0xaa, 0xaa, 0xca, 0xba,
    0xaa, 0x89, 0x89, 0x99, 0xbc, 0xda, 0x98, 0xab, 0xab, 0x9a,
    0xba, 0xcc, 0xbb, 0xaa, 0xb9, 0x98, 0x87, 0x77, 0x67, 0x77,
    0x67, 0xba, 0xaa, 0xba, 0xca, 0xba, 0xbb, 0xcb, 0xaa, 0xa8,
    0x97, 0x65, 0x44, 0x45, 0x57, 0xbc, 0xbc, 0xbb, 0xaa, 0xbc,
    0xbc, 0xcc, 0xab, 0xab, 0x99, 0x76, 0x32, 0x45, 0x67, 0xac,
    0xbb, 0xbc, 0xbb, 0xaa, 0xbc, 0xbb, 0xab, 0xba, 0xa9, 0xba,
    0x76, 0x66, 0x78, 0xbb, 0xaa, 0xb9, 0x9a, 0xba, 0xcb, 0xad,
    0xab, 0xbc, 0xbb, 0xcd, 0xfc, 0xa8, 0x89, 0xba, 0xab, 0xba,
    0xaa, 0xaa, 0xaa, 0xcb, 0xab, 0xac, 0xcd, 0xef, 0xed, 0xda,
    0x9b, 0xbc, 0xb9, 0xa9, 0x9a, 0xba, 0xaa, 0xcc, 0xbb, 0xbc,
    0xdc, 0xcd, 0xdb, 0xb9, 0xab, 0xcb, 0xba, 0xa9, 0x9a, 0xaa,
    0xb9, 0xbb, 0xcb, 0xac, 0xdc, 0xdc, 0xba, 0xcb, 0xac, 0xab,
    0xba, 0xab, 0x9a, 0xba, 0xb9, 0xbc, 0xdc, 0xba, 0xcb, 0xbb,
    0xbb, 0xb9, 0xac, 0xac, 0xba, 0xbb, 0xba, 0xaa, 0xa9, 0x9b,
    0xab, 0xab, 0xab, 0xbb, 0xbb, 0xca, 0xad, 0xaa, 0xba, 0x9a,
    0xab, 0xba, 0x9a, 0x9b, 0xab, 0xcb, 0xca, 0xab, 0xcb, 0xbd,
    0xdb, 0xca, 0xbb, 0xaa, 0xab, 0xaa, 0xca, 0xbb, 0xac, 0xbc,
    0xbc, 0xba, 0xca, 0xbb, 0xdd, 0xac, 0xaa, 0xbb, 0xbc, 0xab,
    0xbb, 0xba, 0xcb, 0xbc, 0x9b, 0xab, 0xbb, 0xac, 0xcc, 0xaa,
    0xaa, 0xaa, 0x9b, 0xbc, 0xba, 0xba, 0xab, 0xbc, 0xbb, 0xac,
    0xcb, 0xcc, 0xab, 0xcb, 0xaa, 0xa9, 0xac, 0xca, 0xcc, 0xbb,
    0xcc, 0xbc, 0xcd, 0xbb, 0xcc, 0xcb, 0xbb, 0xcb, 0xaa, 0xcb,
    0xba, 0xba, 0xbb, 0xaa, 0xca, 0xab, 0xaa, 0xbb, 0xab, 0xab,
    0xcb, 0xab, 0xbc, 0xbb, 0xaa, 0xcb, 0xac, 0xba, 0xbc, 0xba,
    0xbb, 0xaa, 0xab, 0xba, 0xac, 0xaa, 0xaa, 0xaa, 0xcb, 0xab,
    0xbc, 0xaa, 0xaa, 0xba, 0xcb, 0xbb, 0xac, 0xab, 0xaa, 0xab,
    0xac, 0xcb, 0xca, 0xca, 0xba, 0xab, 0xaa, 0xbb, 0xcb, 0xcb,
    0xab, 0xcc, 0xbb, 0xcc, 0xab, 0xba, 0xcb, 0xbb, 0xcc, 0xbb,
    0xab, 0xca, 0xcb, 0xdc, 0xcd, 0xed, 0xcc, 0xbb, 0xab, 0xac,
    0xaa, 0xcd, 0xba, 0xbc, 0xcc, 0xec, 0xcb, 0xca, 0xcc, 0xcb,
    0xbb, 0xbc, 0xac, 0xcb, 0xba, 0xcb, 0xbc, 0xba, 0xab, 0xab,
    0xab, 0xac, 0xca, 0xba, 0xad, 0xab, 0xca, 0xaa, 0xab, 0xaa,
    0xaa, 0xba, 0xcc, 0xbb, 0xca, 0xba, 0xaa, 0xbc, 0xac, 0xbb,
    0xcb, 0xac, 0xb9, 0xbb, 0xbc, 0xab, 0xba, 0xac, 0xba, 0xbc,
    0xcb, 0xca, 0xac, 0xbb, 0xbb, 0xca, 0xaa, 0xaa, 0x9a, 0xba,
    0xcb, 0xaa, 0xaa, 0xaa, 0x9b, 0xb9, 0xab, 0xcc, 0xaa, 0xdb,
    0xac, 0xaa, 0xbb, 0xca, 0xbb, 0xab, 0xba, 0xcb, 0xbb, 0xba,
    0xbc, 0xaa, 0xaa, 0xdb, 0x9a, 0x9a, 0xac, 0xbb, 0xbc, 0xba,
    0xa9, 0xbb, 0xca, 0xbb, 0xcc, 0xca, 0xac, 0xcb, 0xab, 0xcb,
    0xcb, 0xba, 0xcc, 0xaa, 0xac, 0xbb, 0xca, 0xbb, 0xdd, 0xbc,
    0xbb, 0xcb, 0xbb, 0xdb, 0xaa, 0xcc, 0xab, 0xba, 0xbb, 0xba,
    0xcb, 0xcb, 0xad, 0xbb, 0xbc, 0xcb, 0x99, 0xbb, 0xbb, 0xcc,
    0xba, 0xac, 0xcb, 0xba, 0xab, 0xba, 0xbc, 0xbb, 0xac, 0xbb,
    0xbc, 0xbb, 0x9a, 0xbb, 0xaa, 0xbc, 0xcb, 0x9b, 0xca, 0xca,
    0xbd, 0xca, 0xab, 0xab, 0xcb, 0xab, 0xaa, 0xaa, 0xba, 0xbb,
    0xcb, 0xaa, 0xbb, 0x9c, 0xab, 0xbb, 0xbb, 0xab, 0xcc, 0xcb,
    0xba, 0xac, 0xbb, 0xab, 0xca, 0xba, 0xaa, 0xc9, 0x9b, 0xca,
    0xbb, 0xab, 0xbc, 0xba, 0x98, 0xab, 0xab, 0xcc, 0xca, 0xbb,
    0xbb, 0xab, 0xad, 0xbb, 0xca, 0xa9, 0xbd, 0xcb, 0x87, 0x9c,
    0xbb, 0xbc, 0xca, 0xab, 0xab, 0xda, 0xac, 0xbb, 0xcb, 0x99,
    0xde, 0xda, 0x66, 0x9c, 0xba, 0xbb, 0xbb, 0xbb, 0xbb, 0xa9,
    0xab, 0xca, 0xb9, 0xbc, 0xde, 0xec, 0x65, 0x9d, 0xcc, 0xcb,
    0xcc, 0xba, 0xaa, 0xba, 0xbc, 0xcb, 0xa9, 0xcc, 0xbe, 0xfd,
    0x52, 0x8e, 0xcc, 0xcb, 0xbc, 0x9a, 0xbb, 0xbb, 0xaa, 0xaa,
    0xba, 0xda, 0xac, 0xfd, 0x42, 0x8d, 0xcc, 0xbc, 0xbb, 0xaa,
    0x9a, 0xbc, 0xbb, 0xcc, 0xbb, 0xdc, 0xad, 0xfd, 0x42, 0x8c,
    0xcb, 0xbb, 0xac, 0xbb, 0xaa, 0xaa, 0xbc, 0xba, 0xcb, 0xdc,
    0x9e, 0xeb, 0x43, 0x79, 0x9a, 0xab, 0xab, 0xa9, 0xa9, 0xba,
    0xcb, 0xba, 0xba, 0xda, 0xad, 0xc6, 0x44, 0x67, 0x79, 0xa9,
    0x89, 0x89, 0xaa, 0x9a, 0xab, 0xca, 0xca, 0xcc, 0xcc, 0x87,
    0x66, 0x67, 0x89, 0x79, 0x9a, 0x9a, 0xa9, 0xa9, 0xbb, 0xaa,
    0xbb, 0xbb, 0xaa, 0xba, 0x9a, 0xba, 0xaa, 0xba, 0xab, 0x9a,
    0xba, 0xbb, 0xcb, 0xbb, 0xac, 0xab, 0xba, 0xbb, 0xca, 0xbb,
    0xcb, 0xcc, 0xab, 0xbc, 0xbb, 0xab, 0xab, 0xba, 0xac, 0xcb,
    0xaa, 0xaa, 0xca, 0xbc, 0xca, 0xbb, 0xba, 0xba, 0xbc, 0xab,
    0xcc, 0xbb, 0xbb, 0xab, 0xaa, 0xbb, 0xbc, 0xab, 0xaa, 0xab,
    0xba, 0xcb, 0xbb, 0xab, 0xba, 0xbc, 0xaa, 0xbb, 0xb9, 0x89,
    0x88, 0x98, 0x88, 0x98, 0x89, 0x99, 0xaa, 0xbb, 0xab, 0xac,
    0xab, 0xca, 0xa9, 0x8a, 0xaa, 0x99, 0xab, 0xaa, 0xb9, 0x9a,
    0xaa, 0xab, 0x9a, 0xaa, 0xab, 0xbb, 0xbc, 0xaa, 0xaa, 0xba,
    0xab, 0xbc, 0xbb, 0xba, 0xbd, 0xca, 0x99, 0xba, 0xbb, 0xaa,
    0xcb, 0xac, 0xac, 0xcc, 0xaa, 0xbc, 0xcc, 0xcc, 0xcc, 0xcc,
    0xa9, 0x9a, 0xab, 0x9b, 0xdb, 0xcc, 0xc9, 0xcb, 0xca, 0xcb,
    0xcb, 0xcb, 0xcc, 0xbc, 0xba, 0xba, 0xaa, 0xaa, 0xbb, 0xbd,
    0xbc, 0xcd, 0xbb, 0xba, 0xcc, 0xcb, 0xcb, 0xbc, 0xaa, 0xac,
    0xba, 0x9b, 0xcb, 0xcb, 0xdb, 0xbd, 0xcd, 0xcd, 0xcd, 0xbd,
    0xbc, 0xcc, 0xc9, 0x9c, 0xaa, 0xbc, 0xcb, 0xbb, 0xcb, 0xbb,
    0xcc, 0xbc, 0xcc, 0xed, 0xcd, 0xde, 0xdb, 0xab, 0xac, 0xaa,
    0xba, 0xbb, 0xcc, 0xba, 0xb9, 0x99, 0x8b, 0xca, 0xcc, 0xbd,
    0xdb, 0xbc, 0xba, 0xbc, 0xaa, 0xb9, 0xb9, 0xbb, 0xa9, 0xa8,
    0x79, 0xaa, 0xaa, 0xbc, 0xcb, 0xac, 0xbb, 0xbd, 0xca, 0xba,
    0xaa, 0x9a, 0xcd, 0xd9, 0x69, 0xba, 0xcb, 0xbc, 0xca, 0xbc,
    0xca, 0xbc, 0xcb, 0xac, 0x9a, 0xba, 0xbc, 0xd6, 0x59, 0xbb,
    0xba, 0xaa, 0xab, 0xbb, 0xca, 0xcc, 0xbc, 0xab, 0x9a, 0xba,
    0xbb, 0xa5, 0x69, 0xdb, 0xdb, 0xbc, 0x99, 0xac, 0xaa, 0xbc,
    0xbb, 0xab, 0xcb, 0xba, 0xca, 0x85, 0x7b, 0xdd, 0xc9, 0xba,
    0xaa, 0x9b, 0xba, 0xba, 0xbb, 0xbc, 0xbc, 0xab, 0xaa, 0x87,
    0x8a, 0xbd, 0xac, 0xb9, 0xab, 0xaa, 0xbb, 0x99, 0xab, 0xbb,
    0xbb, 0xaa, 0xb8, 0x77, 0xab, 0xcb, 0xbb, 0xbb, 0xca, 0xbc,
    0xab, 0x88, 0x9b, 0xcc, 0xca, 0xa9, 0x88, 0x88, 0xa9, 0xab,
    0xbb, 0xbc, 0xcb, 0xaa, 0xc9, 0x8a, 0x9a, 0xaa, 0xab, 0xb9,
    0xa9, 0x99, 0xba, 0x9c, 0xbc, 0xca, 0xdc, 0xcc, 0xcb, 0x99,
    0x98, 0x9a, 0xab, 0x99, 0x9a, 0x9a, 0xba, 0xba, 0xba, 0xbc,
    0xbb, 0xcb, 0xcb, 0x9a, 0xba, 0x99, 0x9a, 0xaa, 0xab, 0xbb,
    0xab, 0xb9, 0xaa, 0x9b, 0xa9, 0xac, 0xab, 0x9b, 0xab, 0x9a,
    0x9b, 0xab, 0xcc, 0xca, 0x9a, 0xca, 0xba, 0xbb, 0x99, 0xbc,
    0xab, 0x99, 0xca, 0xab, 0xcc, 0xdc, 0xcc, 0xa9, 0xaa, 0xcb,
    0xaa, 0xab, 0x9a, 0xcc, 0xaa, 0xa9, 0xa9, 0xb9, 0xbb, 0xcc,
    0xcb, 0xab, 0xba, 0xbc, 0xa9, 0xaa, 0xbb, 0xac, 0xaa, 0xaa,
    0xa9, 0x99, 0xac, 0xba, 0xca, 0xcd, 0xbb, 0xa9, 0x99, 0x9a,
    0xba, 0xab, 0xbb, 0xbb, 0xab, 0xbb, 0xcc, 0xba, 0xba, 0xbb,
    0xbb, 0xca, 0xbc, 0xab, 0xba, 0xab, 0xab, 0xab, 0xac, 0xab,
    0xba, 0xaa, 0xba, 0xcb, 0xab, 0xcb, 0xcb, 0xba, 0xab, 0xbb,
    0xbb, 0xba, 0xcb, 0xbb, 0xcb, 0xcb, 0xcb, 0xaa, 0xbc, 0xaa,
    0xaa, 0xca, 0xaa, 0xab, 0xba, 0xba, 0xcc, 0xba, 0xac, 0xbb,
    0xac, 0xca, 0xcc, 0xdc, 0xcc, 0xba, 0xab, 0xba, 0xaa, 0xab,
    0xdc, 0xab, 0xbb, 0xba, 0xbd, 0xda, 0xbc, 0xdc, 0xcc, 0xdb,
    0xca, 0xaa, 0xac, 0xbc, 0xcc, 0xcb, 0xbb, 0xbb, 0x9a, 0xa9,
    0xac, 0xba, 0xba, 0xab, 0x9b, 0xab, 0xcb, 0xbb, 0xbb, 0xdc,
    0xcb, 0xcb, 0xcb, 0xcc, 0xbb, 0xbb, 0xbb, 0xaa, 0xbc, 0xaa,
    0xba, 0xbc, 0xbb, 0xbb, 0xbb, 0xad, 0xcb, 0xac, 0xba, 0xcb,
    0xaa, 0xbb, 0xbb, 0xaa, 0xcc, 0xad, 0xdb, 0xba, 0xbc, 0xdb,
    0xab, 0xcb, 0xcb, 0xba, 0xab, 0xcb, 0xca, 0xac, 0xab, 0xcb,
    0xdd, 0xcb, 0xcc, 0xbc, 0xbc, 0xba, 0xac, 0xac, 0xcb, 0xb9,
    0xab, 0xbb, 0xca, 0xbc, 0xcc, 0xcb, 0xcc, 0xcb, 0xcc, 0xcb,
    0xbc, 0xcc, 0xbb, 0xcc, 0xa9, 0xba, 0xcc, 0xbb, 0xcb, 0xbb,
    0xcc, 0xcd, 0xcb, 0xcd, 0xcd, 0xce, 0xcd, 0xbb, 0xa9, 0xbb,
    0xaa, 0xab, 0xab, 0xac, 0xbd, 0xcc, 0xbc, 0xbb, 0xcc, 0xcc,
    0xdd, 0xcc, 0xa9, 0xaa, 0xbb, 0xab, 0xcb, 0xca, 0xcb, 0xcd,
    0xbb, 0xbb, 0xcb, 0xbd, 0xcd, 0xdd, 0xa9, 0x9c, 0xac, 0xab,
    0xdc, 0xac, 0xbd, 0xcb, 0x9a, 0xcc, 0xac, 0xdd, 0xdb, 0xdc,
    0xc9, 0xbb, 0xab, 0xbc, 0xdc, 0xbd, 0xca, 0xcb, 0xcb, 0xcc,
    0xcb, 0xcc, 0xcd, 0xdd, 0xcb, 0xab, 0xcb, 0xcb, 0xcd, 0xcc,
    0xb9, 0xdb, 0xcc, 0xcc, 0xca, 0xcb, 0xcd, 0xdb, 0xa9, 0xab,
    0xa9, 0x88, 0x99, 0xcc, 0xba, 0xba, 0xaa, 0x9b, 0xba, 0xcb,
    0xbb, 0x97, 0x89, 0x9a, 0xb9, 0x87, 0x78, 0x77, 0x88, 0x88,
    0x89, 0x89, 0x88, 0x98, 0x87, 0x76, 0x68, 0xaa, 0xba, 0x87,
    0x78, 0x87, 0x88, 0x97, 0x88, 0x98, 0x78, 0x88, 0x77, 0x76,
    0x67, 0x9b, 0xba, 0x88, 0x78, 0x99, 0xa8, 0x99, 0xa9, 0xba,
    0x98, 0x88, 0x87, 0x86, 0x78, 0x9c, 0xc9, 0x98, 0x99, 0xba,
    0xab, 0x8b, 0xba, 0xa9, 0x98, 0x98, 0x98, 0x97, 0x89, 0xab,
    0xcb, 0xcb, 0x9a, 0xac, 0xba, 0xaa, 0xaa, 0x99, 0xba, 0xa8,
    0xa9, 0x98, 0x89, 0xab, 0xab, 0xad, 0xab, 0xab, 0xab, 0xaa,
    0x9a, 0xa9, 0x99, 0xba, 0xab, 0xa9, 0xba, 0xab, 0xab, 0xab,
    0xba, 0xab, 0xba, 0xaa, 0x99, 0x9b, 0x9b, 0xba, 0xbc, 0xbb,
    0xaa, 0xab, 0xab, 0xac, 0xbc, 0x9a, 0x99, 0x8c, 0x99, 0xa9,
    0xaa, 0x9a, 0xab, 0xab, 0xba, 0xbc, 0xba, 0xac, 0xbb, 0xab,
    0x8a, 0xab, 0xaa, 0xac, 0xaa, 0xcc, 0xba, 0xbb, 0xaa, 0xaa,
    0xab, 0xba, 0xac, 0xa9, 0xba, 0xbb, 0x9a, 0xab, 0xca, 0xa9,
    0x99, 0x9a, 0xb9, 0xaa, 0xbb, 0xab, 0xab, 0xbc, 0xdd, 0xbb,
    0xab, 0xbc, 0xaa, 0xba, 0xaa, 0xab, 0xaa, 0xcb, 0xab, 0xbb,
    0xca, 0xbb, 0xac, 0xcc, 0xaa, 0xbb, 0xbc, 0xbb, 0xac, 0xbc,
    0xaa, 0xaa, 0xaa, 0xbb, 0xab, 0xab, 0xba, 0xab, 0xab, 0xac,
    0xaa, 0xab, 0xaa, 0xbc, 0xab, 0xcb, 0xab, 0xcb, 0xab, 0xbb,
    0xaa, 0xbb, 0x9a, 0xaa, 0x9a, 0xaa, 0xba, 0xaa, 0xbb, 0xcb,
    0xba, 0xcb, 0xba, 0xb9, 0xb9, 0x9a, 0xab, 0xab, 0x9c, 0xaa,
    0xba, 0xcb, 0xba, 0xac, 0xca, 0xac, 0xdc, 0xbc, 0xab, 0x9a,
    0xba, 0xa9, 0xaa, 0xcc, 0xbc, 0xbd, 0xba, 0xaa, 0xcb, 0xbc,
    0xcc, 0xcc, 0xcb, 0xca, 0xba, 0xca, 0xb9, 0xaa, 0xaa, 0x9b,
    0xcb, 0x9b, 0xab, 0xcd, 0xdc, 0xdc, 0xcb, 0xac, 0xac, 0xbb,
    0xba, 0xba, 0xab, 0xba, 0xbb, 0xaa, 0xba, 0xcd, 0xdd, 0xde,
    0xdc, 0xdd, 0xcb, 0xdb, 0xbb, 0xbc, 0xbb, 0xbb, 0xcb, 0xaa,
    0xaa, 0xad, 0xee, 0xee, 0xed, 0xcd, 0xbd, 0xcc, 0xdd, 0xcb,
    0xcd, 0xcb, 0xca, 0x9c, 0xba, 0xa9, 0xbc, 0xed, 0xda, 0xac,
    0xbc, 0xbc, 0xca, 0xcc, 0xbb, 0xbb, 0xa9, 0x9a, 0xba, 0x87,
    0x76, 0x67, 0x77, 0x78, 0x88, 0x88, 0x87, 0x88, 0x99, 0x78,
    0x66, 0xac, 0xb9, 0x74, 0x43, 0x24, 0x66, 0x77, 0x78, 0x88,
    0x99, 0x9a, 0x99, 0x97, 0x67, 0x9a, 0xc9, 0x75, 0x46, 0x66,
    0x89, 0xaa, 0xbc, 0xbb, 0xca, 0xaa, 0xbb, 0xa9, 0x89, 0xaa,
    0xaa, 0x87, 0x8b, 0xdd, 0xde, 0xde, 0xdd, 0xdd, 0xdd, 0xbb,
    0x9a, 0xbb, 0xca, 0x9b, 0xca, 0xac, 0xef, 0xff, 0xfd, 0xee,
    0xcd, 0xdb, 0xca, 0xba, 0xbc, 0xcc, 0xba, 0x9a, 0xb9, 0xce,
    0xee, 0xfd, 0xdc, 0xcc, 0xbc, 0xbc, 0xab, 0xcd, 0xdc, 0xdb,
    0xa9, 0xab, 0xba, 0xcd, 0xcb, 0xcc, 0xcc, 0xcb, 0xbc, 0xba,
    0xbc, 0xbc, 0xbb, 0xbb, 0x98, 0x9b, 0xb9, 0xab, 0x98, 0x99,
    0x99, 0xa9, 0xba, 0xab, 0xaa, 0xa9, 0x89, 0xa8, 0x78, 0xaa,
    0xba, 0xba, 0x9a, 0xa9, 0x98, 0x88, 0x99, 0x9a, 0xa9, 0xaa,
    0xaa, 0xb9, 0x88, 0xbb, 0xaa, 0xcb, 0xca, 0xbb, 0xbb, 0xbb,
    0xcc, 0xba, 0xbb, 0xaa, 0xbb, 0xba, 0x99, 0xab, 0xab, 0xdc,
    0xcc, 0xbb, 0xcc, 0xdc, 0xcb, 0xbb, 0xbd, 0xdb, 0xba, 0xbb,
    0xa9, 0xaa, 0xa9, 0xca, 0xbb, 0xdc, 0xbb, 0xaa, 0xab, 0xbb,
    0xaa, 0xba, 0xbb, 0xba, 0xba, 0xba, 0xbb, 0xdb, 0x9c, 0xaa,
    0xba, 0xab, 0xbb, 0xab, 0xaa, 0xbb, 0xab, 0xba, 0x89, 0xba,
    0xba, 0xcb, 0xcb, 0xbb, 0xbb, 0xbb, 0xbb, 0xbc, 0xab, 0xbc,
    0xac, 0xaa, 0xa9, 0xac, 0xba, 0xab, 0xca, 0xab, 0xc9, 0xbb,
    0xba, 0xbc, 0xba, 0xab, 0xca, 0xab, 0x9a, 0xbc, 0xba, 0xbb,
    0xba, 0xbb, 0xba, 0xab, 0xba, 0xbb, 0xa9, 0xba, 0xac, 0xab,
    0xba, 0xaa, 0xca, 0x9b, 0xac, 0xab, 0xbb, 0xcb, 0xba, 0xba,
    0xca, 0xa9, 0xbb, 0xab, 0xab, 0xbb, 0xac, 0xbb, 0xaa, 0xb9,
    0xaa, 0xbb, 0xba, 0xaa, 0x9a, 0x9a, 0xcb, 0xaa, 0xbb, 0xbb,
    0xba, 0xac, 0xaa, 0xca, 0xbb, 0xbb, 0xbc, 0xaa, 0xbb, 0xaa,
    0xba, 0xcb, 0xaa, 0xbc, 0xaa, 0xaa, 0xba, 0xca, 0xbb, 0xca,
    0xac, 0xba, 0xbb, 0xbb, 0xba, 0xbc, 0xcb, 0xcb, 0xac, 0xbc,
    0xba, 0xaa, 0x9a, 0xa9, 0x99, 0x99, 0x9a, 0x99, 0x99, 0x9a,
    0xab, 0xab, 0xaa, 0x9a, 0x99, 0xba, 0xa9, 0x9c, 0xba, 0xaa,
    0xba, 0xca, 0xbb, 0xbc, 0xb9, 0xba, 0xaa, 0xab, 0xaa, 0xbb,
    0xdb, 0xab, 0xac, 0xbb, 0xbc, 0xbc, 0xcb, 0xbd, 0xdb, 0xac,
    0xaa, 0xaa, 0xcc, 0xcc, 0xcb, 0xba, 0xab, 0xac, 0xbc, 0xcc,
    0xbc, 0xca, 0xba, 0xbb, 0xab, 0x9b, 0xab, 0xba, 0xcb, 0xba,
    0xca, 0xcb, 0xbb, 0xbb, 0xbb, 0xca, 0xb9, 0xaa, 0xba, 0xab,
    0xcb, 0xbb, 0xbb, 0xba, 0xbb, 0x9a, 0xac, 0xab, 0xbc, 0xab,
    0xba, 0x9b, 0xba, 0x9b, 0xdc, 0xab, 0xab, 0x9b, 0xa9, 0x9b,
    0xab, 0xaa, 0xaa, 0x9b, 0xb9, 0xbb, 0xab, 0x9c, 0xdd, 0xbc,
    0xba, 0xa9, 0x9a, 0x9a, 0xbb, 0xba, 0xaa, 0xbc, 0xd9, 0xbb,
    0xbc, 0xbb, 0xcb, 0xca, 0xca, 0x9b, 0xb9, 0xaa, 0xb9, 0xa9,
    0xbc, 0xba, 0xa8, 0xbb, 0xab, 0xa9, 0x9a, 0xa8, 0xa9, 0xaa,
    0xaa, 0x9a, 0xa9, 0xac, 0xba, 0x98, 0x89, 0x9a, 0xaa, 0x77,
    0x77, 0x77, 0x78, 0x88, 0x79, 0x89, 0x88, 0x89, 0x88, 0x88,
    0x88, 0x9b, 0xba, 0x85, 0x56, 0x66, 0x87, 0x89, 0x89, 0x98,
    0x88, 0x77, 0x77, 0x78, 0x88, 0x9b, 0xba, 0x76, 0x67, 0x89,
    0x89, 0x9a, 0xb9, 0xab, 0xa9, 0xa9, 0x98, 0x99, 0x88, 0xaa,
    0xca, 0x87, 0x8a, 0xdc, 0xcd, 0xdc, 0xbb, 0xbb, 0xcc, 0xbc,
    0xac, 0xba, 0x99, 0xba, 0xab, 0xbc, 0xdd, 0xdd, 0xdd, 0xcb,
    0xbc, 0xcd, 0xba, 0xbb, 0xca, 0xdc, 0xa9, 0x9b, 0xbc, 0xce,
    0xdc, 0xcd, 0xcb, 0xcd, 0xcb, 0xdc, 0xbc, 0xbc, 0xbc, 0xcd,
    0xaa, 0xbb, 0xab, 0xcc, 0xcc, 0xcb, 0xcc, 0xcc, 0xbc, 0xcd,
    0xac, 0xcc, 0xbc, 0xcb, 0xcb, 0xba, 0xa9, 0xbc, 0xcd, 0xcc,
    0xbc, 0xcc, 0xdc, 0xdc, 0xca, 0xab, 0xbc, 0xab, 0xca, 0xaa,
    0xca, 0xdc, 0xca, 0xad, 0xbd, 0xcd, 0xdc, 0xca, 0xac, 0xba,
    0xbc, 0xa9, 0xba, 0x9b, 0xaa, 0xcc, 0xcb, 0xcb, 0xca, 0xbc,
    0xcc, 0xbc, 0xba, 0xb9, 0xab, 0xcc, 0xda, 0xac, 0xab, 0xbb,
    0xaa, 0xbb, 0xba, 0xcc, 0xba, 0xaa, 0xaa, 0xb9, 0xbc, 0xbb,
    0xcb, 0xaa, 0xca, 0xba, 0xac, 0xbc, 0xcc, 0xcb, 0xba, 0xab,
    0xaa, 0xbb, 0xbc, 0xba, 0xba, 0xab, 0xa9, 0x9a, 0xcb, 0xba,
    0xab, 0xab, 0xcc, 0xcb, 0xaa, 0xbb, 0xab, 0xcc, 0xca, 0xcc,
    0xca, 0x9a, 0xbc, 0xbc, 0xbd, 0xbb, 0xcc, 0xca, 0x9a, 0xa9,
    0xba, 0xbd, 0xaa, 0xaa, 0xab, 0x99, 0x99, 0x99, 0x99, 0x99,
    0xab, 0xba, 0xaa, 0x99, 0xaa, 0x99, 0xaa, 0xab, 0xca, 0xa9,
    0xaa, 0xa8, 0xa9, 0x99, 0xbb, 0xaa, 0xa9, 0xbb, 0xba, 0xab,
    0xbb, 0xaa, 0xba, 0xaa, 0xca, 0xcb, 0xba, 0xab, 0xab, 0xab,
    0xbc, 0xca, 0xab, 0xac, 0xbb, 0xab, 0xab, 0xbb, 0xbb, 0xab,
    0xac, 0xba, 0xbc, 0xba, 0xbb, 0xcc, 0xbb, 0xaa, 0xba, 0xaa,
    0xac, 0xaa, 0xca, 0xac, 0xba, 0xba, 0x9a, 0xa9, 0xa9, 0xaa,
    0xab, 0xa9, 0xab, 0xaa, 0xbb, 0xcb, 0xcc, 0xce, 0xdb, 0xdb,
    0xa7, 0x78, 0xac, 0xcb, 0xab, 0xcb, 0xbc, 0xaa, 0xbb, 0xcd,
    0xdb, 0xed, 0xcd, 0xba, 0xa7, 0x68, 0xbd, 0xac, 0xcc, 0xac,
    0xcc, 0xcb, 0xbb, 0xcc, 0xdd, 0xcc, 0xdd, 0xdb, 0xa7, 0x69,
    0xcc, 0xcc, 0xbc, 0xdd, 0xbc, 0xaa, 0xbb, 0xcc, 0xdc, 0xcb,
    0xcc, 0xed, 0xa6, 0x6a, 0xdd, 0xdc, 0xcb, 0xbb, 0xc9, 0xbc,
    0xba, 0xcb, 0xcb, 0xcc, 0xcd, 0xed, 0xa7, 0x5a, 0xeb, 0xdd,
    0xcb, 0xcb, 0xaa, 0x9c, 0xac, 0xba, 0xba, 0xcc, 0xdd, 0xdd,
    0xb7, 0x6c, 0xed, 0xcc, 0xcb, 0xcc, 0xc9, 0x9a, 0xab, 0x9a,
    0xab, 0xba, 0xdd, 0xee, 0xa7, 0x7a, 0xcc, 0xdc, 0xba, 0xba,
    0x99, 0xba, 0xba, 0xab, 0xca, 0xcb, 0xcb, 0xcc, 0x97, 0x9c,
    0xcc, 0xbc, 0xda, 0xaa, 0x88, 0xba, 0xaa, 0xaa, 0xbb, 0xba,
    0xbc, 0xcc, 0x88, 0xad, 0xcc, 0xbc, 0xba, 0xbb, 0x99, 0xab,
    0xa9, 0xab, 0xcc, 0xcb, 0xbc, 0xcb, 0x9a, 0xbb, 0xbb, 0xcb,
    0xaa, 0xa9, 0x89, 0xaa, 0xbc, 0xa9, 0xab, 0xbc, 0xca, 0xa9,
    0x9c, 0xbb, 0xcc, 0xbc, 0xab, 0x99, 0x99, 0x9b, 0xcb, 0xcb,
    0xdd, 0xcc, 0xca, 0x98, 0xbb, 0xbb, 0xcb, 0xcb, 0xa9, 0xa9,
    0xaa, 0xba, 0xab, 0xcd, 0xcb, 0xa9, 0x99, 0xaa, 0xbc, 0xcb,
    0xac, 0xba, 0x9b, 0x9a, 0xba, 0xba, 0xac, 0xbc, 0xba, 0xab,
    0xcb, 0xaa, 0xbc, 0xcb, 0xbb, 0xbb, 0xba, 0x9b, 0xab, 0xaa,
    0xa9, 0xbb, 0xcd, 0xbb, 0xa9, 0x9c, 0xbc, 0xbb, 0xcc, 0xb9,
    0xaa, 0xba, 0xba, 0xab, 0xa9, 0xac, 0xcb, 0xac, 0xca, 0xaa,
    0xbc, 0xab, 0xc9, 0xab, 0xab, 0xca, 0xca, 0xab, 0xa9, 0x9c,
    0xcb, 0xbb, 0xba, 0x9b, 0xba, 0xbb, 0xbb, 0xba, 0xba, 0xac,
    0xab, 0xaa, 0xaa, 0x9a, 0xbb, 0xab, 0xac, 0xa9, 0xba, 0xbb,
    0x9b, 0xaa, 0xab, 0xaa, 0xba, 0x9a, 0xa9, 0x99, 0x9a, 0xaa,
    0xa9, 0x98, 0xa9, 0xaa, 0xaa, 0xa9, 0x9a, 0xab, 0xba, 0xba,
    0xaa, 0xab, 0xb9, 0xab, 0xaa, 0xaa, 0x99, 0x98, 0xbb, 0xba,
    0xbb, 0xab, 0xbb, 0xab, 0xba, 0xb9, 0xba, 0xaa, 0xaa, 0xb9,
    0xa9, 0x99, 0xbb, 0xac, 0xab, 0x9a, 0xaa, 0xca, 0xaa, 0xa9,
    0xca, 0xaa, 0x99, 0x9a, 0x99, 0x99, 0xa9, 0xba, 0xa9, 0xa9,
    0xca, 0xca, 0xaa, 0xbb, 0xaa, 0xba, 0x9a, 0xc9, 0x89, 0xa9,
    0x89, 0xa9, 0xaa, 0x9a, 0xab, 0xba, 0xaa, 0xba, 0xa9, 0xa9,
    0x99, 0xa9, 0x99, 0xba, 0x99, 0x99, 0xaa, 0xba, 0xaa, 0xab,
    0xaa, 0xbc, 0xaa, 0xab, 0xa9, 0xb9, 0x9a, 0xbb, 0xaa, 0xab,
    0xab, 0xab, 0xaa, 0xab, 0xaa, 0xab, 0xca, 0xab, 0xca, 0xca,
    0xab, 0xbc, 0xac, 0xca, 0xac, 0xbc, 0xab, 0xbc, 0xab, 0xcb,
    0xab, 0xcb, 0xbb, 0xaa, 0xca, 0xcc, 0xca, 0xac, 0xbc, 0xab,
    0xac, 0xac, 0xaa, 0xba, 0xbb, 0xca, 0xcb, 0xcc, 0xac, 0xbc,
    0xdd, 0xcc, 0xbb, 0xcc, 0xbb, 0xbb, 0xaa, 0xac, 0xbb, 0xbb,
    0xbb, 0xab, 0xab, 0xbc, 0xcb, 0xbc, 0xa9, 0xcb, 0xcc, 0xba,
    0xaa, 0xbb, 0xba, 0xac, 0xaa, 0xac, 0xab, 0xab, 0xaa, 0x9c,
    0xbc, 0xcb, 0xbc, 0xcb, 0xba, 0xac, 0xab, 0xab, 0xaa, 0xca,
    0x9a, 0xcb, 0x9b, 0xab, 0xab, 0xba, 0xba, 0xca, 0xba, 0xbb,
    0xbb, 0xab, 0xba, 0xbb, 0xab, 0xba, 0xac, 0xcb, 0xab, 0xca,
    0xaa, 0xaa, 0xba, 0xab, 0xbb, 0xbb, 0xba, 0xab, 0xaa, 0xca,
    0xcc, 0xab, 0xba, 0xcb, 0x9a, 0xab, 0xbb, 0xba, 0x99, 0xab,
    0xa9, 0xba, 0xaa, 0xaa, 0xab, 0xbb, 0x9b, 0xba, 0x9a, 0xac,
    0xcb, 0xb9, 0xaa, 0xab, 0xcc, 0xba, 0x9a, 0xbb, 0xba, 0xba,
    0xaa, 0xcb, 0xbc, 0xab, 0xba, 0xbb, 0xab, 0xca, 0xac, 0xbc,
    0xcc, 0xbb, 0xbb, 0xcc, 0xcd, 0xcc, 0xdd, 0xca, 0xcb, 0xbd,
    0xbc, 0xdd, 0xcd, 0xcc, 0xcd, 0xdc, 0xcc, 0xab, 0xbb, 0xbb,
    0xcc, 0xac, 0xaa, 0xcc, 0xbc, 0xcc, 0xcc, 0xcc, 0xdc, 0xcb,
    0xbb, 0xcc, 0xbb, 0xcc, 0xcc, 0xaa, 0xab, 0xac, 0xdd, 0xcb,
    0xbb, 0xbc, 0xdc, 0xcc, 0xcb, 0xac, 0xbb, 0xa9, 0x9b, 0xba,
    0xc9, 0x89, 0xaa, 0xcd, 0xcd, 0xdb, 0xcc, 0x9b, 0xcb, 0xba,
    0xba, 0x99, 0x98, 0xab, 0xbb, 0x87, 0x78, 0xad, 0xed, 0xed,
    0xac, 0xac, 0xba, 0xbb, 0xa9, 0xa8, 0x89, 0x9b, 0xc9, 0x86,
    0x54, 0x66, 0x9c, 0xed, 0xdc, 0xbb, 0xab, 0xba, 0x99, 0x99,
    0x99, 0xbb, 0xbb, 0x97, 0x65, 0x32, 0x46, 0x8a, 0xbc, 0xab,
    0xaa, 0xaa, 0x99, 0xba, 0xba, 0x9c, 0xab, 0xba, 0xa9, 0x64,
    0x33, 0x46, 0x78, 0x89, 0x9a, 0x9a, 0x9a, 0xab, 0xca, 0x9b,
    0xcc, 0xde, 0xff, 0xec, 0x87, 0x67, 0x77, 0x89, 0x9a, 0xaa,
    0xbb, 0xcb, 0xab, 0xbb, 0xba, 0xcd, 0xee, 0xef, 0xdb, 0xaa,
    0x99, 0x9a, 0xab, 0xba, 0xaa, 0xba, 0xaa, 0xbb, 0xab, 0xab,
    0xcb, 0xce, 0xcd, 0xcb, 0xaa, 0xab, 0xaa, 0xac, 0xcc, 0xdb,
    0xaa, 0xba, 0xbb, 0xaa, 0xcc, 0xbb, 0xcc, 0xdb, 0xca, 0xa9,
    0x9a, 0xab, 0xaa, 0xaa, 0x9b, 0xaa, 0xba, 0xaa, 0xcc, 0xbc,
